{
  "version": "1.0",
  "truncation": null,
  "padding": null,
  "added_tokens": [
    {
      "id": 0,
      "content": "[PAD]",
      "single_word": false,
      "lstrip": false,
      "rstrip": false,
      "normalized": false,
      "special": true
    },
    {
      "id": 1,
      "content": "[UNK]",
      "single_word": false,
      "lstrip": false,
      "rstrip": false,
      "normalized": false,
      "special": true
    },
    {
      "id": 2,
      "content": "[CLS]",
      "single_word": false,
      "lstrip": false,
      "rstrip": false,
      "normalized": false,
      "special": true
    },
    {
      "id": 3,
      "content": "[SEP]",
      "single_word": false,
      "lstrip": false,
      "rstrip": false,
      "normalized": false,
      "special": true
    },
    {
      "id": 4,
      "content": "[MASK]",
      "single_word": false,
      "lstrip": false,
      "rstrip": false,
      "normalized": false,
      "special": true
    }
  ],
  "normalizer": null,
  "pre_tokenizer": {
    "type": "ByteLevel",
    "add_prefix_space": false,
    "trim_offsets": true,
    "use_regex": true
  },
  "post_processor": {
    "type": "ByteLevel",
    "add_prefix_space": true,
    "trim_offsets": false,
    "use_regex": true
  },
  "decoder": {
    "type": "ByteLevel",
    "add_prefix_space": true,
    "trim_offsets": true,
    "use_regex": true
  },
  "model": {
    "type": "BPE",
    "dropout": null,
    "unk_token": null,
    "continuing_subword_prefix": null,
    "end_of_word_suffix": null,
    "fuse_unk": false,
    "vocab": {
      "[PAD]": 0,
      "[UNK]": 1,
      "[CLS]": 2,
      "[SEP]": 3,
      "[MASK]": 4,
      "!": 5,
      "\"": 6,
      "#": 7,
      "$": 8,
      "%": 9,
      "&": 10,
      "'": 11,
      "(": 12,
      ")": 13,
      "*": 14,
      "+": 15,
      ",": 16,
      "-": 17,
      ".": 18,
      "/": 19,
      "0": 20,
      "1": 21,
      "2": 22,
      "3": 23,
      "4": 24,
      "5": 25,
      "6": 26,
      "7": 27,
      "8": 28,
      "9": 29,
      ":": 30,
      ";": 31,
      "<": 32,
      "=": 33,
      ">": 34,
      "?": 35,
      "@": 36,
      "A": 37,
      "B": 38,
      "C": 39,
      "D": 40,
      "E": 41,
      "F": 42,
      "G": 43,
      "H": 44,
      "I": 45,
      "J": 46,
      "K": 47,
      "L": 48,
      "M": 49,
      "N": 50,
      "O": 51,
      "P": 52,
      "Q": 53,
      "R": 54,
      "S": 55,
      "T": 56,
      "U": 57,
      "V": 58,
      "W": 59,
      "X": 60,
      "Y": 61,
      "Z": 62,
      "[": 63,
      "\\": 64,
      "]": 65,
      "^": 66,
      "_": 67,
      "`": 68,
      "a": 69,
      "b": 70,
      "c": 71,
      "d": 72,
      "e": 73,
      "f": 74,
      "g": 75,
      "h": 76,
      "i": 77,
      "j": 78,
      "k": 79,
      "l": 80,
      "m": 81,
      "n": 82,
      "o": 83,
      "p": 84,
      "q": 85,
      "r": 86,
      "s": 87,
      "t": 88,
      "u": 89,
      "v": 90,
      "w": 91,
      "x": 92,
      "y": 93,
      "z": 94,
      "{": 95,
      "|": 96,
      "}": 97,
      "~": 98,
      "¡": 99,
      "¢": 100,
      "£": 101,
      "¤": 102,
      "¥": 103,
      "¦": 104,
      "§": 105,
      "¨": 106,
      "©": 107,
      "ª": 108,
      "«": 109,
      "¬": 110,
      "®": 111,
      "¯": 112,
      "°": 113,
      "±": 114,
      "²": 115,
      "³": 116,
      "´": 117,
      "µ": 118,
      "¶": 119,
      "·": 120,
      "¸": 121,
      "¹": 122,
      "º": 123,
      "»": 124,
      "¼": 125,
      "½": 126,
      "¾": 127,
      "¿": 128,
      "À": 129,
      "Á": 130,
      "Â": 131,
      "Ã": 132,
      "Ä": 133,
      "Å": 134,
      "Æ": 135,
      "Ç": 136,
      "È": 137,
      "É": 138,
      "Ê": 139,
      "Ë": 140,
      "Ì": 141,
      "Í": 142,
      "Î": 143,
      "Ï": 144,
      "Ð": 145,
      "Ñ": 146,
      "Ò": 147,
      "Ó": 148,
      "Ô": 149,
      "Õ": 150,
      "Ö": 151,
      "×": 152,
      "Ø": 153,
      "Ù": 154,
      "Ú": 155,
      "Û": 156,
      "Ü": 157,
      "Ý": 158,
      "Þ": 159,
      "ß": 160,
      "à": 161,
      "á": 162,
      "â": 163,
      "ã": 164,
      "ä": 165,
      "å": 166,
      "æ": 167,
      "ç": 168,
      "è": 169,
      "é": 170,
      "ê": 171,
      "ë": 172,
      "ì": 173,
      "í": 174,
      "î": 175,
      "ï": 176,
      "ð": 177,
      "ñ": 178,
      "ò": 179,
      "ó": 180,
      "ô": 181,
      "õ": 182,
      "ö": 183,
      "÷": 184,
      "ø": 185,
      "ù": 186,
      "ú": 187,
      "û": 188,
      "ü": 189,
      "ý": 190,
      "þ": 191,
      "ÿ": 192,
      "Ā": 193,
      "ā": 194,
      "Ă": 195,
      "ă": 196,
      "Ą": 197,
      "ą": 198,
      "Ć": 199,
      "ć": 200,
      "Ĉ": 201,
      "ĉ": 202,
      "Ċ": 203,
      "ċ": 204,
      "Č": 205,
      "č": 206,
      "Ď": 207,
      "ď": 208,
      "Đ": 209,
      "đ": 210,
      "Ē": 211,
      "ē": 212,
      "Ĕ": 213,
      "ĕ": 214,
      "Ė": 215,
      "ė": 216,
      "Ę": 217,
      "ę": 218,
      "Ě": 219,
      "ě": 220,
      "Ĝ": 221,
      "ĝ": 222,
      "Ğ": 223,
      "ğ": 224,
      "Ġ": 225,
      "ġ": 226,
      "Ģ": 227,
      "ģ": 228,
      "Ĥ": 229,
      "ĥ": 230,
      "Ħ": 231,
      "ħ": 232,
      "Ĩ": 233,
      "ĩ": 234,
      "Ī": 235,
      "ī": 236,
      "Ĭ": 237,
      "ĭ": 238,
      "Į": 239,
      "į": 240,
      "İ": 241,
      "ı": 242,
      "Ĳ": 243,
      "ĳ": 244,
      "Ĵ": 245,
      "ĵ": 246,
      "Ķ": 247,
      "ķ": 248,
      "ĸ": 249,
      "Ĺ": 250,
      "ĺ": 251,
      "Ļ": 252,
      "ļ": 253,
      "Ľ": 254,
      "ľ": 255,
      "Ŀ": 256,
      "ŀ": 257,
      "Ł": 258,
      "ł": 259,
      "Ń": 260,
      "Ġì": 261,
      "ìĿ": 262,
      "Ġë": 263,
      "íķ": 264,
      "Ġê": 265,
      "ìĹ": 266,
      "ëĭ": 267,
      "ëĭ¤": 268,
      "ìĿ´": 269,
      "Ġí": 270,
      "ìĹĲ": 271,
      "ëĬ": 272,
      "ëĬĶ": 273,
      "ìĿĺ": 274,
      "ê³": 275,
      "ìĦ": 276,
      "ë¡": 277,
      "íķĺ": 278,
      "ë¡ľ": 279,
      "ĠìĿ": 280,
      "ê°": 281,
      "ìł": 282,
      "ì§": 283,
      "ìĿĦ": 284,
      "ìŀ": 285,
      "ë¥": 286,
      "ìľ": 287,
      "Ġìŀ": 288,
      "ë¦": 289,
      "ìķ": 290,
      "íķľ": 291,
      "êµ": 292,
      "ìĭ": 293,
      "ê³ł": 294,
      "ëı": 295,
      "ìĿĢ": 296,
      "ìĦľ": 297,
      "¸°": 298,
      "Ĥ¬": 299,
      "ê°Ģ": 300,
      "ìĬ": 301,
      "Ġìł": 302,
      "ĮĢ": 303,
      "ãħ": 304,
      "Īëĭ¤": 305,
      "ëĵ": 306,
      "ì§Ģ": 307,
      "ëħ": 308,
      "ìľ¼": 309,
      "Ġê°": 310,
      "ë¦¬": 311,
      "ìĸ": 312,
      "ëĤ": 313,
      "ìļ": 314,
      "ĠìĿ´": 315,
      "ë¥¼": 316,
      "Ġë°": 317,
      "Ġìķ": 318,
      "ê²": 319,
      "ìĬ¤": 320,
      "ìĺ": 321,
      "ë§": 322,
      "ê¸°": 323,
      "ãħĭ": 324,
      "ëıĦ": 325,
      "ëħĦ": 326,
      "Ġ1": 327,
      "ìĽ": 328,
      "Ŀ¼": 329,
      "ĠìĹ": 330,
      "ë©": 331,
      "·¸": 332,
      "ëĲ": 333,
      "ëł": 334,
      "ìĸ´": 335,
      "ĠìĦ": 336,
      "Īĺ": 337,
      "ìľ¼ë¡ľ": 338,
      "ëĿ¼": 339,
      "ìĹĲìĦľ": 340,
      "ë¶": 341,
      "ìĿ¸": 342,
      "Ġê²": 343,
      "ë°": 344,
      "ìĭľ": 345,
      "Ġìĭ": 346,
      "ãħĭãħĭ": 347,
      "íķ´": 348,
      "Ġë§": 349,
      "Ġì§": 350,
      "íĸ": 351,
      "Ġê³": 352,
      "£¼": 353,
      "ëĤĺ": 354,
      "ì¹": 355,
      "ìķĦ": 356,
      "Ġëĭ": 357,
      "ëŀ": 358,
      "ìĤ¬": 359,
      "ìĻ": 360,
      "ìŀĲ": 361,
      "Ġ2": 362,
      "Ġìĺ": 363,
      "ê³¼": 364,
      "ë³": 365,
      "ìĥ": 366,
      "Ġê·¸": 367,
      "ëį": 368,
      "ë¬": 369,
      "ëĮĢ": 370,
      "ĠëĮĢ": 371,
      "Ġìľ": 372,
      "ĠìĤ¬": 373,
      "ĠëĤ": 374,
      "ëĵ¤": 375,
      "Ġêµ": 376,
      "ë¶Ģ": 377,
      "ëĲĺ": 378,
      "êµŃ": 379,
      "íĻ": 380,
      "ìĿ´ëĭ¤": 381,
      "ìĿ¼": 382,
      "Ġë¶": 383,
      "ëŁ": 384,
      "Ġëı": 385,
      "ëª": 386,
      "ë²": 387,
      "Ġë³": 388,
      "íĺ": 389,
      "íĬ": 390,
      "ì²": 391,
      "Ġëª": 392,
      "íĥ": 393,
      "ë¯": 394,
      "ìłģ": 395,
      "ìĻĢ": 396,
      "ìĨ": 397,
      "ê²Į": 398,
      "ìłķ": 399,
      "ìŀ¥": 400,
      "ìĹĪëĭ¤": 401,
      "ìĺĢ": 402,
      "Ġê°Ģ": 403,
      "íĬ¸": 404,
      "Ġì§Ģ": 405,
      "¤ĳ": 406,
      "ĠìĪĺ": 407,
      "ĠìŀĪ": 408,
      "¡°": 409,
      "Ġìĭľ": 410,
      "¹Ħ": 411,
      "ì£¼": 412,
      "ìĦ±": 413,
      "êµ¬": 414,
      "ë©°": 415,
      "ëĵľ": 416,
      "íķĻ": 417,
      "ìĪĺ": 418,
      "ìłĦ": 419,
      "ìĹ¬": 420,
      "ë¥´": 421,
      "ĠìķĦ": 422,
      "Ġê¸°": 423,
      "ìĽĶ": 424,
      "Ġìĥ": 425,
      "ĠìłĦ": 426,
      "Ġíķĺ": 427,
      "Ġëĵ": 428,
      "ìĽĲ": 429,
      "ìĥģ": 430,
      "íĻĶ": 431,
      "ìłľ": 432,
      "±°": 433,
      "íĦ": 434,
      "Ġëĭ¤": 435,
      "ë©´": 436,
      "ĠìŀĪëĭ¤": 437,
      "ļĮ": 438,
      "ĽĦ": 439,
      "ì¹ĺ": 440,
      "Ġíĺ": 441,
      "íĶ": 442,
      "ë§Į": 443,
      "´Ģ": 444,
      "Ġë¬": 445,
      "ëıĻ": 446,
      "ëĭĪ": 447,
      "Ġìļ": 448,
      "Ġìłľ": 449,
      "ì°": 450,
      "ìļ°": 451,
      "Ġ20": 452,
      "íĦ°": 453,
      "ĠìĿ¼": 454,
      "íķĺìĺĢ": 455,
      "ĠìĨ": 456,
      "íĨ": 457,
      "íĸĪëĭ¤": 458,
      "Ġìłķ": 459,
      "Ġì¤ĳ": 460,
      "ĠíĻ": 461,
      "Ġíķľ": 462,
      "Ġíķ": 463,
      "ìĤ": 464,
      "íķĺëĬĶ": 465,
      "Ġ19": 466,
      "ë§Ī": 467,
      "Ġì¶": 468,
      "ìļ©": 469,
      "Ġë²": 470,
      "Ġì²": 471,
      "Ġì£¼": 472,
      "Ġìĸ": 473,
      "ĠìĬ": 474,
      "ĠìŀĲ": 475,
      "ëŁ¬": 476,
      "ë£": 477,
      "Ġê²ĥ": 478,
      "íļĮ": 479,
      "ëį°": 480,
      "êµĲ": 481,
      "ãħĭãħĭãħĭãħĭ": 482,
      "íĮ": 483,
      "ĠìĿ¸": 484,
      "ëĲľ": 485,
      "ëĦ": 486,
      "Ġë¯": 487,
      "ëªħ": 488,
      "ê¸": 489,
      "ê·¸": 490,
      "ĠëĲ": 491,
      "Ġê³µ": 492,
      "ìĦł": 493,
      "Ġê²½": 494,
      "ĠìľĦ": 495,
      "ĠíĶ": 496,
      "Ġíı": 497,
      "ģ¬": 498,
      "Ġë³´": 499,
      "Ġì°": 500,
      "ê³Ħ": 501,
      "Ġìľł": 502,
      "íķĺê³ł": 503,
      "ìĺ¤": 504,
      "ë¬¸": 505,
      "ìĹŃ": 506,
      "ìĭł": 507,
      "ê±°": 508,
      "ĠìĿĺ": 509,
      "ë¹Ħ": 510,
      "ë³´": 511,
      "ìľĦ": 512,
      "ì§Ħ": 513,
      "ìĹĪ": 514,
      "ìĦ¸": 515,
      "íı": 516,
      "Ġ3": 517,
      "Ġëĵ±": 518,
      "ĠìĻ": 519,
      "íĥĢ": 520,
      "ë¯¸": 521,
      "ê¹": 522,
      "ìĤ°": 523,
      "ìĨĮ": 524,
      "Ġë¶Ģ": 525,
      "ĠëĤĺ": 526,
      "ëłĪ": 527,
      "ë¯¼": 528,
      "ìĿĮ": 529,
      "íķĺìĺĢëĭ¤": 530,
      "ì¡°": 531,
      "ìķ¼": 532,
      "êµ°": 533,
      "Ġì¹": 534,
      "ìļĶ": 535,
      "Ġíĥ": 536,
      "Ġì¡°": 537,
      "ĠíĮ": 538,
      "íķĺìĹ¬": 539,
      "ì¦": 540,
      "Ġëª¨": 541,
      "ķĮ": 542,
      "Ġë¯¸": 543,
      "ê°Ħ": 544,
      "Ġë°ľ": 545,
      "ĠìĦł": 546,
      "ì¡": 547,
      "ĠìĹ°": 548,
      "ê³µ": 549,
      "ĠëıĻ": 550,
      "ì¶": 551,
      "íĤ": 552,
      "ìľ¼ë©°": 553,
      "Ġëį": 554,
      "ê°ľ": 555,
      "Ġìĺģ": 556,
      "Ġìĺ¤": 557,
      "íķľëĭ¤": 558,
      "¢ħ": 559,
      "ĳĲ": 560,
      "ìĭĿ": 561,
      "Ġë§Ī": 562,
      "ì¹´": 563,
      "ëĲĺìĹĪëĭ¤": 564,
      "ê·": 565,
      "íĭ": 566,
      "ì²´": 567,
      "íģ¬": 568,
      "ìĹĲëĬĶ": 569,
      "ĠìĨĮ": 570,
      "Ġê°ľ": 571,
      "ëĭ¨": 572,
      "Ġêµ¬": 573,
      "ëł¤": 574,
      "ëĭ¹": 575,
      "½Ķ": 576,
      "Ġê³ł": 577,
      "00": 578,
      "ëŀĺ": 579,
      "ĠìĽ": 580,
      "íķł": 581,
      "ĠíĨ": 582,
      "ìŀ¬": 583,
      "ë¬´": 584,
      "ĠìĬ¤": 585,
      "ëįĺ": 586,
      "Ġë¹Ħ": 587,
      "ĠìĦ¸": 588,
      "ìķĪ": 589,
      "ŀĪ": 590,
      "ê´Ģ": 591,
      "ìŀĳ": 592,
      "ê¹Į": 593,
      "ĠëĲĺ": 594,
      "íĽĦ": 595,
      "ĠëıĦ": 596,
      "íĶĦ": 597,
      "ĳľ": 598,
      "ëĶ": 599,
      "íĸī": 600,
      "Ġìĥģ": 601,
      "ĠêµŃ": 602,
      "Ġíĸ": 603,
      "±´": 604,
      "..": 605,
      "ĠìĹ¬": 606,
      "ĠëĶ": 607,
      "ĠíĽĦ": 608,
      "Ġíķ´": 609,
      "ê²½": 610,
      "ĠëķĮ": 611,
      "ìľł": 612,
      "ĠìĤ": 613,
      "ĠìĦľ": 614,
      "íĺ¸": 615,
      "´Ī": 616,
      "Ġëħ": 617,
      "Ġê´Ģ": 618,
      "ìĥĿ": 619,
      "Ġ4": 620,
      "íĸĪ": 621,
      "ë¬¼": 622,
      "ìļ´": 623,
      "íĤ¤": 624,
      "ë£¨": 625,
      "ì°¨": 626,
      "ĠìŀĪëĬĶ": 627,
      "ë¶Ħ": 628,
      "ëł¥": 629,
      "ĠìĦ±": 630,
      "ë°ĺ": 631,
      "ë³¸": 632,
      "ĠíĶĦ": 633,
      "ë¶ĢíĦ°": 634,
      "ìĹ°": 635,
      "íŀĪ": 636,
      "Ġìĭł": 637,
      "íİ": 638,
      "íĨł": 639,
      "ë°©": 640,
      "ìĹħ": 641,
      "ĺĲ": 642,
      "ĠëĮĢíķľ": 643,
      "ë¡Ŀ": 644,
      "íħ": 645,
      "ìŀĦ": 646,
      "ë¥¸": 647,
      "ì§Ģë§Į": 648,
      "ìĪ": 649,
      "Ġ201": 650,
      "ìķĺ": 651,
      "Ġ5": 652,
      "Ġë°©": 653,
      "µľ": 654,
      "ìĨį": 655,
      "ìĸĳ": 656,
      "ĠìķĬ": 657,
      "ĠëĤ´": 658,
      "ë°Ķ": 659,
      "ì¤ĳ": 660,
      "ëĶĶ": 661,
      "ëª¨": 662,
      "¸Į": 663,
      "Ġê·": 664,
      "Ġê°Ļ": 665,
      "Ġë§Į": 666,
      "Ġë°Ķ": 667,
      "ê¹Įì§Ģ": 668,
      "ĠëĺĲ": 669,
      "Ġë¬´": 670,
      "ĠíĬ": 671,
      "ĠíĨµ": 672,
      "¶Į": 673,
      "ĠìĹŃ": 674,
      "ëĤ´": 675,
      "ìĺģ": 676,
      "íĭ°": 677,
      "Ġê±°": 678,
      "Ġê¸": 679,
      "íı¬": 680,
      "ĠëĤ¨": 681,
      "Ġì¶ľ": 682,
      "ĠìĹĲ": 683,
      "Ġìŀ¥": 684,
      "ëħ¸": 685,
      "íĨµ": 686,
      "ĠêµĲ": 687,
      "ëĦ¤": 688,
      "ĠìĥĿ": 689,
      "Ġìĸ´": 690,
      "íĹ": 691,
      "ìĹĲê²Į": 692,
      "ìĿ´ëĿ¼": 693,
      "ì½Ķ": 694,
      "íĮĮ": 695,
      "Ġë©": 696,
      "Ġê²°": 697,
      "Ġìļ°": 698,
      "Ġì§Ħ": 699,
      "ìłģìĿ¸": 700,
      "íĳľ": 701,
      "Ġë¬¸": 702,
      "íķĻêµĲ": 703,
      "Ī¬": 704,
      "Ġíı¬": 705,
      "ì¢ħ": 706,
      "ë²ķ": 707,
      "ë²Ħ": 708,
      "ìłģìľ¼ë¡ľ": 709,
      "ĠíĺĦ": 710,
      "ë¦½": 711,
      "ĠëĦ": 712,
      "ì¼": 713,
      "Ġ200": 714,
      "ë°ľ": 715,
      "êµŃìĿĺ": 716,
      "Ġë¶Ī": 717,
      "Ġë¡": 718,
      "ê°ģ": 719,
      "Ġìŀĳ": 720,
      "ëŀĢ": 721,
      "ĠìķĪ": 722,
      "ĠìķĮ": 723,
      "ë¦°": 724,
      "Ġëħ¸": 725,
      "ì¸": 726,
      "ëŀĳ": 727,
      "Ġìµľ": 728,
      "Ġ6": 729,
      "ĠìĹĨ": 730,
      "Ġë¦": 731,
      "ĠìĽĲ": 732,
      "ìħ": 733,
      "ë¨": 734,
      "íĺķ": 735,
      "20": 736,
      "ì¦Ī": 737,
      "ëĲĺìĸ´": 738,
      "Ġë°ĺ": 739,
      "Ġëĭ¹": 740,
      "ê²©": 741,
      "ì§ģ": 742,
      "Ġê³Ħ": 743,
      "Ġë§Ĳ": 744,
      "ĠëĶ°": 745,
      "ëĬĶëį°": 746,
      "íķ©": 747,
      "ìĭ¤": 748,
      "ëĵ¤ìĿ´": 749,
      "ì¤": 750,
      "Ġë¶Ħ": 751,
      "Ġíİ": 752,
      "Ġë°Ľ": 753,
      "ë©´ìĦľ": 754,
      "Ġê°ķ": 755,
      "ëħĦìĹĲ": 756,
      "ëĳĲ": 757,
      "ĠíĮĮ": 758,
      "Ġë¦¬": 759,
      "ĠìĤ¬ìļ©": 760,
      "íĴ": 761,
      "ëĵ¤ìĿĢ": 762,
      "ëŀĮ": 763,
      "ê±´": 764,
      "Ġë°°": 765,
      "ĠëĳĲ": 766,
      "íĺĦ": 767,
      "ê¶Į": 768,
      "Ġ7": 769,
      "ìłĲ": 770,
      "Ġìĭ¤": 771,
      "íķĺê¸°": 772,
      "íķ¨": 773,
      "ë¥ĺ": 774,
      "Ġëĭ¨": 775,
      "Ġë¡ľ": 776,
      "ë¦Ħ": 777,
      "Ġ8": 778,
      "´ĳ": 779,
      "ê¸Ī": 780,
      "Ġìŀ¬": 781,
      "Ġì°¨": 782,
      "Ġëªħ": 783,
      "ìĦ¤": 784,
      "ìĭ¬": 785,
      "ĠìĺĪ": 786,
      "ìĬ¹": 787,
      "19": 788,
      "ìĹĲìĦľëĬĶ": 789,
      "íķĺê²Į": 790,
      "Ġíķ¨": 791,
      "ĠìĦ¤": 792,
      "ëł¹": 793,
      "ëĤ¨": 794,
      "Ġê¹": 795,
      "ëĵ±": 796,
      "ë¸Į": 797,
      "ì²ľ": 798,
      "ĠìĿ´íĽĦ": 799,
      "íĥľ": 800,
      "ì¡±": 801,
      "ĠëĨ": 802,
      "Ġíķľëĭ¤": 803,
      "´Ŀ": 804,
      "Ġë§İ": 805,
      "íĶ¼": 806,
      "ëĤľ": 807,
      "Ġ10": 808,
      "ĠíĹ": 809,
      "ë²Ī": 810,
      "Ġëį°": 811,
      "ª½": 812,
      "ë©Ķ": 813,
      "ë¡ł": 814,
      "ĠìļĶ": 815,
      "ìķĺëĭ¤": 816,
      "ì¶ľ": 817,
      "ì´Ī": 818,
      "íħĮ": 819,
      "ì¿": 820,
      "ĠíĬ¹": 821,
      "ì»": 822,
      "ĠëĬ": 823,
      "Ġë¹": 824,
      "Ġì¢ħ": 825,
      "ĠëįĶ": 826,
      "ĠìĿ¼ë³¸": 827,
      "Ġê°Ĳ": 828,
      "ëıħ": 829,
      "Ġë°ı": 830,
      "ìĦĿ": 831,
      "ĠëĿ¼": 832,
      "ìĺĢëĭ¤": 833,
      "Ġ9": 834,
      "ë§¤": 835,
      "ìĬ¤íĬ¸": 836,
      "Ġì¶Ķ": 837,
      "Ġì¦": 838,
      "ìŀħ": 839,
      "Ġì´Ī": 840,
      "ë¦¬ìķĦ": 841,
      "ëĲĺìĹĪ": 842,
      "ĠìĿĮ": 843,
      "Ġêµ°": 844,
      "íĮĲ": 845,
      "ì²Ń": 846,
      "Ġëĭ¤ìĿĮ": 847,
      "ìĪł": 848,
      "ê°ķ": 849,
      "ìª½": 850,
      "ìķ½": 851,
      "ì§Ī": 852,
      "Ġëıħ": 853,
      "ãħł": 854,
      "ĠíĻľ": 855,
      "ê·¼": 856,
      "Ġì¹´": 857,
      "ìľ¼ëĤĺ": 858,
      "ìłĢ": 859,
      "Ġëĭ¤ë¥¸": 860,
      "ĵ°": 861,
      "ê»": 862,
      "Ġìŀħ": 863,
      "ëĥ": 864,
      "ëĬ¥": 865,
      "ìļ¸": 866,
      "Ġì§ĢìĹŃ": 867,
      "ë²ł": 868,
      "Ġì¡": 869,
      "ìĸ¸": 870,
      "íĸ¥": 871,
      "íĪ¬": 872,
      "ë£Į": 873,
      "ëĲľëĭ¤": 874,
      "Ġíĺķ": 875,
      "íĿ": 876,
      "Ġê±´": 877,
      "ãħĭãħĭãħĭãħĭãħĭãħĭãħĭãħĭ": 878,
      "Ġìļ´": 879,
      "Ġë§¤": 880,
      "Ġê³¼": 881,
      "ëĵł": 882,
      "ì¤Ģ": 883,
      "ì£¼ìĿĺ": 884,
      "Ġê°ĻìĿĢ": 885,
      "Ġì°¸": 886,
      "Ġê·¸ëĬĶ": 887,
      "ë¹": 888,
      "ĠëĲĺìĹĪëĭ¤": 889,
      "ê¸ī": 890,
      "ĠìľĦíķ´": 891,
      "Ġíģ": 892,
      "Ġíĥľ": 893,
      "ĠíĿ": 894,
      "ĠíĥĢ": 895,
      "íĴĪ": 896,
      "ë°°": 897,
      "ĠìĪ": 898,
      "ìł¸": 899,
      "ëįĶ": 900,
      "Ġìĺ¬": 901,
      "Ġì¢": 902,
      "ë¦¼": 903,
      "ìĨ¡": 904,
      "ìĿ´ë©°": 905,
      "Ġì±": 906,
      "Ġëł": 907,
      "ëĦĪ": 908,
      "Ġìłģ": 909,
      "Ġíĸī": 910,
      "ĠìĹ´": 911,
      "ê»ĺ": 912,
      "Ġíıī": 913,
      "Ġëĵ¤": 914,
      "´ī": 915,
      "ì¡Į": 916,
      "Ġë¨": 917,
      "Ġìĭľìŀĳ": 918,
      "Ġ12": 919,
      "ĠíĶ¼": 920,
      "Ġë²Ī": 921,
      "ëĵ¤ìĿĺ": 922,
      "ĠëĲľ": 923,
      "ĠíĶĦë¡ľ": 924,
      "ĠìĤ°": 925,
      "ê²°": 926,
      "ĠìĤ¬ëŀĮ": 927,
      "ĠëĮĢíķľë¯¼": 928,
      "ĠëķĮë¬¸": 929,
      "ëŁī": 930,
      "Ġìĸĳ": 931,
      "Ġì½Ķ": 932,
      "Ġëª©": 933,
      "Ġê·¸ë¦¬": 934,
      "ëĿ¼ê³ł": 935,
      "Ġë¯¸êµŃ": 936,
      "ãħİ": 937,
      "Ġíģ¬": 938,
      "ê¸°ëıĦ": 939,
      "ëĵ¤ìĿĦ": 940,
      "Ġì´Ŀ": 941,
      "íķŃ": 942,
      "Ġ199": 943,
      "ĠíļĮ": 944,
      "Ġíĺ¸": 945,
      "ìŁ": 946,
      "ĠìĻķ": 947,
      "ì§ĳ": 948,
      "Ġë²ł": 949,
      "ĠíĻĶ": 950,
      "į¼": 951,
      "ĠëłĪ": 952,
      "ĠìĬ¹": 953,
      "ìĽĮ": 954,
      "íİ¸": 955,
      "ëĿ¼ëĬĶ": 956,
      "Ġë³¸": 957,
      "ĠëĶ°ëĿ¼": 958,
      "Ġë³Ģ": 959,
      "íķĺë©°": 960,
      "ë³ĳ": 961,
      "Ġë¶ģ": 962,
      "Ġíķ¨ê»ĺ": 963,
      "ëł¨": 964,
      "Ġ18": 965,
      "ëĭ¬": 966,
      "Ġ-": 967,
      "ì²ĺ": 968,
      "ë§Ŀ": 969,
      "ì¿ł": 970,
      "Ġê¹Ģ": 971,
      "ìŁģ": 972,
      "ĠìĻ¸": 973,
      "ĠìłĢ": 974,
      "íİĺ": 975,
      "ìķħ": 976,
      "ì§¸": 977,
      "Ġë¬¼": 978,
      "ìłĪ": 979,
      "ìĿ´ëĤĺ": 980,
      "ìĭľìķĦ": 981,
      "ĠìĨį": 982,
      "Ġ11": 983,
      "Ġíĳľ": 984,
      "ëŁ°": 985,
      "ìķł": 986,
      "Ġê°ģ": 987,
      "ëª©": 988,
      "Ġëĭ¬": 989,
      "íķĺì§Ģ": 990,
      "Ġì²ĺ": 991,
      "ĠìŀĦ": 992,
      "Ġì§ĳ": 993,
      "ì¼Ģ": 994,
      "Ġìķ½": 995,
      "Ġì»": 996,
      "ëŀľ": 997,
      "ë³µ": 998,
      "ë³Ħ": 999,
      "íģ": 1000,
      "ëłĪìĿ´": 1001,
      "ì³": 1002,
      "Ġê·¸ëŁ¬": 1003,
      "ìĻķ": 1004,
      "ìĶ": 1005,
      "Ġëĵľ": 1006,
      "ĠìŀĲìĭł": 1007,
      "ĠëĺĲíķľ": 1008,
      "ĠìĺģíĻĶ": 1009,
      "Ġëģ": 1010,
      "íķĺëĭ¤": 1011,
      "ë¨¸": 1012,
      "Ġê°Ħ": 1013,
      "201": 1014,
      "ĠìĥĪ": 1015,
      "Ġê²½ìļ°": 1016,
      "Ġì§ģ": 1017,
      "ìĺĪ": 1018,
      "ì±": 1019,
      "ĠíķĻ": 1020,
      "ìħĺ": 1021,
      "Ġì¤": 1022,
      "Ķëĭ¤": 1023,
      "ĠíķĺëĤĺ": 1024,
      "ê¸°ìĹĲ": 1025,
      "Ġëª»": 1026,
      "ĠëĴ": 1027,
      "ì¸ł": 1028,
      "Ġê²Į": 1029,
      "ìĬ¤ëĬĶ": 1030,
      "ĠìľĦì¹ĺ": 1031,
      "Ġê°Ģìŀ¥": 1032,
      "ĠìĤ¬ìĿ´": 1033,
      "ĪĦ": 1034,
      "ĠìĦłìĪĺ": 1035,
      "ë¦¬ëĬĶ": 1036,
      "ìĬ¤ìĿĺ": 1037,
      "ĠìĿ´ë¦Ħ": 1038,
      "Ġê¸°ë¡Ŀ": 1039,
      "Ġì¡´": 1040,
      "ìĥī": 1041,
      "ê³¡": 1042,
      "ìĺ¨": 1043,
      "ìĻ¸": 1044,
      "ê²ĥ": 1045,
      "Ġë¯¼": 1046,
      "íĻ©": 1047,
      "¸Ķ": 1048,
      "ëĲĺëĬĶ": 1049,
      "ìĹĲëıĦ": 1050,
      "ê´ĳ": 1051,
      "íĻĺ": 1052,
      "ĠìĿĺíķ´": 1053,
      "Ġê·¸ìĿĺ": 1054,
      "Ġ,": 1055,
      "ĠìĦ¸ê³Ħ": 1056,
      "ê¸°ë¥¼": 1057,
      "Ġíħ": 1058,
      "ĠíĻķ": 1059,
      "ëŁ½": 1060,
      "ìĿ¼ìĹĲ": 1061,
      "ìľ¡": 1062,
      "íļ": 1063,
      "ê¸Ģ": 1064,
      "ĠìłĲ": 1065,
      "ĠëķĮë¬¸ìĹĲ": 1066,
      "Ġê²ĥìĿĦ": 1067,
      "ê²¬": 1068,
      "ĠíķŃ": 1069,
      "ĠíĺĦìŀ¬": 1070,
      "Ġì²´": 1071,
      "ëħĢ": 1072,
      "·¨": 1073,
      "ì§ĢëĬĶ": 1074,
      "Ġë©Ķ": 1075,
      "ë¶ģ": 1076,
      "Ġëĭ¹ìĭľ": 1077,
      "ĠêµŃê°Ģ": 1078,
      "ê°Ĳ": 1079,
      "Ġê²ĥìľ¼ë¡ľ": 1080,
      "Ġìº": 1081,
      "ĠëĴ¤": 1082,
      "ĠëĺĲëĬĶ": 1083,
      "ì½": 1084,
      "ĠìŀĪìĹĪëĭ¤": 1085,
      "ëģ": 1086,
      "ĠíĸĪëĭ¤": 1087,
      "ãħĭãħĭãħĭ": 1088,
      "ìĿ´ëĿ¼ê³ł": 1089,
      "Ġê·¼": 1090,
      "ĠìŀĪìľ¼ë©°": 1091,
      "ëĤł": 1092,
      "íĹĺ": 1093,
      "Ġë³µ": 1094,
      "ĠíĪ¬": 1095,
      "ĠíĨł": 1096,
      "Ġê²ĥìĿ´": 1097,
      "Ġì¶ķ": 1098,
      "ĠíķĦ": 1099,
      "ĠíĻľëıĻ": 1100,
      "Ġìĸ¸": 1101,
      "íĥĪ": 1102,
      "ì¦Į": 1103,
      "ĠíĨµíķ´": 1104,
      "íıī": 1105,
      "ëŁ¼": 1106,
      "±¸": 1107,
      "ì¡´": 1108,
      "ĠëĲľëĭ¤": 1109,
      "ĠìĤ´": 1110,
      "ìŀĪ": 1111,
      "ĠíķľêµŃ": 1112,
      "Ġíķ©": 1113,
      "Ġì²ł": 1114,
      "Ġë¸Į": 1115,
      "Ġì¦Ŀ": 1116,
      "ì¡Įëĭ¤": 1117,
      "ìĬµ": 1118,
      "ī´": 1119,
      "Ġì¹ĺ": 1120,
      "ë°ķ": 1121,
      "ìĿĳ": 1122,
      "ìĤ´": 1123,
      "ĠìĿĢ": 1124,
      "ëĤ¬": 1125,
      "Ġë°ķ": 1126,
      "Ġëĵ¤ìĸ´": 1127,
      "Ġë²ķ": 1128,
      "Ġì²ľ": 1129,
      "Ġì²Ń": 1130,
      "íį¼": 1131,
      "Ġ198": 1132,
      "ĠëĶĶ": 1133,
      "Ġíİ¸": 1134,
      "ìĹ´": 1135,
      "Ġê·¸ëŁ¬ëĤĺ": 1136,
      "ëķĮ": 1137,
      "Ġë²Ħ": 1138,
      "ëĿ": 1139,
      "ë§Ĳ": 1140,
      "ĠíĮĲ": 1141,
      "200": 1142,
      "ê²¨": 1143,
      "Ġìķ¼": 1144,
      "ë²Ķ": 1145,
      "Ġëľ": 1146,
      "Ġê·¸ë¦¬ê³ł": 1147,
      "Ġë§İìĿĢ": 1148,
      "Ġê´ĳ": 1149,
      "ë¦¬ë¥¼": 1150,
      "ãħłãħł": 1151,
      "£½": 1152,
      "ĠíĶĦëŀĳ": 1153,
      "Ġíķł": 1154,
      "ĠëıĮ": 1155,
      "ĠíķĺëĬĶ": 1156,
      "Ġê°Ģì§Ģ": 1157,
      "íĥĦ": 1158,
      "ĠìķĦëĭĪ": 1159,
      "ì¶ķ": 1160,
      "Ġì¡°ìĦł": 1161,
      "Ġì²«": 1162,
      "Ġê¸Ī": 1163,
      "Ġ15": 1164,
      "Ġë§Įëĵ¤": 1165,
      "ìĿ´ëĬĶ": 1166,
      "Ġìĭ¬": 1167,
      "Ġê²ĥìĿ´ëĭ¤": 1168,
      "ëĿ½": 1169,
      "íķ´ìĦľ": 1170,
      "ĠëĨĴ": 1171,
      "íķĺë©´ìĦľ": 1172,
      "ì¶Ķ": 1173,
      "ëĲĺê³ł": 1174,
      "ëŀľëĵľ": 1175,
      "...": 1176,
      "ĠìĤ¼": 1177,
      "íĸĪê³ł": 1178,
      "Ġìĵ°": 1179,
      "ì²ł": 1180,
      "ê·¹": 1181,
      "Ġì°½": 1182,
      "ë°±": 1183,
      "ëĵ±íķĻêµĲ": 1184,
      "ì³Ĳ": 1185,
      "ëĬĶëĭ¤": 1186,
      "ìĿ´ëĿ¼ëĬĶ": 1187,
      "ĠíĬ¸": 1188,
      "ì°°": 1189,
      "Ġìķł": 1190,
      "Ġëĸ": 1191,
      "ĠìĻĦ": 1192,
      "ëĿ¼ìĿ´": 1193,
      "ĠíĶĮ": 1194,
      "Ġíı¬íķ¨": 1195,
      "íķĺìĺĢê³ł": 1196,
      "ĠëŁ": 1197,
      "Ġë£": 1198,
      "Ġëĭ¤ìĭľ": 1199,
      "ìķĻ": 1200,
      "ìĿ´ìĹĪëĭ¤": 1201,
      "ĠìŀĪìĹĪ": 1202,
      "ìĤ¬ë¥¼": 1203,
      "ë³´ëĭ¤": 1204,
      "ìĶ¨": 1205,
      "ëĮĢë¡ľ": 1206,
      "Ġëĭ¤ìĿĮê³¼": 1207,
      "Ġê²½ê¸°": 1208,
      "íĶĮ": 1209,
      "ì¦Ŀ": 1210,
      "Ġ16": 1211,
      "Ġìŀĺ": 1212,
      "ĠìĻĢ": 1213,
      "Ġì¢ĭ": 1214,
      "Ġíļ": 1215,
      "ëł¸": 1216,
      "ë¡Ģ": 1217,
      "íĻľ": 1218,
      "Ġëľ»": 1219,
      "ë°Ľ": 1220,
      "Ġì¶©": 1221,
      "ĩ´": 1222,
      "ìĿ´ê³ł": 1223,
      "ë¶Ī": 1224,
      "ĠìĹ¬ëŁ¬": 1225,
      "Ġì½": 1226,
      "ãĦ": 1227,
      "ãħİãħİ": 1228,
      "ĠëĦ¤": 1229,
      "ë³Ģ": 1230,
      "ĠíĻ©": 1231,
      "ë§ī": 1232,
      "ìĬ¬": 1233,
      "ê°ľìĿĺ": 1234,
      "ĠìĹ°êµ¬": 1235,
      "ìĥģìĿĦ": 1236,
      "Ġë³ĳ": 1237,
      "ì°½": 1238,
      "Ġíİĺ": 1239,
      "Ġíģ°": 1240,
      "Ġìĭľì¦Į": 1241,
      "ì§ķ": 1242,
      "ĠìĤ¬íļĮ": 1243,
      "ĠëĮĢíķľë¯¼êµŃìĿĺ": 1244,
      "ĠìĿ¸êµ¬": 1245,
      "Ġìłľìŀĳ": 1246,
      "ë¡ľìĦľ": 1247,
      "Ġ.": 1248,
      "Ġì¹ľ": 1249,
      "Ġì·¨": 1250,
      "ìĵ°": 1251,
      "íģ´": 1252,
      "ĠëĬĶ": 1253,
      "ìĪľ": 1254,
      "ĠíĮ¨": 1255,
      "Ġëĵ±ìĿ´": 1256,
      "Ġë¥": 1257,
      "ĠíĮĢ": 1258,
      "Ġëª¨ëĳĲ": 1259,
      "Ġì£½": 1260,
      "ĠìĪľ": 1261,
      "Ġë°±": 1262,
      "Ġ197": 1263,
      "Ġ17": 1264,
      "ìĦ±ìĿĦ": 1265,
      "ìŀ¥ìĿĦ": 1266,
      "ë´ī": 1267,
      "ëĭĪìķĦ": 1268,
      "Ġê°Ĳëıħ": 1269,
      "ì¹ľ": 1270,
      "ìľĦë¥¼": 1271,
      "Ġë¦¬ê·¸": 1272,
      "Ġìļ©": 1273,
      "ëĦĲ": 1274,
      "ĠìķĮëł¤": 1275,
      "Ġë£¨": 1276,
      "ëĨ": 1277,
      "ì§Ģë¥¼": 1278,
      "ê²ł": 1279,
      "Ġë¨¹": 1280,
      "ì±ħ": 1281,
      "ãħĩ": 1282,
      "ì¹Ń": 1283,
      "ëĳ": 1284,
      "ìŀĲê°Ģ": 1285,
      "ĠìŀĪìĸ´": 1286,
      "ìĬ¨": 1287,
      "ĠìĿ¼ë¶Ģ": 1288,
      "ëĭ¤ê³ł": 1289,
      "ĠëıĦìĭľ": 1290,
      "ĠëıħìĿ¼": 1291,
      "Ġê¶Į": 1292,
      "Ġëª¨ëĵł": 1293,
      "íļĮìĿĺ": 1294,
      "į¨": 1295,
      "Ġì²ĺìĿĮ": 1296,
      "ëĬĺ": 1297,
      "ĠëģĿ": 1298,
      "Ġíģ´": 1299,
      "ìĽ¨": 1300,
      "Ģë¡ľ": 1301,
      "ĠíĴ": 1302,
      "ìĿ´ìĹĪ": 1303,
      "ì¢": 1304,
      "Ġì±Ħ": 1305,
      "ê·ľ": 1306,
      "Ġê·ľ": 1307,
      "ìĭľìĹĲ": 1308,
      "ëħĦë¶ĢíĦ°": 1309,
      "ĠìľĦíķľ": 1310,
      "ĠìĭĿ": 1311,
      "íĶ½": 1312,
      "??": 1313,
      "Ġë°ľë§¤": 1314,
      "ëĸ": 1315,
      "íĭĢ": 1316,
      "ĠíķĺìĺĢëĭ¤": 1317,
      "íĥĿ": 1318,
      "Ġìłķë¶Ģ": 1319,
      "ëĮĢìĿĺ": 1320,
      "ĠìĦľìļ¸": 1321,
      "Ġë§ŀ": 1322,
      "ĠìķĦìĿ´": 1323,
      "ìĸ´ì§Ħ": 1324,
      "Ġêµ¬ìĦ±": 1325,
      "íķĺë©´": 1326,
      "ĠìłĦìŁģ": 1327,
      "Ġë°°ìļ°": 1328,
      "ë¦¬ìĬ¤": 1329,
      "ĠëıĻìķĪ": 1330,
      "ë¦¬ìĹĲ": 1331,
      "ëħĲ": 1332,
      "ê³¨": 1333,
      "Ġì¤ĳêµŃ": 1334,
      "ì°©": 1335,
      "ĠìĿ´ìĥģ": 1336,
      "íĺ¼": 1337,
      "íļį": 1338,
      "ĠíĤ": 1339,
      "ê±°ëĤĺ": 1340,
      "Ġ14": 1341,
      "ìĹĶ": 1342,
      "ëıĦìĿĺ": 1343,
      "ĠìĿ´ë£¨": 1344,
      "ë¶Ģë¶Ħ": 1345,
      "ĠëĮĢíķľë¯¼êµŃ": 1346,
      "ëıĦë¡ľ": 1347,
      "ìĿ´ìŀĲ": 1348,
      "íĮ¨": 1349,
      "ëĪĦ": 1350,
      "ë¸Ķ": 1351,
      "íĤ¨": 1352,
      "Ġìłķì¹ĺ": 1353,
      "Ġì¶ķêµ¬": 1354,
      "ĠíŀĪ": 1355,
      "ìĽĢ": 1356,
      "ì§ľ": 1357,
      "000": 1358,
      "Ġì¡´ìŀ¬": 1359,
      "ĠìĨĲ": 1360,
      "íĮĢ": 1361,
      "´Į": 1362,
      "Ġë¬¸ìłľ": 1363,
      "ĠëĮĢíĳľ": 1364,
      "íĦ´": 1365,
      "ê¸°ëĬĶ": 1366,
      "Ġëĵ±ìĿĺ": 1367,
      "Ġ13": 1368,
      "Ġ196": 1369,
      "Ġëħ¼": 1370,
      "ëħĦìĹĲëĬĶ": 1371,
      "ĠíħĮ": 1372,
      "ë·": 1373,
      "ì¸µ": 1374,
      "Ġê±¸": 1375,
      "Ġê¸¸": 1376,
      "Ġê°ĢëĬ¥": 1377,
      "ëł¥ìĿĦ": 1378,
      "ĠìĿ´ìļ©": 1379,
      "ĠìŀĲìĭłìĿĺ": 1380,
      "Ġìķŀ": 1381,
      "Ġíŀ": 1382,
      "ëĥĲ": 1383,
      "ë¦¬ê°Ģ": 1384,
      "ĠìŀĳíĴĪ": 1385,
      "ë¦Ń": 1386,
      "ê°Ī": 1387,
      "!!": 1388,
      "ĠíĻĺ": 1389,
      "ëĭ´": 1390,
      "ëĤĺëĿ¼": 1391,
      "Ġê²ĥìĿĢ": 1392,
      "ĠëĤĺíĥĢ": 1393,
      "ìį¨": 1394,
      "Ġê°ľë°ľ": 1395,
      "ê¸°ê°Ģ": 1396,
      "ëıĮ": 1397,
      "Ġìĺ¨": 1398,
      "ĠíĹĪ": 1399,
      "ìłĳ": 1400,
      "Ġì¤Ģ": 1401,
      "ãħľ": 1402,
      "ëħĦëĮĢ": 1403,
      "ĠìĺģêµŃ": 1404,
      "ë¡ľëĬĶ": 1405,
      "ĠíĶĦëŀĳìĬ¤": 1406,
      "ê¸°ìĿĺ": 1407,
      "ĠìĽĶ": 1408,
      "ĠìĥĪë¡ľ": 1409,
      "ëŁ¬íķľ": 1410,
      "ĠíĸĪ": 1411,
      "Ġëĳ": 1412,
      "ĠëŁ¬": 1413,
      "ìµľ": 1414,
      "Ġë§¡": 1415,
      "Ġìłĳ": 1416,
      "Ġê²ĮìŀĦ": 1417,
      "ìĬĪ": 1418,
      "ëĤ¬ëĭ¤": 1419,
      "ëĮĢíķľ": 1420,
      "¶ģ": 1421,
      "Ġì¦ī": 1422,
      "Ġë°ľê²¬": 1423,
      "Ġì¤ĳìĭ¬": 1424,
      "ìĿ´ìĬ¤": 1425,
      "ĠìĿ¼ë°ĺ": 1426,
      "íĸĪìľ¼ë©°": 1427,
      "ìķĮ": 1428,
      "ì»¤": 1429,
      "ìĺ¬": 1430,
      "Ġíĺĳ": 1431,
      "Ġê°Ļëĭ¤": 1432,
      "Ġë³Ħ": 1433,
      "íĨµëł¹": 1434,
      "ìľ¨": 1435,
      "ê¸´": 1436,
      "Ġë²Īì§¸": 1437,
      "ĠìĿ´ìĸ´": 1438,
      "Ġì¸": 1439,
      "Ġëī´": 1440,
      "Ġíķĺê³ł": 1441,
      "ëıĦë¡Ŀ": 1442,
      "ë¨¹": 1443,
      "ëĵĿ": 1444,
      "ĠìĿĮë°ĺ": 1445,
      "Ġê³³": 1446,
      "ìĤ¬ê°Ģ": 1447,
      "Ġì£¼ìŀ¥": 1448,
      "ë¦¬ì¹´": 1449,
      "ĠìĥĿê°ģ": 1450,
      "ìĿ´íĬ¸": 1451,
      "Ġë§ī": 1452,
      "ë´": 1453,
      "ĠìºĲ": 1454,
      "ĠëĮĢíķ´": 1455,
      "ëŀ¨": 1456,
      "Ġë°ľíĳľ": 1457,
      "ëĭĮ": 1458,
      "ëĭ¤ëĬĶ": 1459,
      "ìŀĲìĿĺ": 1460,
      "ìĨĲ": 1461,
      "ĠêµŃìłľ": 1462,
      "Ġë©´": 1463,
      "ĠìĤ¬ê±´": 1464,
      "me": 1465,
      "ìĦ¼": 1466,
      "ëĵ¤ê³¼": 1467,
      "ë²Į": 1468,
      "íľ": 1469,
      "Ġê°ĸ": 1470,
      "ĠëĨį": 1471,
      "ëłĩ": 1472,
      "ê°Ļ": 1473,
      "Ġê²Ģ": 1474,
      "na": 1475,
      "Ġê·Ģ": 1476,
      "ë§ģ": 1477,
      "name": 1478,
      "Ġìĺģíĸ¥": 1479,
      "êµ°ìĿĺ": 1480,
      "ìĭľíĤ¤": 1481,
      "ĠìĿ´ëĬĶ": 1482,
      "ìŀĲëĬĶ": 1483,
      "íĬ¹": 1484,
      "Ġë°Ģ": 1485,
      "Ġíĥľìĸ´": 1486,
      "ëĭĪëĭ¤": 1487,
      "Ġë³¼": 1488,
      "ìĽĶìĹĲ": 1489,
      "Ĳëĭ¤": 1490,
      "Ġë¯¸êµŃìĿĺ": 1491,
      "ĠìĤ¬ë§Ŀ": 1492,
      "ëªħìĿĺ": 1493,
      "Ġëĵ±ìĿĦ": 1494,
      "ĠìĿĺë¯¸": 1495,
      "Ġíĸ¥": 1496,
      "Ġ194": 1497,
      "ĠìĿ´ëŁ¬íķľ": 1498,
      "ĠìĿĮìķħ": 1499,
      "ĩ¼": 1500,
      "ìľĦìĽĲ": 1501,
      "ĠëĮĢíļĮ": 1502,
      "ë¡ľë¶ĢíĦ°": 1503,
      "ë¦¼íĶ½": 1504,
      "ĠëĤł": 1505,
      "Ġëĭ´": 1506,
      "ê¹Ģ": 1507,
      "Ġì°¸ìĹ¬": 1508,
      "ĠìĦ¤ì¹ĺ": 1509,
      "ëĲĺìĹĪê³ł": 1510,
      "ĽĪ": 1511,
      "ëħĦê¹Įì§Ģ": 1512,
      "ĠëĮĢë¶Ģë¶Ħ": 1513,
      "Ġ30": 1514,
      "ĳ¸": 1515,
      "Ġë°©ìĨ¡": 1516,
      "ëŀĢëĵľ": 1517,
      "ìłķìĿĦ": 1518,
      "Ġê°Ī": 1519,
      "ì¸¡": 1520,
      "ë¨¼": 1521,
      "ĠíıŃ": 1522,
      "Ġê´Ģê³Ħ": 1523,
      "Ġê²°ê³¼": 1524,
      "Ġë°ľìĥĿ": 1525,
      "ĠìłĦíĪ¬": 1526,
      "ìĦ±ìĿ´": 1527,
      "ë°Ģ": 1528,
      "ìĿ¸ìĿĺ": 1529,
      "ĠëĮĢíĨµëł¹": 1530,
      "ĠìľĦì¹ĺíķľ": 1531,
      "ëĶĶìĺ¤": 1532,
      "Ġë°Ŀ": 1533,
      "ìĹĲìĦľëıĦ": 1534,
      "Ġì¼": 1535,
      "ëłĮ": 1536,
      "Ġì§Ģë°©": 1537,
      "Ġë¥¼": 1538,
      "ĠëĲĺìĸ´": 1539,
      "ĠíĤ¤": 1540,
      "íķĦ": 1541,
      "ĠíĦ": 1542,
      "ì´Į": 1543,
      "ëĬĲ": 1544,
      "ì¹¨": 1545,
      "ìķĶ": 1546,
      "ìĬ¤ë¥¼": 1547,
      "ìĦ¸ê¸°": 1548,
      "ìĭľì¼": 1549,
      "ëį¸": 1550,
      "íĩ´": 1551,
      "ìĹĪê³ł": 1552,
      "Ġìĭľê°Ħ": 1553,
      "Ġê³µê²©": 1554,
      "ìŀĲë¥¼": 1555,
      "Ġë¬¸íĻĶ": 1556,
      "Ġê´Ģëł¨": 1557,
      "ĠìĿ´ë¥¼": 1558,
      "ìĬ¤ê°Ģ": 1559,
      "Ġìľ¡": 1560,
      "ê´": 1561,
      "ĠëĮĢíķĻ": 1562,
      "íĺĳ": 1563,
      "ê·¸ëŀ¨": 1564,
      "Ġì§Ħíĸī": 1565,
      "ëĵľëĬĶ": 1566,
      "Ġê°ĻìĿ´": 1567,
      "Ġìļ°ìĬ¹": 1568,
      "ë¦¬ìĿĺ": 1569,
      "Ġíķĺì§Ģë§Į": 1570,
      "ëĤĺëĬĶ": 1571,
      "ë¥´ëĬĶ": 1572,
      "Ġìĸ»": 1573,
      "ì´Ŀ": 1574,
      "ëıĦëĬĶ": 1575,
      "íĿ¬": 1576,
      "Ġì¤Ħ": 1577,
      "ëıĦë¥¼": 1578,
      "ĠìĹŃìĤ¬": 1579,
      "ëĵ¤ìĹĲê²Į": 1580,
      "Ġì¿": 1581,
      "ìĬ¤íĦ°": 1582,
      "10": 1583,
      "ìľ¼ë¡ľëĬĶ": 1584,
      "Ġíļ¨": 1585,
      "ĠìĿ¼ìĸ´": 1586,
      "ëĲł": 1587,
      "ì°¬": 1588,
      "ê·Ģ": 1589,
      "ê¸¸": 1590,
      "Ġê·¹": 1591,
      "ìĸµ": 1592,
      "ëįķ": 1593,
      "Ġë¨¸": 1594,
      "ĠìĦłê±°": 1595,
      "ĠëĦĺ": 1596,
      "Ġê²½ìłľ": 1597,
      "ìļĶíķľ": 1598,
      "íķĺìĺĢìľ¼ë©°": 1599,
      "ìłĦìĹĲ": 1600,
      "Ġ195": 1601,
      "Ġê³¡": 1602,
      "Ġíľ": 1603,
      "ëĭĺ": 1604,
      "ê°Ģì§Ģ": 1605,
      "Ġì±ħ": 1606,
      "Ġëĭ¤ìĸĳ": 1607,
      "ĠìłĪ": 1608,
      "Ġìµľì´Ī": 1609,
      "ìŀĲë¡ľ": 1610,
      "ë¦¬ê³ł": 1611,
      "ĠëĦĪ": 1612,
      "Ġê¸°ì¤Ģ": 1613,
      "ìĹĨ": 1614,
      "ìĹĺ": 1615,
      "ìº": 1616,
      "ì£": 1617,
      "ê·ł": 1618,
      "ĠìĥĪë¡ľìļ´": 1619,
      "Ġë§İìĿ´": 1620,
      "Ġêµ¬ì¡°": 1621,
      "ĠìĦ¤ë¦½": 1622,
      "ĠëĪĦ": 1623,
      "ĠìķĶ": 1624,
      "ìĿ´ì§Ģ": 1625,
      "ĠíĻį": 1626,
      "ìĻĢìĿĺ": 1627,
      "ĠìĦĿ": 1628,
      "ë·Ķ": 1629,
      "ìĬ¤íĥĢ": 1630,
      "ëĮĢë¥¼": 1631,
      "Ġì»¤": 1632,
      "ĠìľłëŁ½": 1633,
      "ĠíĬ¹íŀĪ": 1634,
      "18": 1635,
      "ëĲĺìĹĪìľ¼ë©°": 1636,
      "ĪĪ": 1637,
      "ìĤ¼": 1638,
      "Ġìķ¨": 1639,
      "ĠëŁ¬ìĭľìķĦ": 1640,
      "Ġëŀ": 1641,
      "ê³¼ìĿĺ": 1642,
      "ëĿ¼ë§Ī": 1643,
      "Ġì§Ī": 1644,
      "Ġë¶Ģë¶Ħ": 1645,
      "Ġê³ĦìĨį": 1646,
      "ëł¸ëĭ¤": 1647,
      "ĠìĿ¸íķ´": 1648,
      "ìĬ¤íħ": 1649,
      "ĠìĹĲìĦľ": 1650,
      "ĠìĤ¬ìĭ¤": 1651,
      "Ġì¸¡": 1652,
      "Ġìĸ´ëĸ": 1653,
      "íĸĪëįĺ": 1654,
      "Ġë°Ľìķĺëĭ¤": 1655,
      "Ġë¸Ķ": 1656,
      "ĠëĤľ": 1657,
      "ìĿ¸ìĿ´": 1658,
      "Ġíĺķíĥľ": 1659,
      "ì»µ": 1660,
      "ìĿµ": 1661,
      "Ġë°ĽìķĦ": 1662,
      "ê·¸ëŀĺ": 1663,
      "ë¥´íģ¬": 1664,
      "ìĽĲìĿĦ": 1665,
      "ĠêµĲìľ¡": 1666,
      "ìĤ¬ëĬĶ": 1667,
      "Ġëıħë¦½": 1668,
      "ë²Īì§¸": 1669,
      "ĠíıĲ": 1670,
      "ìĹĦ": 1671,
      "Ġìĺ¬ë¦¼íĶ½": 1672,
      "ĠíĹ¤": 1673,
      "ë¥ł": 1674,
      "ĠìĹĶ": 1675,
      "Ġìŀ¡": 1676,
      "ë§¹": 1677,
      "Ġëªĩ": 1678,
      "Ġì¹¨": 1679,
      "ĠìĿ´ìĹĲ": 1680,
      "Ġê¸°ìĪł": 1681,
      "Ġíķ´ëĭ¹": 1682,
      "ì¶©": 1683,
      "íĻĶêµŃ": 1684,
      "íĺĢ": 1685,
      "ìĭĿìĿĦ": 1686,
      "ĠìŀĲìľł": 1687,
      "íĹĮ": 1688,
      "21": 1689,
      "Ġì£¼ë¡ľ": 1690,
      "ĠìŀĪê³ł": 1691,
      "ë¦´": 1692,
      "ë¦¬ê·¸": 1693,
      "íĥĪë¦¬ìķĦ": 1694,
      "Ġì°¸ê°Ģ": 1695,
      "Ġê²°ìłķ": 1696,
      "ĠìĪĺëıĦ": 1697,
      "Ġë²Į": 1698,
      "ë£¹": 1699,
      "Ġì°¾": 1700,
      "ĠìĨĮìĨį": 1701,
      "ĠíĶĦë¡ľê·¸ëŀ¨": 1702,
      "Ġíĭ": 1703,
      "ê¸°ë¡ľ": 1704,
      "ë¹ĦìķĦ": 1705,
      "ìĤ¬ìĿĺ": 1706,
      "ĠìĿ´ê²ĥ": 1707,
      "ìĥĪ": 1708,
      "ì²ĺëŁ¼": 1709,
      "ìĽħ": 1710,
      "Ġíŀĺ": 1711,
      "ë¦¬ì¦Ī": 1712,
      "Ġíĺ¼": 1713,
      "Ġë²Ķ": 1714,
      "Ġê·¸ëħĢ": 1715,
      "ê°Ŀ": 1716,
      "Ġì¶ľìĭł": 1717,
      "Ġë´ī": 1718,
      "íĴį": 1719,
      "ë¶ĢìĿĺ": 1720,
      "íķĻìŀĲ": 1721,
      "ìĹ¼": 1722,
      "ëªħìĿ´": 1723,
      "íĶĦíĬ¸": 1724,
      "ĠíĥĪ": 1725,
      "ëªħìĿĦ": 1726,
      "ìĿ´ìħĺ": 1727,
      "Ġìļ´ëıĻ": 1728,
      "Ġìĥģíĥľ": 1729,
      "Ġë¡ľë§Ī": 1730,
      "¿Ĳ": 1731,
      "ĠìĦ±ê³µ": 1732,
      "ë¯Ģë¡ľ": 1733,
      "ìľ¼ë¡ľìĦľ": 1734,
      "Ġê³¨": 1735,
      "Ġë§¤ìļ°": 1736,
      "ìŀ¥ìĿ´": 1737,
      "Ġëį°ë·Ķ": 1738,
      "ìłĦìĿĦ": 1739,
      "Ġìļ´ìĺģ": 1740,
      "Ġëĵ±ìŀ¥": 1741,
      "Ġê°Ģì§Ģê³ł": 1742,
      "ŃĲ": 1743,
      "ëĭ¤ê°Ģ": 1744,
      "íķ´ìķ¼": 1745,
      "ãħĭãħĭãħĭãħĭãħĭ": 1746,
      "Ġ25": 1747,
      "Ġì¶ľìĹ°": 1748,
      "íŀ": 1749,
      "ê°ĢëĬĶ": 1750,
      "Ġ0": 1751,
      "Ġê¸ī": 1752,
      "ĠìĬĪ": 1753,
      "ĠìķĦëĭĪëĿ¼": 1754,
      "ĠìķĬìķĺëĭ¤": 1755,
      "íĺģ": 1756,
      "Ġì¤ĳìķĻ": 1757,
      "ĠìĹĨëĬĶ": 1758,
      "ĠíĥĦ": 1759,
      "ëıĦê°Ģ": 1760,
      "ĠìĥĿìĤ°": 1761,
      "ĠëıĮìķĦ": 1762,
      "ĠìŀĪëįĺ": 1763,
      "ëĮĢíķĻêµĲ": 1764,
      "Ġ193": 1765,
      "Ġì°¨ì§Ģ": 1766,
      "ëĮĢìĹĲ": 1767,
      "ìĹŃìĤ¬": 1768,
      "ë³¼": 1769,
      "¥Ĳ": 1770,
      "ìļ°ìĬ¤": 1771,
      "Ġìķħ": 1772,
      "ëĲĺì§Ģ": 1773,
      "Ġ2010": 1774,
      "ëĮĢíĳľ": 1775,
      "íķĺìŀĲ": 1776,
      "ĠëĭĪ": 1777,
      "ìĹĲìĦľìĿĺ": 1778,
      "ìĿ´ê°Ģ": 1779,
      "Ġìĭ±": 1780,
      "ĠìĦ¬": 1781,
      "ì¤Ħ": 1782,
      "ê³³": 1783,
      "ĠìĿ´íĥĪë¦¬ìķĦ": 1784,
      "êµ°ìĿĢ": 1785,
      "íļ¨": 1786,
      "ë²Ħì§Ģ": 1787,
      "ãĦ±": 1788,
      "ìķķ": 1789,
      "ĠìĭľìłĪ": 1790,
      "ĠìĹ¬ìĦ±": 1791,
      "Ġìµľê³ł": 1792,
      "ĠìĹħ": 1793,
      "ĠíĦ°": 1794,
      "ĠëĶ°ë¥´": 1795,
      "ìĭľê°Ħ": 1796,
      "ìĬ¤íģ¬": 1797,
      "Ġìłľê³µ": 1798,
      "Ġê³Ħíļį": 1799,
      "Ġì§Ģìłķ": 1800,
      "ìĬ¤íħľ": 1801,
      "ĠìķĦëĵ¤": 1802,
      "Ġëĸ¨": 1803,
      "Ġì¿ł": 1804,
      "ìķĦëĭĪ": 1805,
      "íķĺê¸°ëıĦ": 1806,
      "Ġë¹ł": 1807,
      "ìŀ¥ìĿĢ": 1808,
      "Ġê¸Ģ": 1809,
      "¾¸": 1810,
      "ĠìłĦì²´": 1811,
      "ëĤ¸": 1812,
      "Ġìĸ¼": 1813,
      "Ġëĳĺ": 1814,
      "íĻĶë¥¼": 1815,
      "ìļ´ëį°": 1816,
      "íı´": 1817,
      "®¤": 1818,
      "ìĸ´ìĦľ": 1819,
      "ĠìĿ´ìłĦ": 1820,
      "ë¶ĢìĹĲ": 1821,
      "ìĬ¤ìĻĢ": 1822,
      "Ġë°©ë²ķ": 1823,
      "ĠëĿ¼ìĿ´": 1824,
      "ĠíĮĶ": 1825,
      "ĠìĹĨëĭ¤": 1826,
      "Ġíĸīìłķ": 1827,
      "Ġì§ĢìĽĲ": 1828,
      "Ġìŀł": 1829,
      "Ġëĸł": 1830,
      "ĠìķĬê³ł": 1831,
      "ìĪĺë¥¼": 1832,
      "Ġì¡°ì§ģ": 1833,
      "ĠìĿ¼ë³¸ìĿĺ": 1834,
      "ê¶ĮìĿĦ": 1835,
      "Ġì£¼ìļĶ": 1836,
      "ìŀ¡": 1837,
      "°ëĭ¤": 1838,
      "ĠíĥĢìĿ´": 1839,
      "ĠìĿ´ìľł": 1840,
      "ìĿ¼ë¶ĢíĦ°": 1841,
      "ì±Ħ": 1842,
      "Ġë³´ê³ł": 1843,
      "ìĪĺìĿĺ": 1844,
      "ëŀµ": 1845,
      "ì¹¸": 1846,
      "Ġì¼Ģ": 1847,
      "ì¹Ļ": 1848,
      "ëĭĪê¹Į": 1849,
      "Ġê±°ìĿĺ": 1850,
      "íĻķ": 1851,
      "Ġ21": 1852,
      "ìĤ¬ë¡ľ": 1853,
      "ìĽĲìĿĺ": 1854,
      "íĭ´": 1855,
      "ìļķ": 1856,
      "Ġê²°êµŃ": 1857,
      "ë¹Ī": 1858,
      "ìŀĲìĿ¸": 1859,
      "ëłī": 1860,
      "íľĺ": 1861,
      "íĿ¥": 1862,
      "ìľ¼ë©´": 1863,
      "ë²¨": 1864,
      "ĠìĨ¡": 1865,
      "Ġëĭ¤ìĸĳíķľ": 1866,
      "ê·¼ëį°": 1867,
      "ìĻĦ": 1868,
      "ìĦľëĬĶ": 1869,
      "ĠìĹŃíķł": 1870,
      "ĠíĽĦë³´": 1871,
      "ĠìĬ¤íĥĢ": 1872,
      "ìĸ¼": 1873,
      "ëĮĢíķĻ": 1874,
      "Ġìħ": 1875,
      "Ġìķ¨ë²Ķ": 1876,
      "ĠëĤ´ìļ©": 1877,
      "ĠëĵľëĿ¼ë§Ī": 1878,
      "Ġíı´": 1879,
      "Ġìľłëªħ": 1880,
      "ìĸ´ë¡ľ": 1881,
      "ìĿ¸ë¯¼": 1882,
      "Ġëª¸": 1883,
      "ê°ĦìĿĺ": 1884,
      "ìĿĮìĿĦ": 1885,
      "ìĽĲìĿ´": 1886,
      "ê¶ģ": 1887,
      "Ġê³łëł¤": 1888,
      "ì§Ģë§ī": 1889,
      "ë¨¸ëĭĪ": 1890,
      "Ġëª°": 1891,
      "12": 1892,
      "ìĿ´ëĵľ": 1893,
      "ì³¤": 1894,
      "ĠìĿ´ëģ": 1895,
      "ĠìĹ°ê²°": 1896,
      "ê´´": 1897,
      "Ġê°Ģë¦¬": 1898,
      "ìļ´ëıĻ": 1899,
      "Ġ24": 1900,
      "íĮħ": 1901,
      "ĠìķĦëŀĺ": 1902,
      "199": 1903,
      "ìĭľìĿĺ": 1904,
      "Ġì¡¸": 1905,
      "ìĦłìĿĺ": 1906,
      "Ġì§Ģê¸Ī": 1907,
      "ĠëĮĢíķĻêµĲ": 1908,
      "ìĬ¤ë¡ľ": 1909,
      "êµ´": 1910,
      "Ġ23": 1911,
      "íķĺëł¤": 1912,
      "Ġì¢Į": 1913,
      "ìĪĺê°Ģ": 1914,
      "ĠêµŃë¯¼": 1915,
      "ëĥĪëĭ¤": 1916,
      "Ġ2008": 1917,
      "Ġê·¸ëŀĺ": 1918,
      "ìĸ´ë¥¼": 1919,
      "ìŀ¥ìľ¼ë¡ľ": 1920,
      "Ġì½ĺ": 1921,
      "Ġëį°ìĿ´": 1922,
      "ĠìĿ¸íĦ°": 1923,
      "Ġê°Ģìļ´ëį°": 1924,
      "ìľ¼ë¡ľìį¨": 1925,
      "ĠëĤ¨ìķĦ": 1926,
      "Ġê³¼ìłķ": 1927,
      "íķĺëįĺ": 1928,
      "ìĽĲìĿĢ": 1929,
      "ë¯¼ì£¼": 1930,
      "ĠìĽĶëĵľ": 1931,
      "ëĥ¥": 1932,
      "ìĿ¸ëĭ¤": 1933,
      "ĠëĶ°ë¥´ë©´": 1934,
      "ìĦ±ìĿĺ": 1935,
      "ĠíķĦìļĶ": 1936,
      "ĠìĬ¤íİĺ": 1937,
      "ì§ĢìĹĲ": 1938,
      "ìĸ´ëĬĶ": 1939,
      "ĠëĪĪ": 1940,
      "Ġìłķë³´": 1941,
      "Ġë¹Į": 1942,
      "Ġìľ¤": 1943,
      "ìĿ¸ìĿĢ": 1944,
      "~~": 1945,
      "íĿĲ": 1946,
      "Ġë¬ĺ": 1947,
      "ëī´": 1948,
      "ëĤ¨ëıĦ": 1949,
      "ì¥Ĳ": 1950,
      "ìĺ¥": 1951,
      "ìłĲìĿĦ": 1952,
      "Ġ2007": 1953,
      "ĠìĹĦ": 1954,
      "ĠìķĬëĬĶëĭ¤": 1955,
      "15": 1956,
      "ìĦ¬": 1957,
      "ĠëĨĴìĿĢ": 1958,
      "ëģ¼": 1959,
      "Ġ100": 1960,
      "ìĥĿìķł": 1961,
      "ì¹ĺëĬĶ": 1962,
      "ë¡¯": 1963,
      "ëª¬": 1964,
      "Ġìĺģíĸ¥ìĿĦ": 1965,
      "Ġë§Įëĵ¤ìĸ´": 1966,
      "ìłľë¡ľ": 1967,
      "Ľ°": 1968,
      "ê²¼": 1969,
      "Ġì¶ľìłĦ": 1970,
      "ĠíĹĮ": 1971,
      "ĠìĭľìĬ¤íħľ": 1972,
      "ĠíĳľíĺĦ": 1973,
      "Ġìĭľë¦¬ì¦Ī": 1974,
      "Ġì¹¼": 1975,
      "ĠìĿ´ë¯¸": 1976,
      "ĠìĹ´ë¦°": 1977,
      "Ġëª¨ìĬµ": 1978,
      "ê°ľìļĶ": 1979,
      "ĠíķĺìĹ¬": 1980,
      "íĹ¤": 1981,
      "ī¬": 1982,
      "íĥķ": 1983,
      "Ġëħ¸ëŀĺ": 1984,
      "ê±¸": 1985,
      "Ġë§Īì§Ģë§ī": 1986,
      "ĠìĿ´ë£¨ìĸ´": 1987,
      "ìĤ¬ìĹĲ": 1988,
      "ë¬¸íĻĶ": 1989,
      "ì£¼ëĬĶ": 1990,
      "ë§¥": 1991,
      "Ġê³µìĭĿ": 1992,
      "ì´Īëĵ±íķĻêµĲ": 1993,
      "ìĺĢëįĺ": 1994,
      "ĠìĪĺìĥģ": 1995,
      "Ġì¶Ķê°Ģ": 1996,
      "Ġë¶Ļ": 1997,
      "ì¢Į": 1998,
      "ìĿ´íģ¬": 1999,
      "ìĽł": 2000,
      "Ġê°Ģì§Ħ": 2001,
      "ĠìĥĿíĻľ": 2002,
      "Ġê·¸ê²ĥ": 2003,
      "ĶëłĪ": 2004,
      "Ġê·¸ë£¹": 2005,
      "Ġ2009": 2006,
      "Ġê°ģê°ģ": 2007,
      "Ġ22": 2008,
      "Ġ2012": 2009,
      "....": 2010,
      "ìľ¼ë¡ľë¶ĢíĦ°": 2011,
      "ĠëĬĲ": 2012,
      "Ġê²©": 2013,
      "ĠìĿ´ìķ¼": 2014,
      "ëł¥ìĿ´": 2015,
      "ëį´": 2016,
      "ì¦ĺ": 2017,
      "Ġì»´": 2018,
      "ì§Ģê°Ģ": 2019,
      "Ġë³´ìĹ¬": 2020,
      "ì§Ģê³ł": 2021,
      "ë¥Ļ": 2022,
      "ĠìĿ´ë¦ĦìĿĦ": 2023,
      "ê·¸ëŁ¬": 2024,
      "ëłĢ": 2025,
      "êµ¬ìĿĺ": 2026,
      "ì·¨": 2027,
      "ì°¸": 2028,
      "Ġê³µê°ľ": 2029,
      "Ġì§Ħì¶ľ": 2030,
      "ìĿ´ìĹĲ": 2031,
      "ìĻĶëĭ¤": 2032,
      "íķĺëĬĶëį°": 2033,
      "ĠìŀĳìĿĢ": 2034,
      "ĠìĿ¸ìłķ": 2035,
      "íĹĪ": 2036,
      "ì§ĢìĿĺ": 2037,
      "Ġëħ¹": 2038,
      "ĠëĬ¥": 2039,
      "Ġ2011": 2040,
      "ìľĦìĽĲíļĮ": 2041,
      "ĠìķĮëł¤ìł¸": 2042,
      "Ġê¸°ëĬ¥": 2043,
      "Ġì§ģìłĳ": 2044,
      "ìŀĪëĭ¤": 2045,
      "Ġê¼": 2046,
      "ìłľë¥¼": 2047,
      "22": 2048,
      "Ġíıīê°Ģ": 2049,
      "íĸĪì§Ģë§Į": 2050,
      "ĠìĭľëĮĢ": 2051,
      "ë¥´íĬ¸": 2052,
      "ìĥģìĿĺ": 2053,
      "ĠìķĬìĿĢ": 2054,
      "ëłĩê²Į": 2055,
      "ìĭ±": 2056,
      "êµ°ìĹĲ": 2057,
      "ëĵ¯": 2058,
      "ĠìŀĦëªħ": 2059,
      "íĽĪ": 2060,
      "ë¯¼êµŃ": 2061,
      "ĠìĥģíĻ©": 2062,
      "ãħĭãħĭãħĭãħĭãħĭãħĭ": 2063,
      "Ġìľłì§Ģ": 2064,
      "íĬ¸ë¡ľ": 2065,
      "íĳ¸": 2066,
      "ĠìĻĦìłĦ": 2067,
      "ìħĶ": 2068,
      "ëłĪìĬ¤": 2069,
      "11": 2070,
      "Ġìĩ¼": 2071,
      "ìľĦìĹĲ": 2072,
      "ĠìŀĪëĬĶëį°": 2073,
      "ĠëĲĺëĬĶ": 2074,
      "ìĭŃ": 2075,
      "Ġ2014": 2076,
      "ĠìķĦë²Ħì§Ģ": 2077,
      "ìĺ¤ëĬĶ": 2078,
      "ìĪĻ": 2079,
      "ì²Ļ": 2080,
      "ĠëĮĢìĭł": 2081,
      "ìĪĺëĬĶ": 2082,
      "ĠëĽ°": 2083,
      "ë¹Į": 2084,
      "íķĺì§Ģë§Į": 2085,
      "ìĿ¸ìĿĦ": 2086,
      "Ġë°´": 2087,
      "ì£Ħ": 2088,
      "íħĲ": 2089,
      "ĠìĹĺ": 2090,
      "ìª½ìľ¼ë¡ľ": 2091,
      "ëĵ¤ìĹĲ": 2092,
      "ĠíķĻêµĲ": 2093,
      "ĠìŀĲìĹ°": 2094,
      "ĠíĺķìĦ±": 2095,
      "êµ°ìĿ´": 2096,
      "ë¶ĢëĬĶ": 2097,
      "ĠëĶ°ëĿ¼ìĦľ": 2098,
      "Ġì¤ĳìļĶíķľ": 2099,
      "ĠìĦ¼": 2100,
      "Ġê¸°ìĹħ": 2101,
      "Ġëª©ë¡Ŀ": 2102,
      "Ġê²°íĺ¼": 2103,
      "ĠìķĬìķĺ": 2104,
      "ĠìłķìĿĺ": 2105,
      "Ġê°ľìµľ": 2106,
      "Ġ26": 2107,
      "ì¿Ħ": 2108,
      "íĨ¤": 2109,
      "Ġê±´ìĦ¤": 2110,
      "Ġ28": 2111,
      "ë¬¼ìĿĦ": 2112,
      "ìłľê°Ģ": 2113,
      "Ġëª¨ëį¸": 2114,
      "Ġë³Ģê²½": 2115,
      "Ġ2013": 2116,
      "ĠìłķëıĦ": 2117,
      "ĠìĿĦ": 2118,
      "ëĮĢëĬĶ": 2119,
      "ìĦłìĿĦ": 2120,
      "ìłĦìĹĲìĦľ": 2121,
      "ĵ¨": 2122,
      "Ġì²łëıĦ": 2123,
      "ĠìłľêµŃ": 2124,
      "Ġìĺ¤ëĬĺ": 2125,
      "ĠìĿ´ë¡ł": 2126,
      "ìĪĺë¡ľ": 2127,
      "ĠëĤ®": 2128,
      "ĠíķŃê³µ": 2129,
      "ë¶Ģë¥¼": 2130,
      "Ġë°ľìłĦ": 2131,
      "Ġê´Ģíķľ": 2132,
      "ĠìĮ": 2133,
      "ĠíĻľìķ½": 2134,
      "ĠìĿ¸ëıĦ": 2135,
      "ĠìķĦëĭĮ": 2136,
      "ìŀĪëĬĶ": 2137,
      "ĠíĽ": 2138,
      "ì¤ĳìĹĲ": 2139,
      "ĠíĴį": 2140,
      "ëĮĢê°Ģ": 2141,
      "Ġíį¼": 2142,
      "ì½ľ": 2143,
      "ì¶ĺ": 2144,
      "Ġë¯¼ì£¼": 2145,
      "Ġ27": 2146,
      "ìĥ¤": 2147,
      "íĬ¸ëĬĶ": 2148,
      "ìĿ¸ëį°": 2149,
      "ĠìĹ¬ìŀĲ": 2150,
      "ĠìĦľë¡ľ": 2151,
      "ë²¤": 2152,
      "íı°": 2153,
      "Ġë°©ìĭĿ": 2154,
      "Ġíķµ": 2155,
      "ìĿ¼ê¹Įì§Ģ": 2156,
      "Ġíģ¬ê²Į": 2157,
      "ëĺĲ": 2158,
      "ëŀĻ": 2159,
      "16": 2160,
      "Ġ2015": 2161,
      "Ġë¶Ħë¥ĺ": 2162,
      "Ġ2018": 2163,
      "íĶĦë¦¬ì¹´": 2164,
      "ìĦ¸ìĿĺ": 2165,
      "Ġì¡¸ìĹħ": 2166,
      "ìķ¡": 2167,
      "ì§Ģë¡ľ": 2168,
      "ëªħìĿ´ëĭ¤": 2169,
      "ìĽĲìľ¼ë¡ľ": 2170,
      "Ġ2006": 2171,
      "ë¹ĦìłĦ": 2172,
      "Ġíĭ°": 2173,
      "ĠíĶĦë¦¬": 2174,
      "Ġë¸ĮëĿ¼": 2175,
      "ĠìĿ¸êµ¬ëĬĶ": 2176,
      "ĠìŀĪëĭ¤ê³ł": 2177,
      "ê³Ħë¥¼": 2178,
      "ĠìĹŃìĭľ": 2179,
      "Ġê³µëıĻ": 2180,
      "Ġìļ¸": 2181,
      "ë´Ĳ": 2182,
      "Ġë¹Ħë¡¯": 2183,
      "ì¹ĺë¥¼": 2184,
      "ĠíĻĪ": 2185,
      "Ġê·¸ê°Ģ": 2186,
      "¹ìĿĢ": 2187,
      "Ġìĺ¤ìĬ¤íĬ¸": 2188,
      "ìļ±": 2189,
      "ëĵľìĿĺ": 2190,
      "ĠìĭľìŀĳíĸĪëĭ¤": 2191,
      "ìĿ´ìĿĺ": 2192,
      "Ġìķķ": 2193,
      "ìľ¤": 2194,
      "ĠíĽĦìĹĲ": 2195,
      "ĠìĿĳ": 2196,
      "ê°Ķëĭ¤": 2197,
      "ĠëĦĪë¬´": 2198,
      "ë§¨": 2199,
      "ĠìĤ¬ìĹħ": 2200,
      "ìĿ¸ë¯¼ê³µ": 2201,
      "17": 2202,
      "Ġê´Ģë¦¬": 2203,
      "ìĸ´ê°Ģ": 2204,
      "ìłģìĿĢ": 2205,
      "ìĥģìĿ´": 2206,
      "Ġëľ»ìĿĢ": 2207,
      "Ġìĭ¸": 2208,
      "ĠíĿ¬": 2209,
      "ĠìĤ¬ìĿ´ìĹĲ": 2210,
      "ë²½": 2211,
      "ìĬ¤íĥĦ": 2212,
      "íĤ¨ëĭ¤": 2213,
      "Ġê·¸ë¦¬ìĬ¤": 2214,
      "Ġë§Ĳíķľëĭ¤": 2215,
      "ìĿ´ë¥¼": 2216,
      "ë¬¸ìĿĦ": 2217,
      "ĠìĺģíĻĶìĿ´ëĭ¤": 2218,
      "Ġë¿Ĳ": 2219,
      "ëĵľë¡ľ": 2220,
      "ëĦ·": 2221,
      "íĥģ": 2222,
      "Ġê¸°ì¤Ģìľ¼ë¡ľ": 2223,
      "Ġìĭ±ê¸Ģ": 2224,
      "ìĦ±ìĿĢ": 2225,
      "ĠìĿ¼ìľ¼": 2226,
      "Ġíĩ´": 2227,
      "ê³¤": 2228,
      "Ġê²½ìĥģ": 2229,
      "ë¦¬ìĺ¤": 2230,
      "ë¶ģëıĦ": 2231,
      "ĠìĦľë¹Ħ": 2232,
      "ĠëĶ¸": 2233,
      "íļĮë¥¼": 2234,
      "ê°ĢìĻĢ": 2235,
      "ĠìĻľ": 2236,
      "ĠìļĶêµ¬": 2237,
      "Ġ2000": 2238,
      "ëĤĺëĭ¤": 2239,
      "ĠëĮĢìłĦ": 2240,
      "ìŀ¥ìĿĺ": 2241,
      "ëĶ©": 2242,
      "½ĥ": 2243,
      "ĠíĬ¹ì§ķ": 2244,
      "ĠëĤĺëĿ¼": 2245,
      "Ġ2016": 2246,
      "ìĩ": 2247,
      "14": 2248,
      "ĠìķĬëĬĶ": 2249,
      "ë§İ": 2250,
      "Ġëħ¸ëıĻ": 2251,
      "íĶĦë¡ľ": 2252,
      "Ġíĥľìĸ´ëĤ¬ëĭ¤": 2253,
      "ì»¬": 2254,
      "ìĻľ": 2255,
      "ìłľìĿĺ": 2256,
      "ĠëĲĺìĹĪ": 2257,
      "ê±°ë¦¬": 2258,
      "Ġìĥī": 2259,
      "ĠíĶĮëłĪìĿ´": 2260,
      "íĤ¤ëĬĶ": 2261,
      "ìĿ¼ë³¸": 2262,
      "Ġê¸°ë°ĺ": 2263,
      "Ġë°ĺëĮĢ": 2264,
      "Ġë§Įëĵł": 2265,
      "Ġêµ°ìĤ¬": 2266,
      "ĠìĽĮ": 2267,
      "ĠëĨĵ": 2268,
      "ĠíķĻìĥĿ": 2269,
      "ìŀĦìĿĦ": 2270,
      "50": 2271,
      "ì½ĺ": 2272,
      "ë§ŀ": 2273,
      "ëĲĲëĭ¤": 2274,
      "Ġìĸ´ëĸ¤": 2275,
      "ë¹ł": 2276,
      "Ġ~": 2277,
      "ãħĭãħĭãħĭãħĭãħĭãħĭãħĭãħĭãħĭãħĭãħĭãħĭãħĭãħĭãħĭãħĭ": 2278,
      "íĨ¨": 2279,
      "ëĭĿ": 2280,
      "Ġê±´ë¬¼": 2281,
      "ĠìķĦë¥´": 2282,
      "Ġê±°ì³Ĳ": 2283,
      "ëĲĺë©´ìĦľ": 2284,
      "Ġë¹ĦíĮĲ": 2285,
      "Ġì§ĢìĹŃìĿĺ": 2286,
      "Ġíľ´": 2287,
      "ìŀ¥ìĹĲ": 2288,
      "Ġê¸°ê°Ħ": 2289,
      "ĠìĹ°íķ©": 2290,
      "íĻį": 2291,
      "ê´ĳìĹŃ": 2292,
      "ì§Ħëĭ¤": 2293,
      "Ġì§ĢëıĦ": 2294,
      "ë§Īëĭ¤": 2295,
      "Ġë§ĪìĿĦ": 2296,
      "íķĻìłģ": 2297,
      "Ġê·¸ëŁ°": 2298,
      "ĩĮ": 2299,
      "ĠìŀĪìĿĦ": 2300,
      "Ġ50": 2301,
      "ĠìĿ¸ë¬¼": 2302,
      "ìŀĲìĻĢ": 2303,
      "ëĲĺë©°": 2304,
      "ëªħìĿĢ": 2305,
      "ãħľãħľ": 2306,
      "Ġì¢ĭìķĦ": 2307,
      "íĦ¸": 2308,
      "íĵ¨": 2309,
      "ìĬ·": 2310,
      "Ġë°ĶìĿ´": 2311,
      "Ġê³Ħìķ½": 2312,
      "ĠìĽĲëŀĺ": 2313,
      "ëĵľë¥¼": 2314,
      "íıŃ": 2315,
      "ĠìĹŃíķłìĿĦ": 2316,
      "ĠìĶ": 2317,
      "Ġë´": 2318,
      "ê³¼ëĬĶ": 2319,
      "Ġ2017": 2320,
      "ĠíĮĲë§¤": 2321,
      "ĠëıĻìĭľìĹĲ": 2322,
      "êµ°ìĿĦ": 2323,
      "ê²Ģ": 2324,
      "ĠíħĶëłĪ": 2325,
      "Ġë°Ķë¡ľ": 2326,
      "Ġê¸´": 2327,
      "Ġë³´ëĤ´": 2328,
      "ê´ĢìĿĢ": 2329,
      "ì²´ìĿĺ": 2330,
      "ë¥¸ëĭ¤": 2331,
      "Ġì§Ģíķĺ": 2332,
      "ìĥģìľ¼ë¡ľ": 2333,
      "ĠìĤ¬ëŀĳ": 2334,
      "Ġê´": 2335,
      "Ġìļ´íĸī": 2336,
      "13": 2337,
      "Ġëķ": 2338,
      "íĬ¼": 2339,
      "Ġíķľíİ¸": 2340,
      "ìĽĥ": 2341,
      "Ġê°ľìĿ¸": 2342,
      "ìĻĶ": 2343,
      "ê¾¸": 2344,
      "Ġ2005": 2345,
      "ìķ¼ë§Ī": 2346,
      "ĠìĪĺíĸī": 2347,
      "ìĬ¤ì½Ķ": 2348,
      "ëł¬": 2349,
      ",,": 2350,
      "ãħĩãħĩ": 2351,
      "ìĭľë§Ī": 2352,
      "ĠìĿ´ë¥´": 2353,
      "ĠìŀĲëıĻ": 2354,
      "ìłķíķľ": 2355,
      "ĠíķĺìĺĢ": 2356,
      "íĸĪëĬĶëį°": 2357,
      "ĠëĲł": 2358,
      "ĠëĤĺë": 2359,
      "Ġ29": 2360,
      "íĬ¹ë³Ħ": 2361,
      "íĬ¸ìĿĺ": 2362,
      "ìĿ´ìĹĪëįĺ": 2363,
      "íĬ¸ë¥¼": 2364,
      "íļĮëĬĶ": 2365,
      "ìĨĮë¥¼": 2366,
      "Ġê¸°ë³¸": 2367,
      "Ġê°ľìĿĺ": 2368,
      "ĠìłĦêµŃ": 2369,
      "ĠìĿ´ëıĻ": 2370,
      "ì²´ë¥¼": 2371,
      "Ġì²ĺìĿĮìľ¼ë¡ľ": 2372,
      "ëĭ¨ìĿĺ": 2373,
      "Ġë§Ŀ": 2374,
      "Ġì´Īê¸°": 2375,
      "ì¹´ìĿ´": 2376,
      "ĠìłĦíĨµ": 2377,
      "íķĢ": 2378,
      "Ġì¶ľìĭľ": 2379,
      "ĠìĬ¬": 2380,
      "ĠíĺĦëĮĢ": 2381,
      "ìŀ¥ìĹĲìĦľ": 2382,
      "íħĶ": 2383,
      "ìĸ´ìļĶ": 2384,
      "íĸĪìľ¼ëĤĺ": 2385,
      "ê²½ê¸°": 2386,
      "ìĬ¤ìĹĲ": 2387,
      "ìĭľëĬĶ": 2388,
      "Ġë°°ìļ°ìĿ´ëĭ¤": 2389,
      "Ġì§Ģêµ¬": 2390,
      "ìĦľë¥¼": 2391,
      "ëª»": 2392,
      "ëĳ¥": 2393,
      "ĠìĿ¸ê°Ħ": 2394,
      "Ġê¸°íĥĢ": 2395,
      "ĠìłĦë¬¸": 2396,
      "Ġìłķì±ħ": 2397,
      "Ġë§¥": 2398,
      "Ġë¹ĦìĬ·": 2399,
      "Ġê¶ģ": 2400,
      "Ġê²¸": 2401,
      "Ġì§ĢëĤĺ": 2402,
      "ĠëłĪìĿ´": 2403,
      "íĬľ": 2404,
      "Ġì¢Ģ": 2405,
      "Ĳë¦¬": 2406,
      "ê¼": 2407,
      "Ġê³µê°Ħ": 2408,
      "Ġê²¬": 2409,
      "¨ë¦¬": 2410,
      "ĠìĹ°ë°©": 2411,
      "Ġìķ¼êµ¬": 2412,
      "íĺĶëĭ¤": 2413,
      "Ġ2019": 2414,
      "Ġë¶ĢìĤ°": 2415,
      "Ġë¹Ī": 2416,
      "Ġë¯¼ì¡±": 2417,
      "ëįĶëĿ¼": 2418,
      "Ġì½ľ": 2419,
      "Ġìļ°ë¦¬": 2420,
      "Ġìĵ": 2421,
      "Ġì¦Ŀê°Ģ": 2422,
      "ĠëıĦìŀħ": 2423,
      "Ġìµľì´ĪìĿĺ": 2424,
      "ìĩ¼": 2425,
      "ìĿ´ìĸ´": 2426,
      "Ġíĺģ": 2427,
      "ĠìĿĺíķľ": 2428,
      "ì¼ĵ": 2429,
      "ĠìĿ´ëŁ°": 2430,
      "ê°ĳ": 2431,
      "ìĹŃìĿ´ëĭ¤": 2432,
      "ë¦°ëĭ¤": 2433,
      "ĠëĮĢíķ´ìĦľ": 2434,
      "ëľ": 2435,
      "ëĵ¬": 2436,
      "ëıĻìķĪ": 2437,
      "íķĺìĺĢìľ¼ëĤĺ": 2438,
      "Ġì£¼ë³Ģ": 2439,
      "ãħĭãħĭãħĭãħĭãħĭãħĭãħĭ": 2440,
      "íĺ¸ë¥¼": 2441,
      "ìĿ´ê¸°ëıĦ": 2442,
      "ë¥´ê²Į": 2443,
      "ìĹ°êµ¬": 2444,
      "Ġ2004": 2445,
      "Ġìŀī": 2446,
      "ìłľëĬĶ": 2447,
      "ĠìĨĮëł¨": 2448,
      "ìł¤": 2449,
      "ë¬ĺ": 2450,
      "ëıĦìĹĲ": 2451,
      "Ġãħĭãħĭ": 2452,
      "Ġê²½ê¸°ëıĦ": 2453,
      "Ġì¤ĳíĻĶ": 2454,
      "ëıħêµĲ": 2455,
      "ĠìĥģëĮĢ": 2456,
      "êµĲìľ¡": 2457,
      "ĠíĬ¹ë³Ħ": 2458,
      "ê²©ìĿĦ": 2459,
      "íıĲ": 2460,
      "30": 2461,
      "Ġì¢ħêµĲ": 2462,
      "Ġê³µìĹ°": 2463,
      "ĠìłľìĻ¸": 2464,
      "ë¡¤": 2465,
      "ĠìľĦíķĺìĹ¬": 2466,
      "ë¦¬ì§Ģ": 2467,
      "íĺ¸ëĬĶ": 2468,
      "ëıĪ": 2469,
      "ĠìĤ°ìĹħ": 2470,
      "ìłģìĿĦ": 2471,
      "198": 2472,
      "Ġì¢ĭìĿĢ": 2473,
      "ëĮĢíķľë¯¼êµŃ": 2474,
      "Ġëĭ¬ë¦¬": 2475,
      "íĶ¼ìĸ¸": 2476,
      "Ġìĺ®": 2477,
      "íĻĶê°Ģ": 2478,
      "Ġì°¾ìķĦ": 2479,
      "Ġë§Ľ": 2480,
      "ĠëĦĵ": 2481,
      "ë¦¬ë¡ľ": 2482,
      "ĠìŀĳìĹħ": 2483,
      "ĠìĽĶëĵľì»µ": 2484,
      "ë¡Ń": 2485,
      "ìĤ¬ìĻĢ": 2486,
      "Ġëªħì¹Ń": 2487,
      "ì¹ł": 2488,
      "ë°©ìĨ¡": 2489,
      "ĠìĿ´ëģĮ": 2490,
      "Ġë¨¼": 2491,
      "Ġìĭ¤ìĭľ": 2492,
      "ĠìŀĪëĭ¤ëĬĶ": 2493,
      "ĠìĦ¤ëªħ": 2494,
      "ìĸ´ìĿĺ": 2495,
      "ìĦ¸ëĬĶ": 2496,
      "ìľĦë¡ľ": 2497,
      "ìĭ¸": 2498,
      "Ġíķĺë©°": 2499,
      "Ġë²¨": 2500,
      "Ġì§Ģë°°": 2501,
      "ĸìĹĲ": 2502,
      "ĠìĽ¨": 2503,
      "ë¦¬ìĻĢ": 2504,
      "Ġìĥ¤": 2505,
      "íķĻê³¼": 2506,
      "ìĭ¶": 2507,
      "Ġê¸°ê´Ģ": 2508,
      "ì§Ħì§ľ": 2509,
      "ĠíĽĪ": 2510,
      "ĠìĹŃìŀĦ": 2511,
      "Ġëħ¸ìĦł": 2512,
      "Ġìĸ´ë¨¸ëĭĪ": 2513,
      "Ġíĳ¸": 2514,
      "ĠìĬ¹ê°ķ": 2515,
      "ĠëĦ£": 2516,
      "Ġë®¤": 2517,
      "ĠëĲĺê³ł": 2518,
      "Ġë³´íĨµ": 2519,
      "ĠìĬ¤ìľĦ": 2520,
      "Ġ192": 2521,
      "ìĿ¼íķľ": 2522,
      "íĸĪëĭ¤ê³ł": 2523,
      "ĠëĿ": 2524,
      "ê³łëĵ±íķĻêµĲ": 2525,
      "Ġê°ĢìĪĺ": 2526,
      "ë¬´ë¥¼": 2527,
      "Ġë°ĽìĿĢ": 2528,
      "ĠëıĪ": 2529,
      "ĠíĻķìĿ¸": 2530,
      "ìļ´ëĵľ": 2531,
      "ĠíĥĲ": 2532,
      "Ġ40": 2533,
      "ëŀ«": 2534,
      "Ġê²½ê¸°ìĹĲìĦľ": 2535,
      "ìłķìĹĲ": 2536,
      "Ġì§Ħì§ľ": 2537,
      "ìĿĺë¥¼": 2538,
      "ĠìŀĲê¸°": 2539,
      "Ġìłģìļ©": 2540,
      "Ġê°Ģì¡±": 2541,
      "Ġëª¨ìĸĳ": 2542,
      "ë©ĺ": 2543,
      "Ġ31": 2544,
      "Ġãħĭãħĭãħĭ": 2545,
      "Ġê¸°ì¡´": 2546,
      "Ġë¹ĦêµĲ": 2547,
      "Ġìŀĳê³¡": 2548,
      "ì¹¼": 2549,
      "Ġíĺ¹ìĿĢ": 2550,
      "íķľêµŃ": 2551,
      "ĠëıĦì¿Ħ": 2552,
      "ìĿ´ë¡ľ": 2553,
      "Ġë°Ľìķĺ": 2554,
      "Ġê°ĳ": 2555,
      "ìĽĲìĹĲ": 2556,
      "ìĥģìĿĢ": 2557,
      "ĠìĨĮìĦ¤": 2558,
      "íĵ¨íĦ°": 2559,
      "ëĭĪë©Ķ": 2560,
      "Ġê²½ì°°": 2561,
      "ĠíĸīëıĻ": 2562,
      "Ġì¶Ķìłķ": 2563,
      "Ġíĥĳ": 2564,
      "íĮĶ": 2565,
      "ĠêµŃëĤ´": 2566,
      "ëįľ": 2567,
      "íĺľ": 2568,
      "ì²´ê°Ģ": 2569,
      "ëłµ": 2570,
      "ëĮĢíĳľíĮĢ": 2571,
      "ëĵľë¦¬": 2572,
      "ĠíĴĢ": 2573,
      "ĠìĹ¬ê¸°": 2574,
      "íĤ¬": 2575,
      "Ġì§Ģíľĺ": 2576,
      "Ġìĺ¬ëĿ¼": 2577,
      "ĠëŃĲ": 2578,
      "ĠíĶ¼íķ´": 2579,
      "ĠìĿ¼ë°ĺìłģìľ¼ë¡ľ": 2580,
      "Ġëĸ¨ìĸ´": 2581,
      "ì¢ĭ": 2582,
      "Ġê°Ģê¹Į": 2583,
      "ĠìĹĨìĿ´": 2584,
      "ĠìĿ´ëķĮ": 2585,
      "ëĭ¨ìĿĢ": 2586,
      "Ġê³§": 2587,
      "ìŀĶ": 2588,
      "ëħĦìĿĺ": 2589,
      "íĬ¸ë¦¬": 2590,
      "ë¥´ê³ł": 2591,
      "Ġê·ľëª¨": 2592,
      "ĠíĿĶ": 2593,
      "ê´ĢìĿĦ": 2594,
      "ë£¡": 2595,
      "ìķĦìĦľ": 2596,
      "ìĭľì¼°ëĭ¤": 2597,
      "Ġì§Ģì§Ģ": 2598,
      "ĠìĿ´ìłģ": 2599,
      "ĠíĻĺê²½": 2600,
      "íĺ¸ë¡ľ": 2601,
      "Ġíļį": 2602,
      "Ġ190": 2603,
      "ĠìĦłìłķ": 2604,
      "Ġë¶Ħìķ¼": 2605,
      "ê¸°ìĻĢ": 2606,
      "ìŀĺ": 2607,
      "Ġì°©": 2608,
      "ìºĲ": 2609,
      "ìłł": 2610,
      "¤ë²Ħ": 2611,
      "ëĶ°": 2612,
      "ĠìĿ´ê²ĥìĿĢ": 2613,
      "ëª°": 2614,
      "ë¶Ģê°Ģ": 2615,
      "Ġì¤ĳìĭ¬ìľ¼ë¡ľ": 2616,
      "Ġê·¸ë¥¼": 2617,
      "ëĭ¹ìĿĺ": 2618,
      "ĠìĤ¬ê³ł": 2619,
      "ëĭ¨ìĿĦ": 2620,
      "ĶíĶ¼ìĸ¸": 2621,
      "ê°ĻìĿĢ": 2622,
      "ë£¬": 2623,
      "ìĹĩ": 2624,
      "¢°": 2625,
      "ĠëĵĿ": 2626,
      "Ġëĥ": 2627,
      "íķĺê±°ëĤĺ": 2628,
      "ìĿį": 2629,
      "ê´ĳìĹŃìĭľ": 2630,
      "ī½": 2631,
      "ìĶ©": 2632,
      "ĠíĨµíķ©": 2633,
      "ĠëķĮë¬¸ìĿ´ëĭ¤": 2634,
      "ìŀĩ": 2635,
      "ë¦ī": 2636,
      "ĠêµĲíĻ©": 2637,
      "ĠìķĦì§ģ": 2638,
      "ëŁ´": 2639,
      "Ġë°Ľê³ł": 2640,
      "ìĬ¤ì¹´": 2641,
      "ĠìłĦëĿ¼": 2642,
      "ìĿ´ìķ¼": 2643,
      "ìĿ¸ìľ¼ë¡ľ": 2644,
      "Ġì¹ľêµ¬": 2645,
      "ĠìµľëĮĢ": 2646,
      "ĠíħĶëłĪë¹ĦìłĦ": 2647,
      "ëĭĪë©ĶìĿ´ìħĺ": 2648,
      "ĠìĪĻ": 2649,
      "Ġ2020": 2650,
      "ìª½ìĹĲ": 2651,
      "Ġê²ĥìĿ´ëĿ¼ê³ł": 2652,
      "ĠëĮĢì²´": 2653,
      "Ġìĭ¤íĮ¨": 2654,
      "ìĺ¤ëĬĺ": 2655,
      "Ġì°¨ëŁī": 2656,
      "Ġê±´ì¶ķ": 2657,
      "ìĦ±ê³¼": 2658,
      "ìłķìĿĺ": 2659,
      "ĠìĹ¼": 2660,
      "Ġë³´íĺ¸": 2661,
      "Ġê°ľëħĲ": 2662,
      "Ġê³¼ê±°": 2663,
      "ìłķìĿĢ": 2664,
      "ĬìĿĢ": 2665,
      "ĠìĿ´ìĥģìĿĺ": 2666,
      "Ġë°©íĸ¥": 2667,
      "ìłģìĿ´": 2668,
      "Ġãħİãħİ": 2669,
      "ĠëĤĺê°Ģ": 2670,
      "Ġìĭ¶": 2671,
      "ĠëĬĺ": 2672,
      "ĠìŀĪìĸ´ìĦľ": 2673,
      "ĠìĦłíĥĿ": 2674,
      "ì§Ģë°©": 2675,
      "ĠìĹ´ì°¨": 2676,
      "ì¹ĺê°Ģ": 2677,
      "Ġìĸ¸ê¸ī": 2678,
      "ìĦłê±°": 2679,
      "Ġìļ°ì£¼": 2680,
      "ìĩĦ": 2681,
      "ì³¤ëĭ¤": 2682,
      "Ġëĭ´ëĭ¹": 2683,
      "ëĨį": 2684,
      "ì¢ħìĿĺ": 2685,
      "ĠìŀĪì§Ģë§Į": 2686,
      "ìļ°ë¦¬": 2687,
      "ê¸°ê´Ģ": 2688,
      "ìĭľì¼ľ": 2689,
      "ĠìĪĺëĬĶ": 2690,
      "ìĬ¤íħĮ": 2691,
      "ìŀĲëĵ¤ìĿĢ": 2692,
      "ëĤĺê°Ģ": 2693,
      "Ġìĥģëĭ¹": 2694,
      "ë¥ĺìĿĺ": 2695,
      "ĠìĦ¸íı¬": 2696,
      "ì¡°ìĿĺ": 2697,
      "Ġìĸ´ë¦°": 2698,
      "ĠìŀĲìĭłìĿ´": 2699,
      "ë©Ķë¦¬ì¹´": 2700,
      "ìĦ±ìĹĲ": 2701,
      "ĠìºĲëĤĺëĭ¤": 2702,
      "ëĤĺë¬´": 2703,
      "ê³ĦìĿĺ": 2704,
      "ìĿ¸ë¯¼ê³µíĻĶêµŃ": 2705,
      "ĠëĳĲê³ł": 2706,
      "Ġê¸°ëıħêµĲ": 2707,
      "ìĽĲìłĦ": 2708,
      "Ġê¸°ëħĲ": 2709,
      "ĠìĦłì¶ľ": 2710,
      "íı¬ì¸ł": 2711,
      "Ġìĸ´ëĬĲ": 2712,
      "Ġíĥľìĸĳ": 2713,
      "ìłķìĿ´": 2714,
      "ìĺ¹": 2715,
      "ìĬ¤íĭ°": 2716,
      "Ġë°ĺìĿĳ": 2717,
      "Ġíģ´ëŁ½": 2718,
      "Ġ2002": 2719,
      "60": 2720,
      "Ġë¶Ģì¡±": 2721,
      "ìĿ¼ìĿĦ": 2722,
      "ìĽĢìĿĦ": 2723,
      "ĠëĲĺìĹĪê³ł": 2724,
      "ĠëĤĻ": 2725,
      "ìī¬": 2726,
      "º¼": 2727,
      "ë¢°": 2728,
      "ĠìĹ°ì£¼": 2729,
      "ëŃĲ": 2730,
      "Ġì±ĶíĶ¼ìĸ¸": 2731,
      "Ġ2003": 2732,
      "ĠìłĦìĹĲ": 2733,
      "Ġê²½ëł¥": 2734,
      "ĠíĻľëıĻìĿĦ": 2735,
      "Ġë©¤ë²Ħ": 2736,
      "íĬ¸ëĤ¨": 2737,
      "ĠìĨįíķĺëĬĶ": 2738,
      "ìĥģìĹĲ": 2739,
      "ìĿ¸ìĿ´ëĭ¤": 2740,
      "ìĤ¬íļĮ": 2741,
      "ĠëĤ´ëł¤": 2742,
      "Ġëĭ¤ìĿ´": 2743,
      "Ġê°ĲëıħìĿĺ": 2744,
      "ì½©": 2745,
      "ëĤľëĭ¤": 2746,
      "ê¸Ģëŀľëĵľ": 2747,
      "ë²ĦìĬ¤": 2748,
      "êµ¬ëĬĶ": 2749,
      "ìĦ¸ê°Ģ": 2750,
      "Ġëī´ìļķ": 2751,
      "ìŀĲê¸°": 2752,
      "ëĨĵ": 2753,
      "ëĭµ": 2754,
      "Ġë°©ìĺģ": 2755,
      "ì§ĢìĹŃ": 2756,
      "ĠëĮĢë¶Ģë¶ĦìĿĺ": 2757,
      "íķľëĭ¤ëĬĶ": 2758,
      "Ġì£¼ìĹ°": 2759,
      "Ġëį°ìĿ´íĦ°": 2760,
      "Ġì¹¸": 2761,
      "Ġíļ¨ê³¼": 2762,
      "ëĤĺìĿ´": 2763,
      "ìĭ¬ìĿĦ": 2764,
      "ì£¼ìĹĲ": 2765,
      "Ġíıīê·ł": 2766,
      "ìĦ¯": 2767,
      "ĠëıĦë¡ľ": 2768,
      "ë°ĶìĿ´": 2769,
      "ëĢ": 2770,
      "ĠíĿĲ": 2771,
      "Ġë³ĢíĻĶ": 2772,
      "ëħ¼": 2773,
      "ĠìĬ¤íİĺìĿ¸": 2774,
      "íķĻìĿĺ": 2775,
      "ìĿ¼ìĹĲëĬĶ": 2776,
      "Įë¦¬": 2777,
      "Ġê±¸ì³Ĳ": 2778,
      "ë¤": 2779,
      "Ġìĺ¥": 2780,
      "Ġëª½": 2781,
      "ë©´ìĹĲ": 2782,
      "ĠíĿĳ": 2783,
      "Ġê²¨": 2784,
      "íĥĳ": 2785,
      "ĠìĹĨìĹĪëĭ¤": 2786,
      "íķĻìĿĦ": 2787,
      "êµ¬ìĹĲ": 2788,
      "Ġìĸ¸ìĸ´": 2789,
      "ê²Ĳ": 2790,
      "Ġìŀĩ": 2791,
      "ĠíĺĦìŀ¬ìĿĺ": 2792,
      "ë²łë¥´": 2793,
      "íĤ¹": 2794,
      "ìłĿ": 2795,
      "Ġì»´íĵ¨íĦ°": 2796,
      "ëĤĺëıĦ": 2797,
      "Ġìŀĳê°Ģ": 2798,
      "ê·¸ëĬĶ": 2799,
      "Ġë°ľë§¤ëĲľ": 2800,
      "ë¬¸ìĹĲ": 2801,
      "ĠíļįëĵĿ": 2802,
      "ë§Ľ": 2803,
      "ëı¼": 2804,
      "ĠìľĦìĽĲ": 2805,
      "ê²¼ëĭ¤": 2806,
      "ëĲĺìĹĪëįĺ": 2807,
      "ĠëĨĢ": 2808,
      "Ġìĸ´ëł¤": 2809,
      "Ġìŀħëĭ¨": 2810,
      "ìĨĮê°Ģ": 2811,
      "íĺ¸ìĦł": 2812,
      "íģĲ": 2813,
      "ìĬ¤ìĹĲìĦľ": 2814,
      "ì²´ëĬĶ": 2815,
      "ìłĦìĿĢ": 2816,
      "Ġíķĺëĭ¤": 2817,
      "íĢ": 2818,
      "íľ´": 2819,
      "ìĬ¤íĨł": 2820,
      "Ġì§ĢìĨį": 2821,
      "ãħ¡": 2822,
      "ìģ": 2823,
      "ĠìĪĺë¡Ŀ": 2824,
      "íŀĮ": 2825,
      "Ġê±°ì£¼": 2826,
      "Ġìµľì¢ħ": 2827,
      "ê°ľìĽĶ": 2828,
      "¶¤": 2829,
      "ìĨĮëĬĶ": 2830,
      "Ġì¡°ìĤ¬": 2831,
      "ìŀī": 2832,
      "ĠìłľìŀĳëĲľ": 2833,
      "ëłĢëĭ¤": 2834,
      "ìĦ¸ë¥¼": 2835,
      "ĠìĿ´íķ´": 2836,
      "ĠìŀĶ": 2837,
      "Ġì¡°ê±´": 2838,
      "ĠíķĺëĤĺìĿ´ëĭ¤": 2839,
      "ëª¨íĨł": 2840,
      "Ġëĵ±ìĹĲ": 2841,
      "ìĭĿìľ¼ë¡ľ": 2842,
      "ĠëıĻë¬¼": 2843,
      "ĠëįĶìļ±": 2844,
      "íĭ±": 2845,
      "ĠìĨĶ": 2846,
      "ĠìķłëĭĪë©ĶìĿ´ìħĺ": 2847,
      "ëĭ¹ìĿĢ": 2848,
      "Ġëķħ": 2849,
      "ĠìĺĽ": 2850,
      "Ġì§ĢìĹŃìĹĲ": 2851,
      "Ġëĭ¤ìĿĮìĿĦ": 2852,
      "ĠëĮĢíķĺìĹ¬": 2853,
      "ĠìŀĪìĹĪëįĺ": 2854,
      "êµ¬íķĺê³ł": 2855,
      "ĠìĿ´ë¦ĦìĿĢ": 2856,
      "Ġë§ĪìĿĮ": 2857,
      "íĸĪìĿĦ": 2858,
      "ĠëĽ°ìĸ´": 2859,
      "ëıĻìĹĲ": 2860,
      "Ġìĭľë¯¼": 2861,
      "ĠìĹĲëĦĪ": 2862,
      "ìĭľíĤ¤ëĬĶ": 2863,
      "ëĭī": 2864,
      "Ġì¹Ń": 2865,
      "ĠìĦłìĸ¸": 2866,
      "ĠìĤ¬ìĿ´ìĿĺ": 2867,
      "íķĺëıĦë¡Ŀ": 2868,
      "Ġì§ĢìłķëĲĺìĹĪëĭ¤": 2869,
      "ëĿ¼ìĿĺ": 2870,
      "ëªħìľ¼ë¡ľ": 2871,
      "Ġê´Ģíķł": 2872,
      "ë£¨ìĬ¤": 2873,
      "ë©Ķëĭ¬": 2874,
      "Ġìķ¤": 2875,
      "Ġê·¸ëĵ¤ìĿĺ": 2876,
      "ìĭĿìĿ´": 2877,
      "ì¤ĳíķĻêµĲ": 2878,
      "ĠêµĲíļĮ": 2879,
      "ëĮ": 2880,
      "ìłķë¶Ģ": 2881,
      "Ġë¶Īê°Ģ": 2882,
      "ìħĢ": 2883,
      "ĠìĤ¬ì§Ħ": 2884,
      "ëª½": 2885,
      "Ġêµ¬ìĹŃ": 2886,
      "ë²ķìĿĦ": 2887,
      "ìª½ìľ¼ë¡ľëĬĶ": 2888,
      "ìľµ": 2889,
      "Ġê°Ģë¦¬íĤ¨ëĭ¤": 2890,
      "ìĬ¤íĤ¤": 2891,
      "Ġì¶ľíĮĲ": 2892,
      "ë±": 2893,
      "ë²łìĿ´": 2894,
      "ĠìĺĪìłķ": 2895,
      "40": 2896,
      "Ġìłķìĭł": 2897,
      "Ġë§º": 2898,
      "Ġë°ĶëĢ": 2899,
      "ĠìŀĲë£Į": 2900,
      "Ġëª©íĳľ": 2901,
      "Ġì¶©ì²Ń": 2902,
      "ìĬ¤íĦ´": 2903,
      "ĠëŁ°": 2904,
      "ĠìľłìĤ¬": 2905,
      "ìŀĲëĵ¤ìĿ´": 2906,
      "Ġíķĺì§Ģ": 2907,
      "ëĤ´ëĬĶ": 2908,
      "ĠíĽĦë°ĺ": 2909,
      "ìļ°ëĬĶ": 2910,
      "Ġë§ĲíĸĪëĭ¤": 2911,
      "Ġë³´ìĿ¸ëĭ¤": 2912,
      "ĠìĹ°ìĨį": 2913,
      "Ġìµľì´Īë¡ľ": 2914,
      "ì¡°ìĦł": 2915,
      "ëįľëŀĢëĵľ": 2916,
      "Ġìĺ¬ëŀ": 2917,
      "ëªĩ": 2918,
      "Ġ1990": 2919,
      "Ġëĵ±ìľ¼ë¡ľ": 2920,
      "íķľëĭ¤ê³ł": 2921,
      "Ġê²°ìĬ¹": 2922,
      "ìķĦìĿ´": 2923,
      "ĠìĨĮìľł": 2924,
      "ìĽĲìĹĲìĦľ": 2925,
      "ĠìłĲëł¹": 2926,
      "ĠìĺĪìĪł": 2927,
      "ĠìĽĢ": 2928,
      "ĠìŀĲë¦¬": 2929,
      "Ġë²łìĿ´": 2930,
      "íģ¼": 2931,
      "Ġë¬¼ë¦¬": 2932,
      "Ġêµ¬ê°Ħ": 2933,
      "Ġê³µìĤ°": 2934,
      "Ġë°¤": 2935,
      "ê´ĢìĿ´": 2936,
      "ìĭľì¦Į": 2937,
      "ì¼ľ": 2938,
      "ë°į": 2939,
      "ìĭĿìĿĢ": 2940,
      "ë§ĮìĿ´": 2941,
      "Ġìĺ¤ëŀĺ": 2942,
      "ĠëĮĢì¤ĳ": 2943,
      "ëĤ´ê°Ģ": 2944,
      "íĺĪ": 2945,
      "ë¹Ħë¥¼": 2946,
      "ĠìłĦê¸°": 2947,
      "ĠìŀĪê²Į": 2948,
      "ĠêµĲíĨµ": 2949,
      "íİľ": 2950,
      "Ġëªħëł¹": 2951,
      "ìŀĲë¦¬": 2952,
      "êµ¬ë¥¼": 2953,
      "Ġì»¨": 2954,
      "Ġê·¸ëħĢëĬĶ": 2955,
      "Ġìŀīê¸Ģëŀľëĵľ": 2956,
      "ëĵ¤ëıĦ": 2957,
      "ì§ĢìĻĢ": 2958,
      "ãħĮ": 2959,
      "Ġë¶ĦìĦĿ": 2960,
      "ëĵľê°Ģ": 2961,
      "Ġë¯¿": 2962,
      "ëłĪìĿ¼": 2963,
      "Ġìŀĥ": 2964,
      "ë°¥": 2965,
      "ë¡ľìĬ¤": 2966,
      "ĠêµŃê°ĢëĮĢíĳľíĮĢ": 2967,
      "íĹ¨": 2968,
      "ë¶Ģë¥´íģ¬": 2969,
      "ìĿ¼ëŀľëĵľ": 2970,
      "ĠìķĮëł¤ì§Ħ": 2971,
      "ĠìĤ¬ëŀĮìĿ´": 2972,
      "ëĭĪëĬĶ": 2973,
      "ìķ¤": 2974,
      "25": 2975,
      "ĠìĭľìĦ¤": 2976,
      "íķ¨ìľ¼ë¡ľìį¨": 2977,
      "Ġë§ĮëĤĺ": 2978,
      "Ġíı¬íķ¨íķľ": 2979,
      "ĠìĹĶì§Ħ": 2980,
      "íĺ¹": 2981,
      "ìĬµëĭĪëĭ¤": 2982,
      "Ġê°ľë´ī": 2983,
      "Ġë°ľë§¤ëĲĺìĹĪëĭ¤": 2984,
      "ëĿ¼ìĬ¤": 2985,
      "ë³´ê³ł": 2986,
      "ëł¤ê³ł": 2987,
      "ĠìĿ´ìĻĢ": 2988,
      "ĠíĮ¬": 2989,
      "Ġê³¼íķĻ": 2990,
      "ë§ĮìĿĦ": 2991,
      "Ġìľłëŀĺ": 2992,
      "Ġìµľê·¼": 2993,
      "Ġìłľíķľ": 2994,
      "Ġíĳľì¤Ģ": 2995,
      "ìĦŃ": 2996,
      "Ġë°ĿíĺĶëĭ¤": 2997,
      "ĠíļĮìĤ¬": 2998,
      "Ġë¶Īêµ¬íķĺê³ł": 2999,
      "ĠìĶ¨": 3000,
      "ìĭľëĮĢ": 3001,
      "ëŁ¬ìĬ¤": 3002,
      "ìĨĮìĿĺ": 3003,
      "ìłĦìĿĺ": 3004,
      "íĬ¸ê°Ģ": 3005,
      "Ġì¹ĺë£Į": 3006,
      "ĠìĿ´ìľłë¡ľ": 3007,
      "ê°Ķ": 3008,
      "ëĭ¨ìĿ´": 3009,
      "ĠëĤĺìĺ¤": 3010,
      "ëĳĶ": 3011,
      "Ġì§ķ": 3012,
      "ĠìĦłë°ľ": 3013,
      "ì§Ģì§Ģ": 3014,
      "Ġ2001": 3015,
      "Ġê²°íķ©": 3016,
      "Ġname": 3017,
      "Ġìķ¡": 3018,
      "ë©¸": 3019,
      "ê¿": 3020,
      "ĠëªħìĿĺ": 3021,
      "ìĤ¬ëŀĮ": 3022,
      "Ġìĭ¤íĹĺ": 3023,
      "Ġëª¨ìĬµìĿĦ": 3024,
      "ìĿ´ì§Ģë§Į": 3025,
      "ĠìĤ¬ìļ©íķĺëĬĶ": 3026,
      "ĠëłĪì½Ķ": 3027,
      "ĠìĿ´ë¦Ħìľ¼ë¡ľ": 3028,
      "ë¡ľìĿĺ": 3029,
      "Ġê³µíĻĶêµŃ": 3030,
      "ì¹´ìĻĢ": 3031,
      "Ġìłķê·ľ": 3032,
      "Ġì¤ĳìļĶ": 3033,
      "Ġê±°ëĳĲ": 3034,
      "Ġë§¨": 3035,
      "Ġê²½íĹĺ": 3036,
      "ĠìĿµ": 3037,
      "ì¹ĺê³ł": 3038,
      "ëĲĺê¸°": 3039,
      "ë§İìĿĢ": 3040,
      "ê³ĦìĹĲ": 3041,
      "Ġêµ¬ë¶Ħ": 3042,
      "ĠìĿ´ëĵ¤ìĿĢ": 3043,
      "êµŃê°Ģ": 3044,
      "ë¡±": 3045,
      "ĠìłľìķĪ": 3046,
      "ĠìĦ±ìŀ¥": 3047,
      "ĠëĤ¨ìŀĲ": 3048,
      "197": 3049,
      "ĠìķĦìĭľìķĦ": 3050,
      "ìĽłëĭ¤": 3051,
      "ê³¼ìĹĲ": 3052,
      "ê¸ĪìĿĦ": 3053,
      "íķĳ": 3054,
      "ìĿ¼ìĿĺ": 3055,
      "ĠêµŃë¦½": 3056,
      "ĠíķĺëĤĺë¡ľ": 3057,
      "ëĿ¼ìĿ¸": 3058,
      "ĠëģĮ": 3059,
      "ĠìŀĲì£¼": 3060,
      "ĠêµŃíļĮìĿĺ": 3061,
      "ìĹŃìĿĦ": 3062,
      "ìłĦìĿ´": 3063,
      "Ġë§¡ìķĺëĭ¤": 3064,
      "Ġê·¸ëĵ¤ìĿĢ": 3065,
      "íķĺìĿ´": 3066,
      "Ġãħłãħł": 3067,
      "ëĮĢíļĮ": 3068,
      "Ġì£¼ë¯¼": 3069,
      "íķµ": 3070,
      "ì§ĢëıĦ": 3071,
      "Ġë¶Ħë¦¬": 3072,
      "ĠìĹ¬íĸī": 3073,
      "ìĹĪìľ¼ë©°": 3074,
      "ê³¨ìĿĦ": 3075,
      "Ġì¡°ìķ½": 3076,
      "ĠëĵľëŁ¬": 3077,
      "ĠìĨĮë¹Ħ": 3078,
      "ê²łëĭ¤": 3079,
      "ĠëĤĺë¨¸": 3080,
      "Ġíı´ëŀĢëĵľ": 3081,
      "ĠìĪĺì¤Ģ": 3082,
      "ĠìłķíĻķ": 3083,
      "ĠìĤ¬ìĥģ": 3084,
      "ìĤ¬ì¹´": 3085,
      "ìĽĶë¶ĢíĦ°": 3086,
      "íģ¬ëĿ¼": 3087,
      "ĠëĤĺìĺ¨": 3088,
      "ëĭ¨ìĹĲ": 3089,
      "ìĭĿìĿĺ": 3090,
      "ĠíĨµê³¼": 3091,
      "Ġìłķëĭ¹": 3092,
      "ĠìłľíĴĪ": 3093,
      "ĠìĻĦìłĦíŀĪ": 3094,
      "ìķĦê°Ģ": 3095,
      "ì£ł": 3096,
      "Ġ189": 3097,
      "ìĭľì½Ķ": 3098,
      "ìĿ´ëŀĢ": 3099,
      "ĠíĿ¥": 3100,
      "ĠìĺĪë¥¼": 3101,
      "Ġë©Ģ": 3102,
      "ìĨĶ": 3103,
      "ë¬¸ìĿĺ": 3104,
      "Ġë§ĪìĿ´": 3105,
      "Ġìĵ´": 3106,
      "Ġì°¬": 3107,
      "ĠíĶĦë¡ľìłĿ": 3108,
      "Ġê¹¨": 3109,
      "ĠìĿĺë¯¸íķľëĭ¤": 3110,
      "ìĿ¼ìĿĢ": 3111,
      "íĴĢ": 3112,
      "ĠìŀĲì¹ĺ": 3113,
      "Ġë°©ë¬¸": 3114,
      "ĠìĿĢíĩ´": 3115,
      "êµŃìĿĢ": 3116,
      "Ġì¤ĳìĹĲ": 3117,
      "Ġë¶Ģë¥´": 3118,
      "ë¡ľë¥¼": 3119,
      "Ġìłľì¡°": 3120,
      "ìĽĶìĹĲëĬĶ": 3121,
      "ĠìľĪ": 3122,
      "íķĺëĤĺ": 3123,
      "Ġíľĺ": 3124,
      "ìĹī": 3125,
      "ìķĦìĿĺ": 3126,
      "ĠìĦľìļ¸íĬ¹ë³Ħ": 3127,
      "ĠìĦľìĭĿ": 3128,
      "ĠíķĺëĤĺìĿĺ": 3129,
      "ëĵ¤ë¡ľ": 3130,
      "Ġê²ĥìĹĲ": 3131,
      "Ġë¶ģíķľ": 3132,
      "ìĤ°ìĿĦ": 3133,
      "Ġê³µíķŃ": 3134,
      "ëĭ¤ìĿĮ": 3135,
      "ĠìĽ¹": 3136,
      "ë¥´ìĿĺ": 3137,
      "ìľĦìĿĺ": 3138,
      "ëĵľìĹĲ": 3139,
      "ĠìĺģêµŃìĿĺ": 3140,
      "ĠìĹŃìĿĢ": 3141,
      "Ġë§Īë¥´": 3142,
      "ê²½ìĿĦ": 3143,
      "íĺķìĿĦ": 3144,
      "ì§ģìĿĦ": 3145,
      "ê°Ħëĭ¤": 3146,
      "ĠìĬ¤íı¬ì¸ł": 3147,
      "Ġíı¬ë¥´": 3148,
      "ìĹĪëįĺ": 3149,
      "ĠíĻķìŀ¥": 3150,
      "ĠíĹĮë²ķ": 3151,
      "Ġê°ķíĻĶ": 3152,
      "ì°į": 3153,
      "ĠëĦ¤ëįľëŀĢëĵľ": 3154,
      "ìķĹ": 3155,
      "Ġê¸°ìĹ¬": 3156,
      "ë¶Ģë¡ľ": 3157,
      "ĠìĹ¬ê²¨": 3158,
      "êµ¬ê°Ģ": 3159,
      "Ġë¹Ħíĸī": 3160,
      "ê²Ł": 3161,
      "ĠìĦłìĪĺìĿ´ëĭ¤": 3162,
      "ì£¼ë¥¼": 3163,
      "ìĺģíĻĶ": 3164,
      "ìĹ½": 3165,
      "Ġë°ľëĭ¬": 3166,
      "ĠìĤ¬ëŀĮëĵ¤ìĿ´": 3167,
      "Ġì¡°ì§Ģ": 3168,
      "êµĲíļĮ": 3169,
      "Ġê·¸ë¦¼": 3170,
      "ëŀĦ": 3171,
      "ĠìĬ¹ë¦¬": 3172,
      "ĠìĽĢì§ģ": 3173,
      "ĠìĦ¤ê³Ħ": 3174,
      "íĶĦëĬĶ": 3175,
      "ĠìĤ¬ë¬´": 3176,
      "ĠëķĮê¹Įì§Ģ": 3177,
      "ĠìĪł": 3178,
      "ì£¼ë¡ľ": 3179,
      "Ġë¯¸êµŃìĹĲìĦľ": 3180,
      "ìłĲìĿ´": 3181,
      "23": 3182,
      "ìĿ¸ê³¼": 3183,
      "Ġíķĺê³Ħ": 3184,
      "ê°ĲìĿĦ": 3185,
      "íĨ¨ë¦Ń": 3186,
      "ĠëıĦì°©": 3187,
      "ëĶĶìĸ´": 3188,
      "ë¯¼ì£¼ì£¼ìĿĺ": 3189,
      "Ġìĭ¤ìłľ": 3190,
      "ìĿ´íĽĦ": 3191,
      "80": 3192,
      "ãħħ": 3193,
      "ëĥĪ": 3194,
      "Ġë©´ìłģìĿĢ": 3195,
      "ëĤĺê³ł": 3196,
      "Ġìłĳê·¼": 3197,
      "Ġë©¸": 3198,
      "Ġëħ¼ëŀĢ": 3199,
      "Ġê°Ģìł¸": 3200,
      "Ġë¬¼ì§Ī": 3201,
      "ĠìķĦë§Ī": 3202,
      "Ġë¹Ħíķ´": 3203,
      "Ġìī½": 3204,
      "ì§ĢìĹĲìĦľ": 3205,
      "ĠëĦĲë¦¬": 3206,
      "ĠìĻ¸êµŃ": 3207,
      "Ġëįķ": 3208,
      "Ġìĸ¸ë¡ł": 3209,
      "ĠìĿĮë°ĺìĿ´ëĭ¤": 3210,
      "ĠìķĦë¬´": 3211,
      "íĻĢ": 3212,
      "Ġëĭ¨ì²´": 3213,
      "Ġë©ĶìĿ´": 3214,
      "ĠìĨĮíĶĦíĬ¸": 3215,
      "ëĭ¥": 3216,
      "Ġì§Ģì§Ħ": 3217,
      "ĠìĮį": 3218,
      "ìľĦê°Ģ": 3219,
      "Ġëª»íĸĪëĭ¤": 3220,
      "ëıĦìĻĢ": 3221,
      "ë·°": 3222,
      "ëĵ¬íķ´": 3223,
      "Ġëĵ¤ìĸ´ê°Ģ": 3224,
      "ëŀŃ": 3225,
      "Ġë²łíĬ¸ëĤ¨": 3226,
      "ĠìĦ¸ìĽĮ": 3227,
      "Ġë³µê·Ģ": 3228,
      "ì£¼ìĭľ": 3229,
      "ĠíĺĪ": 3230,
      "ì°¬ê°Ģì§Ģ": 3231,
      "ĠìļĶì²Ń": 3232,
      "ìķĦìĭľìķĦ": 3233,
      "ìĦłìĪĺ": 3234,
      "ì©": 3235,
      "Ġê³łëĮĢ": 3236,
      "ìĤ¬ìĿ´": 3237,
      "Ġì´": 3238,
      "Ġ1999": 3239,
      "ìľ¼ë¯Ģë¡ľ": 3240,
      "ĠìĦłìĪĺë¡ľ": 3241,
      "ëħķ": 3242,
      "ìľĦëĬĶ": 3243,
      "ìĹĨìĿ´": 3244,
      "ìĦłìĹĲ": 3245,
      "ìĸ´ìķ¼": 3246,
      "ë°°ìļ°": 3247,
      "íķĺìĿĺ": 3248,
      "ĠìĺģíĨł": 3249,
      "Ġëį´": 3250,
      "Ġìĺ¤ëĬĺëĤł": 3251,
      "Ġ60": 3252,
      "ĠìŀĪëıĦë¡Ŀ": 3253,
      "Ġê¿": 3254,
      "Ġê·¼ì²ĺ": 3255,
      "ìĤ¬ìĹħ": 3256,
      "ìŀ¥ê³¼": 3257,
      "ĠìķĦíĶĦë¦¬ì¹´": 3258,
      "ĠìĿ¸ì²ľ": 3259,
      "ê°ĢìĿĺ": 3260,
      "ê·ľëª¨": 3261,
      "ëħĦê°Ħ": 3262,
      "Ġìĸ¼ë§Ī": 3263,
      "ĠìľłìłĦ": 3264,
      "ë¬¼ìĿĺ": 3265,
      "Ġì°¨ë¡Ģ": 3266,
      "ĠìľĦìĹĲ": 3267,
      "ëĭ¤ë¥¸": 3268,
      "Ġìļ°ìĬ¹ìĿĦ": 3269,
      "Ġê´´": 3270,
      "ê´Ģìľ¼ë¡ľ": 3271,
      "ĠìĨĮìŀ¬": 3272,
      "Ġì§§": 3273,
      "ĠìĪĺìļ©": 3274,
      "ì§Ģê²Į": 3275,
      "ìļĶìĿ¼": 3276,
      "ê°Ģë¥¼": 3277,
      "ĠíĮĮê´´": 3278,
      "ìĨĮëħĦ": 3279,
      "ĠíĹ¬": 3280,
      "ëķ": 3281,
      "ìĭłìĿĦ": 3282,
      "Ġëĭ¬ëŁ¬": 3283,
      "ĠìĿĺíķĺìĹ¬": 3284,
      "Ġìľ¡êµ°": 3285,
      "ìľĪ": 3286,
      "ĠìĿ´ê³³": 3287,
      "Ġê°ľíĺģ": 3288,
      "ë¿Ĳ": 3289,
      "Ġì£¼ìĿĺ": 3290,
      "ĠëĤĺëī": 3291,
      "ãĦ´": 3292,
      "Ġ1980": 3293,
      "ë¦ŃíĦ°": 3294,
      "Ġë¶Īë¦¬": 3295,
      "êº¼": 3296,
      "ĠìłķëıĦë¡ľ": 3297,
      "íĭ¸": 3298,
      "ë¦¿": 3299,
      "Ġê²½ìŁģ": 3300,
      "Ġíİĺë¥´": 3301,
      "ìĦłìĿĢ": 3302,
      "ê±": 3303,
      "ìĦľìļ¸": 3304,
      "ĠëĤ´ê°Ģ": 3305,
      "ìĽ¨ìĸ´": 3306,
      "ìĽĮíģ¬": 3307,
      "Ġíİ¼": 3308,
      "Ġ1998": 3309,
      "ëĵĢ": 3310,
      "ëĲĲ": 3311,
      "ì²łëıĦ": 3312,
      "ë®¤": 3313,
      "Ġë¶ĢìĹ¬": 3314,
      "ĠíĴĪ": 3315,
      "Ġê·¸ëłĩ": 3316,
      "ĠëŁ°ëįĺ": 3317,
      "íĺķìĿĺ": 3318,
      "ì£½": 3319,
      "Ġë°°ì¹ĺ": 3320,
      "Ġì´ī": 3321,
      "Ġê°ĸê³ł": 3322,
      "Ġì¶Ķì§Ħ": 3323,
      "Ġë§Īì°¬ê°Ģì§Ģ": 3324,
      "Ġì¤Ģë¹Ħ": 3325,
      "ĠíķĢ": 3326,
      "ĠìķĮê³ł": 3327,
      "ĠìĹ°ê¸°": 3328,
      "ëį¤": 3329,
      "ĠìĬ¤íĬ¸": 3330,
      "Ġë¨¼ìłĢ": 3331,
      "ìĿ´ê¸°": 3332,
      "ëĦ¤ìļĶ": 3333,
      "ê¸°ìĪł": 3334,
      "íļĮìĤ¬": 3335,
      "ĠíĺĦìŀ¬ëĬĶ": 3336,
      "Ġë°Ķíĥķ": 3337,
      "Ġìŀĳìļ©": 3338,
      "ìĹĪëĬĶëį°": 3339,
      "2010": 3340,
      "Ġíķ´ìĦĿ": 3341,
      "íķĺëĿ¼": 3342,
      "Ġë¹Ħë¡¯íķľ": 3343,
      "24": 3344,
      "Ġíģ¬ë¦¬ìĬ¤": 3345,
      "Ġíķ´ê²°": 3346,
      "ë¶Īìĸ´": 3347,
      "Ġê±": 3348,
      "ìĽ¨ìĿ´": 3349,
      "Ġì§ĢëĤľ": 3350,
      "ìĽ¨ëį´": 3351,
      "ĠìĤ¬ëĿ¼": 3352,
      "Ġê½ĥ": 3353,
      "Ġëĵ±ê³¼": 3354,
      "Ġë³´ëĭ¤": 3355,
      "ĠìķĬìķĦ": 3356,
      "Ġê¸°ë¡ĿíĸĪëĭ¤": 3357,
      "ĠíĬ¹ìłķ": 3358,
      "ìĦ¼íĦ°": 3359,
      "Ġìľłëªħíķľ": 3360,
      "ì§Ģê¸Ī": 3361,
      "ìĦ¸ê³Ħ": 3362,
      "ĠìĬ¤ìĬ¤ë¡ľ": 3363,
      "ëıĻìĿĦ": 3364,
      "Ġìª½": 3365,
      "Ġë¹Ľ": 3366,
      "ëĿ¼ìļ°": 3367,
      "ëĵ¤ìĸ´": 3368,
      "ĠíĢ": 3369,
      "ĠìĭĿë¯¼": 3370,
      "ëĨĢ": 3371,
      "ĠíķĺìĿ´": 3372,
      "ĠìļĶìĭľ": 3373,
      "ĠëĶĶìŀĲìĿ¸": 3374,
      "ĠìłĦíķ´": 3375,
      "ìĿ¸ê³µ": 3376,
      "íĪ": 3377,
      "Ġê³µë¦½": 3378,
      "íĻĶêµŃìĿĺ": 3379,
      "ìĭľë¥¼": 3380,
      "Ġì§ĢìĹŃìĹĲìĦľ": 3381,
      "ë¶ĢìĹĲìĦľ": 3382,
      "ĠìĦłìĪĺê¶Į": 3383,
      "ìĦłìĿ´": 3384,
      "Ġê·¸ëĮĢë¡ľ": 3385,
      "Ġë°ĶëĢĮ": 3386,
      "ĠìĬµ": 3387,
      "ìĭľê°Ģ": 3388,
      "ìĿ¸íĬ¸": 3389,
      "ìĦ¸ìļĶ": 3390,
      "ì¡°ëĬĶ": 3391,
      "ìŀĲìĹĲ": 3392,
      "Ġê³łëĵ±íķĻêµĲ": 3393,
      "ĠëĮĢêµ¬": 3394,
      "ë¦¬ìķĦìĿĺ": 3395,
      "Ġë¡Ŀ": 3396,
      "ëĶĶìķĦ": 3397,
      "ë°Ľìķĺëĭ¤": 3398,
      "Ġì°¸ìĹ¬íķĺìĺĢëĭ¤": 3399,
      "Ġìĺ¤ë¥¸": 3400,
      "Ġê³¼ìłķìĹĲìĦľ": 3401,
      "íĥĢìĿ´": 3402,
      "Ġë°ĿíĺĢ": 3403,
      "Ġíķĺë£¨": 3404,
      "ĠíĮ¨ë°°": 3405,
      "ê·¸ëŁ¼": 3406,
      "íķĺëĭ¤ê°Ģ": 3407,
      "Ġê°ĢëĬĶ": 3408,
      "Ġê°Ģë¥´": 3409,
      "ì»¨": 3410,
      "ĠìĿ´ëĵ¬íķ´": 3411,
      "ĠíĶĦëŀĳìĬ¤ìĿĺ": 3412,
      "Ġì§Ģìĥģ": 3413,
      "Ġë°´ëĵľ": 3414,
      "ĠìĿ¸íĦ°ëĦ·": 3415,
      "ĠìĿ´ë¡ľ": 3416,
      "Ġë¶Ħíı¬": 3417,
      "íĶĪ": 3418,
      "ĠìłľêµŃìĿĺ": 3419,
      "ĠìĥĿìĦ±": 3420,
      "íĹĲ": 3421,
      "ìĿ¸ì§Ģ": 3422,
      "êµ°ê³¼": 3423,
      "Ġê°ķëł¥": 3424,
      "íĬ¸ìĹĲìĦľ": 3425,
      "ĠìĹ¬ë¦Ħ": 3426,
      "ĠìĿ´ìķ¼ê¸°": 3427,
      "íķľíħĮ": 3428,
      "ĠìĤ¶": 3429,
      "ĠìĦľìļ¸íĬ¹ë³Ħìĭľ": 3430,
      "ãħłãħłãħłãħł": 3431,
      "Ġì£¼ìĹ°ìľ¼ë¡ľ": 3432,
      "ķìĭľì½Ķ": 3433,
      "ëĦĺ": 3434,
      "ëŀį": 3435,
      "ĠëįĶë¶Īìĸ´": 3436,
      "Ġê¸°ì´Ī": 3437,
      "ì´ī": 3438,
      "ìłķë³´": 3439,
      "Ġì¤ĳê°Ħ": 3440,
      "ĠëıħìĿ¼ìĿĺ": 3441,
      "êµŃìĿ´": 3442,
      "ëĶĺ": 3443,
      "ĠìĬ¤íĬľ": 3444,
      "Ġê±°ë¶Ģ": 3445,
      "ëł¥ìĿĢ": 3446,
      "ëŁŃ": 3447,
      "ĺë¦¬": 3448,
      "ĠìŀĲëıĻì°¨": 3449,
      "ëĲĺìĹĪìľ¼ëĤĺ": 3450,
      "ë§Īíģ¬": 3451,
      "Ġê²ĥìĿ´ìĹĪëĭ¤": 3452,
      "Ġëĭ¤ë¥´": 3453,
      "ĠìĤ´ìķĦ": 3454,
      "ĠìľĦíĹĺ": 3455,
      "ĠìºĲë¦ŃíĦ°": 3456,
      "ìľłëŁ½": 3457,
      "Ġ1997": 3458,
      "ìĺ¤ì¹´": 3459,
      "ë¹Ļ": 3460,
      "ìĿ¸ê°Ģ": 3461,
      "ìĹŃìĿĢ": 3462,
      "Ġ70": 3463,
      "ëĭĲ": 3464,
      "Ġë§İëĭ¤": 3465,
      "Ġëĭ¨ìĪľ": 3466,
      "ëŁīìĿ´": 3467,
      "ìĭľë¡ľ": 3468,
      "Ġê²½ìļ°ê°Ģ": 3469,
      "Ġë²ķë¥ł": 3470,
      "ëĲĺê¸°ëıĦ": 3471,
      "ĠìĻ¸êµĲ": 3472,
      "Ġ2021": 3473,
      "ĠêµĲìĪĺ": 3474,
      "ĠëĿ¼ëĬĶ": 3475,
      "Ġêµ¬ìĦ±ëĲĺìĸ´": 3476,
      "ê³łë¥¼": 3477,
      "Ġì¡´ìŀ¬íķľëĭ¤": 3478,
      "ê³¼íķĻ": 3479,
      "ĠíıĲì§Ģ": 3480,
      "ê±°ìķ¼": 3481,
      "ĠìĤ¬ìļ©ëĲľëĭ¤": 3482,
      "ê²½ìłľ": 3483,
      "ìĸ´ëıĦ": 3484,
      "ë¶ĢìĻĢ": 3485,
      "íĸĪëĭ¤ëĬĶ": 3486,
      "Ġìĥģíĺ¸": 3487,
      "ë§ĮìĿĺ": 3488,
      "ĠìĬĪíį¼": 3489,
      "ì¡Įê³ł": 3490,
      "íļĮê°Ģ": 3491,
      "ìĸ´ì§Ħëĭ¤": 3492,
      "ì§ĵ": 3493,
      "íķĺê¸°ë¡ľ": 3494,
      "êµĲìĿĺ": 3495,
      "ëĺĲíķľ": 3496,
      "ìĦ±ìľ¼ë¡ľ": 3497,
      "Ġê°ĢíĨ¨ë¦Ń": 3498,
      "ĠíĪ¬íĳľ": 3499,
      "Ġê¸°ìĽĲìłĦ": 3500,
      "ĠìĭľíĹĺ": 3501,
      "Ġ1995": 3502,
      "êµ¬ëĤĺ": 3503,
      "Ġë¸ĮëĿ¼ì§Ī": 3504,
      "ĠëĮ": 3505,
      "Ġ1996": 3506,
      "Ġê²ª": 3507,
      "Ġê´Ģì¸¡": 3508,
      "ìķĪìĿĦ": 3509,
      "ĠìĿ´ëĵ¤": 3510,
      "Ġìĭľíĸī": 3511,
      "ëĩĮ": 3512,
      "ìĤ¬ìĹĲìĦľ": 3513,
      "Ġë¹ĦìĬ·íķľ": 3514,
      "ìĿ´ìĻĢ": 3515,
      "Ġë¶Īë¦¬ëĬĶ": 3516,
      "ë¡ľê°Ģ": 3517,
      "ë¸": 3518,
      "Ġì£": 3519,
      "ìŀĲìĿ´ëĭ¤": 3520,
      "Ġë¶Ģìłķ": 3521,
      "ì§ĢíĦ¸": 3522,
      "ĠíĨµì¹ĺ": 3523,
      "íĭ°ìķĦ": 3524,
      "ĠìŀĪìĹĪê³ł": 3525,
      "Ġì£¼ëıĦ": 3526,
      "ìĮ": 3527,
      "ê·¸ëŁ¬ëĤĺ": 3528,
      "194": 3529,
      "ĠìķĦìĭľ": 3530,
      "ĠìĿ´ìłľ": 3531,
      "ìĨįëıĦë¡ľ": 3532,
      "Ġê°ĢëĬ¥íķĺëĭ¤": 3533,
      "Ġì´ĪëĮĢ": 3534,
      "Ġë°Ķê¾¸": 3535,
      "70": 3536,
      "ë¦¬ìĹĲìĦľ": 3537,
      "ĠíĮĢìĿĺ": 3538,
      "Įë¦¬ìĹĦ": 3539,
      "ĠìĤ¬ìļ©íķľëĭ¤": 3540,
      "Ġë°ĺëŀĢ": 3541,
      "ĠìĿ´ë²Ī": 3542,
      "íıīìĸĳ": 3543,
      "ìľ¼ë©´ìĦľ": 3544,
      "ĠìĿ¼ìĸ´ëĤĺ": 3545,
      "ĠìĭľëıĦ": 3546,
      "ĠëıĻë§¹": 3547,
      "¬ìĺģ": 3548,
      "Ġìĭľê¸°": 3549,
      "Ġë¹ĦëĶĶìĺ¤": 3550,
      "íĸīìłķ": 3551,
      "Ġì´Īëĵ±íķĻêµĲ": 3552,
      "ì§Ģìħĺ": 3553,
      "Ġì¹ł": 3554,
      "ìĸ´ëĤĺ": 3555,
      "ĠëĤĺë¨¸ì§Ģ": 3556,
      "ĠìķĬëĭ¤": 3557,
      "Ġìºł": 3558,
      "Ġëª¬": 3559,
      "ìĪĺíķľ": 3560,
      "ĠëĤĺëĬĶ": 3561,
      "ë¡ľë¡ľ": 3562,
      "ĠìłĦìŀĲ": 3563,
      "Ġê·¸ëŀĺìĦľ": 3564,
      "ëŁīìĿĦ": 3565,
      "ëĳĲê³ł": 3566,
      "ìŀł": 3567,
      "ĠìĬ¤ìĽ¨ëį´": 3568,
      "íĻĶëĲľ": 3569,
      "íĻĶìĿĺ": 3570,
      "ĠìĿ´ëłĩê²Į": 3571,
      "Ġëª©ìłģìľ¼ë¡ľ": 3572,
      "ĠìĪĺë§İìĿĢ": 3573,
      "ë¶Ļ": 3574,
      "íĸĩ": 3575,
      "ë¡¬": 3576,
      "ĠíĻ©ìłľ": 3577,
      "ĠìĿĺìĽĲ": 3578,
      "Ġê²ĥê³¼": 3579,
      "ìłĦíŀĪ": 3580,
      "Ġë§ĮìĹĲ": 3581,
      "ĠìķĮëłī": 3582,
      "Ġê·¸ëħĢìĿĺ": 3583,
      "ëĤ¼": 3584,
      "ĠìĬ¤ìľĦìĬ¤": 3585,
      "ĠíĽĪëł¨": 3586,
      "ë²ĦíĬ¸": 3587,
      "ìĨĮìĹĲ": 3588,
      "Ġê²°ìĦ±": 3589,
      "íı¼": 3590,
      "Ġì§Ģíķĺì²ł": 3591,
      "Ġìłľìĭľ": 3592,
      "2014": 3593,
      "Ġì§ĢëĥĪëĭ¤": 3594,
      "ë§ĮìĹĲ": 3595,
      "ĠìĿ´ìĤ¬": 3596,
      "Ġ1970": 3597,
      "ĠëķĮëĬĶ": 3598,
      "ĠìĿ´ì£¼": 3599,
      "ĠìĿ´ëĭ¤": 3600,
      "ĠëħĦ": 3601,
      "ĠìĪ¨": 3602,
      "ĠìĥģëĮĢë¡ľ": 3603,
      "Ġì¤ĳëĭ¨": 3604,
      "ì¢ħìĿ´ëĭ¤": 3605,
      "ë¬¼ìĿ´": 3606,
      "ìĥĿíĻľ": 3607,
      "ì°®": 3608,
      "ĠíĨµìĿ¼": 3609,
      "Ġìĸµ": 3610,
      "ìĹħìĿĦ": 3611,
      "ëħģ": 3612,
      "ìĿ¸ëĵ¤ìĿ´": 3613,
      "ĠìĿ´ìĻ¸": 3614,
      "íķ¨ìĿĦ": 3615,
      "ì¢Ģ": 3616,
      "Ġì§ĢìĹŃìĿĦ": 3617,
      "ë¹ĦëĬĶ": 3618,
      "Ġëĵ±ë¡Ŀ": 3619,
      "ĠìŀĪì§Ģ": 3620,
      "ëĤĺìĿĺ": 3621,
      "ĠíĻľìļ©": 3622,
      "ìĤ¬ê±´": 3623,
      "ëħĦìĿĦ": 3624,
      "Ġë°ľíĸī": 3625,
      "Ġìĥģì§ķ": 3626,
      "ĠìĦ¼íĦ°": 3627,
      "Ġìĺ¤ë¸Į": 3628,
      "ĠíĿ¡": 3629,
      "Ġì²´íı¬": 3630,
      "Ġì§ĳíķ©": 3631,
      "Ġê²½ìĺģ": 3632,
      "ëĿ¼ëıĦ": 3633,
      "Ġê·¸ë¦°": 3634,
      "ĠìĭŃ": 3635,
      "ëıĦìļ°": 3636,
      "ĠíĮĮê²¬": 3637,
      "ëĮĢìĻĢ": 3638,
      "ĠëĶ°ë¥¸": 3639,
      "íķĺìĺĢëĬĶëį°": 3640,
      "ĠìĿ¼ìĿĦ": 3641,
      "ĠìĹĨìĸ´": 3642,
      "Ġì¡°ê°ģ": 3643,
      "»ê²Į": 3644,
      "Ġê³µìŀĳ": 3645,
      "ê³łìĭ¶": 3646,
      "Ġë¬ĺìĤ¬": 3647,
      "Ġê¾¸": 3648,
      "Ġìī¬": 3649,
      "2008": 3650,
      "ĠëĮĢìĿĳ": 3651,
      "ĠìŀĪìľ¼ëĤĺ": 3652,
      "ìĻķìĿĺ": 3653,
      "íĬ¸ìĹĲ": 3654,
      "ë¯¸êµŃ": 3655,
      "íķĻìĥĿ": 3656,
      "íģ¬ëĬĶ": 3657,
      "Ġê°ķìĽĲ": 3658,
      "ìķĺê³ł": 3659,
      "Ġë¶ķ": 3660,
      "Ġíı°": 3661,
      "ìĹ°íķ©": 3662,
      "Ġê·¼ê±°": 3663,
      "Ġê°ĢëĬ¥íķľ": 3664,
      "ĠìĬ¤íħĮ": 3665,
      "ëĭ¤ìĿ´": 3666,
      "Ġë§Īì°¬ê°Ģì§Ģë¡ľ": 3667,
      "ĠìĿĺíķĺë©´": 3668,
      "ë¯¸íĦ°": 3669,
      "2011": 3670,
      "ĠíļĮìĿĺ": 3671,
      "ĠëĤ³": 3672,
      "ĠìĤ¬ìļ©íķł": 3673,
      "ìŀĳìļ©": 3674,
      "Ġë°Ķëĭ¤": 3675,
      "Ġê´Ģëł¨ëĲľ": 3676,
      "ê·¸ëŀĺìĦľ": 3677,
      "Ġìĺģìĸ´": 3678,
      "íĶ¼ìķĦ": 3679,
      "Ġì²ĺë¦¬": 3680,
      "ĠëģĿìĹĲ": 3681,
      "ĠìĻĶëĭ¤": 3682,
      "Ġê¶¤": 3683,
      "ì¹ĺìĿĺ": 3684,
      "íĺĦìŀ¬": 3685,
      "ĠíĶĦëłĪ": 3686,
      "ĠëĮĢìĤ¬": 3687,
      "ĠëıĻìĥĿ": 3688,
      "Ġíĺķíĥľë¡ľ": 3689,
      "ê±°ê°Ļ": 3690,
      "Ġë¿": 3691,
      "ê³µíķŃ": 3692,
      "ĠìĿ½": 3693,
      "ãħĭãħĭãħĭãħĭãħĭãħĭãħĭãħĭãħĭ": 3694,
      "Ġ80": 3695,
      "Ġì¢ħë¥ĺ": 3696,
      "ĠìķĦì¹´": 3697,
      "ìłĦìŁģ": 3698,
      "ì¡°ë¥¼": 3699,
      "ìĺĢìľ¼ë©°": 3700,
      "Ġëĵ£": 3701,
      "ëį°ìĿ´": 3702,
      "ë°ĸìĹĲ": 3703,
      "ĠëĤ¨ìª½": 3704,
      "Ġ1994": 3705,
      "ê·¸ëŁ°": 3706,
      "ĲìĿĺ": 3707,
      "ë©´ìĿĦ": 3708,
      "2016": 3709,
      "Ġë³´ìľł": 3710,
      "ĠëĤĺë¬´": 3711,
      "ĠëĿ¼ëĶĶìĺ¤": 3712,
      "Ġë¶ģìª½": 3713,
      "ê°Ģë¡ľ": 3714,
      "ĠíķĦë¦¬": 3715,
      "ì¤ĺ": 3716,
      "êµŃìłľ": 3717,
      "Ġíķľë²Ī": 3718,
      "ĠìĦ±ë¦½": 3719,
      "ëĭĪìĬ¤": 3720,
      "Ġê°ĲìĨĮ": 3721,
      "ë¹Ħê°Ģ": 3722,
      "2018": 3723,
      "ë¬¸ìĿ´": 3724,
      "Ġì¦Ĳ": 3725,
      "ëĭ¹ìĿ´": 3726,
      "ĠëĩĮ": 3727,
      "196": 3728,
      "ìłĲìľ¼ë¡ľ": 3729,
      "Ġê°Ģìłķ": 3730,
      "ĠìŀĪê¸°": 3731,
      "ĠìĹ°ê·¹": 3732,
      "ì²´ë¡ľ": 3733,
      "ì¼ĢìĿ´": 3734,
      "ìĬ´": 3735,
      "Ġìŀ¬íĮĲ": 3736,
      "ëĦĪë¬´": 3737,
      "ë¦¬ìĬ¤íĬ¸": 3738,
      "ì°Į": 3739,
      "Ġê²ĥëıĦ": 3740,
      "Ġë¹¼": 3741,
      "ëŁ¬ìļ´": 3742,
      "Ġì²´ê²°": 3743,
      "ìŀĸ": 3744,
      "ĠìķĪìłķ": 3745,
      "ĠìĦľë¹ĦìĬ¤": 3746,
      "ëŁīìĿĢ": 3747,
      "Ġë°©ìĸ´": 3748,
      "ĠìĨĮê°ľ": 3749,
      "ĠëĬĲëĤ": 3750,
      "Ġê°ĦìĿĺ": 3751,
      "ĠíĻĢ": 3752,
      "ìĺĢê³ł": 3753,
      "Ġê³¤": 3754,
      "ëĳĺ": 3755,
      "ĠìľłëĭĪ": 3756,
      "ì£¼ê³ł": 3757,
      "ë¶ķ": 3758,
      "ĠìĹĦì²Ń": 3759,
      "Ġë²½": 3760,
      "Ġì£¼ëĬĶ": 3761,
      "Ŀê°Ģ": 3762,
      "ĠìķĻ": 3763,
      "Ġëĭ¬ìĦ±": 3764,
      "Ġê°ľíĨµ": 3765,
      "íĶĦë¦¬": 3766,
      "ì»·": 3767,
      "ìŀĦìĬ¤": 3768,
      "Ġìłķë¶ĢëĬĶ": 3769,
      "ìĦľë¡ľ": 3770,
      "ĠìĿ´ë¦ĦìĿ´": 3771,
      "Ġì§ģíĽĦ": 3772,
      "ê½ĥ": 3773,
      "ëĤ´ê³ł": 3774,
      "2012": 3775,
      "Ġê·Ģì¡±": 3776,
      "íĬ¸ìĽĮíģ¬": 3777,
      "ì¹ĺë¡ľ": 3778,
      "ìĹ¬ìŀĲ": 3779,
      "Ġëħ¸ë¥´": 3780,
      "ìĽĮëĵľ": 3781,
      "Ġëª»íķľ": 3782,
      "Ġê¸Īì§Ģ": 3783,
      "Ġìłľì£¼": 3784,
      "ĠìĭľìŀĳíķĺìĺĢëĭ¤": 3785,
      "Ġë¬¸íķĻ": 3786,
      "ĠìľĦíķ´ìĦľ": 3787,
      "íļĮìĹĲ": 3788,
      "íļĮìĹĲìĦľ": 3789,
      "Ġëħ¹ìĿĮ": 3790,
      "Ġê·ľìłķ": 3791,
      "ĠìķĦìĿ¼ëŀľëĵľ": 3792,
      "ĠìľłìĿ¼íķľ": 3793,
      "Ġì¤ĳìĹĲìĦľ": 3794,
      "ê´Ģë¦¬": 3795,
      "ë¸Ĳ": 3796,
      "Ġìłķì°©": 3797,
      "Ġë°Ķë¥´": 3798,
      "Ġê°Ĵ": 3799,
      "Ġë°ĸ": 3800,
      "Ġíķ©ë¥ĺ": 3801,
      "Ġíķ´ìĻ¸": 3802,
      "ë¶ĦìĹĲ": 3803,
      "Ġë³´ì¡´": 3804,
      "Ġì¢ħë£Į": 3805,
      "ìĭłìĿĺ": 3806,
      "Ġëħ¸ëł¥": 3807,
      "ĠëĤ´ê°ģ": 3808,
      "ĠëĤĺì¤ĳìĹĲ": 3809,
      "íĶĮëłĪìĿ´": 3810,
      "íı¬ë¥´": 3811,
      "Ġë®¤ì§ģ": 3812,
      "Ġë²ĪìĹŃ": 3813,
      "Ġëĭ¤ë£¨": 3814,
      "ì¤Ģëĭ¤": 3815,
      "ê³Ħê°Ģ": 3816,
      "ê´ĢìĿĺ": 3817,
      "ĠìľłëĮĢ": 3818,
      "íĶĦëŀĳ": 3819,
      "ìĸĢ": 3820,
      "Ġë§ĪìĿ´íģ¬": 3821,
      "Ġìłľê¸°": 3822,
      "Ġìį¼": 3823,
      "Ġë¹ħ": 3824,
      "Ġì¶ľìĥĿ": 3825,
      "Ġì§Ģìłģ": 3826,
      "ĠìłĦëĭ¬": 3827,
      "ĠìĹ¬ê°Ŀ": 3828,
      "ĠìĤ´íķ´": 3829,
      "ìĤ°ìĿĺ": 3830,
      "Ġê³ĦìĹ´": 3831,
      "ĠìĤ¬ëŀĮìĿĢ": 3832,
      "ìĿĢíĸī": 3833,
      "ĠìŀĦìĭľ": 3834,
      "ë¡Ńê²Į": 3835,
      "ë§ŀìķĦ": 3836,
      "ĠìĻĦìĦ±": 3837,
      "Ġê¼¬": 3838,
      "ĠìłĦíĻĺ": 3839,
      "Ġ1992": 3840,
      "Ġìĺ¤ìĬ¤íĬ¸ëłĪìĿ¼": 3841,
      "Ġìĩ": 3842,
      "ĠìķĮìķĦ": 3843,
      "íĻĶëĬĶ": 3844,
      "ëĭ¨ìľ¼ë¡ľ": 3845,
      "Ġì²ľíĻ©": 3846,
      "Ġëĭ¤ë§Į": 3847,
      "ĠìĺĪìĦł": 3848,
      "Ġíķ´ìķĪ": 3849,
      "ĠíķĦìļĶíķľ": 3850,
      "Ġì´¬ìĺģ": 3851,
      "ĠìķĪìĹĲ": 3852,
      "ëĮĢìłĦ": 3853,
      "ì»´": 3854,
      "Ġ35": 3855,
      "ĠìĮĵ": 3856,
      "ĠëĤ®ìĿĢ": 3857,
      "Ġë²Ĺ": 3858,
      "ĠìĿ´ëŀĺ": 3859,
      "ìħľ": 3860,
      "Ġë°°ê²½": 3861,
      "íģ¬ëĿ¼ìĿ´ëĤĺ": 3862,
      "ê³¼ë¥¼": 3863,
      "ëıĦìĭľ": 3864,
      "ìĿ¼ìĿ´": 3865,
      "ĠìłģìĿ´": 3866,
      "íİł": 3867,
      "Ġë°ĳ": 3868,
      "ì£¼ê°Ģ": 3869,
      "Ġíĺģëªħ": 3870,
      "ë¡łìĿĦ": 3871,
      "Ġëĭ¹ìĦł": 3872,
      "ë³´ëĬĶ": 3873,
      "ĠìĺĨ": 3874,
      "íĶĦê°Ģ": 3875,
      "Ġê²¨ìļ¸": 3876,
      "Ġë¯¸ìĤ¬": 3877,
      "ĠíŀĪë¡ľ": 3878,
      "Ġìłķë¦¬": 3879,
      "Ġëª»íķĺê³ł": 3880,
      "Ġë¶Ģë¥¸ëĭ¤": 3881,
      "Ġëĸ¨ìĸ´ì§Ħ": 3882,
      "ë§ĪìĿ´": 3883,
      "2017": 3884,
      "ëĭĪê°Ģ": 3885,
      "Ġëªĩëªĩ": 3886,
      "2015": 3887,
      "êµĲíĨµ": 3888,
      "Ġê¸°ìĸµ": 3889,
      "2013": 3890,
      "ì¦ĪìĿĺ": 3891,
      "Ġíģ¬ë¡ľ": 3892,
      "ê³ĦëĬĶ": 3893,
      "Ġì»µ": 3894,
      "ìŀĲëĵ¤ìĿĺ": 3895,
      "ìĬ¬ëŀĮ": 3896,
      "Ġë²¤": 3897,
      "Ġê´Ģê³Ħë¥¼": 3898,
      "ì§Ĳ": 3899,
      "ìĭľíĤ¤ê³ł": 3900,
      "ëĪĪ": 3901,
      "ìŀĲëĤĺ": 3902,
      "íķ´ì¡Įëĭ¤": 3903,
      "29": 3904,
      "Ġìłķì¹ĺìłģ": 3905,
      "Ġë¶Ģëª¨": 3906,
      "ê·¸ë¦¬ê³ł": 3907,
      "2009": 3908,
      "ĦëĬĶ": 3909,
      "Ġê±´ê°ķ": 3910,
      "Ġë§Įëĵ¤ìĹĪëĭ¤": 3911,
      "ĠìĿĺê²¬": 3912,
      "Ġê³ĦìĬ¹": 3913,
      "Ġì·¨ìŀĦ": 3914,
      "Ġê·¼ë¬´": 3915,
      "Ġë©ķìĭľì½Ķ": 3916,
      "ìĦ¸íı¬": 3917,
      "Ġìĺ¤ìĬ¤íĬ¸ë¦¬ìķĦ": 3918,
      "ĠìķĪìłĦ": 3919,
      "Ġìłľê±°": 3920,
      "ëª¨ë¦¬": 3921,
      "ê°ĢìĿ´ëĭ¤": 3922,
      "ê¶ĮìĿĺ": 3923,
      "êµŃìĿĦ": 3924,
      "íķĺìĹĲ": 3925,
      "Ġê°ķíķľ": 3926,
      "ìĸ´ì¡Įëĭ¤": 3927,
      "Ġë³´ìĪĺ": 3928,
      "ê¸°ìĹħ": 3929,
      "ĠëĮĢíĳľìłģìĿ¸": 3930,
      "íĬ¸ëĿ¼": 3931,
      "ë¬¸ìĿĢ": 3932,
      "ĠìĿ¼ìĸ´ëĤľ": 3933,
      "ĠìĹ¬ìłĦíŀĪ": 3934,
      "Ġê´Ģê´ĳ": 3935,
      "ìĿ¸ëĵ¤ìĿĢ": 3936,
      "26": 3937,
      "ìĭľíĤ¨": 3938,
      "ìĽĲê³¼": 3939,
      "Ġì§ĳì¤ĳ": 3940,
      "Ġíĳľìĭľ": 3941,
      "ìĤ°ìĿĢ": 3942,
      "ëŃ": 3943,
      "ĠëĶĶì§ĢíĦ¸": 3944,
      "ê°ľë°ľ": 3945,
      "íķĺëĭ¤ê³ł": 3946,
      "Ġë³´ë©´": 3947,
      "Ġë¬¸ìłľë¥¼": 3948,
      "Ġ1960": 3949,
      "Ġì¢ħíķ©": 3950,
      "Ġê³³ìĹĲ": 3951,
      "ìĽĶê¹Įì§Ģ": 3952,
      "ìĦ¸ìĹĲ": 3953,
      "ĠëĤ¨ë¶Ģ": 3954,
      "Ġê³µê¸ī": 3955,
      "ĠìĤ¬ìĿ´ìĹĲìĦľ": 3956,
      "ë¸Įë¦¬": 3957,
      "Ġë²łë¥´": 3958,
      "ê°Ģê°Ģ": 3959,
      "Ġê²½ê¸°ë¥¼": 3960,
      "ëĵľìĻĢ": 3961,
      "^^": 3962,
      "Ġë§ĲìĿĦ": 3963,
      "ĠëĮĢíķ´ìĦľëĬĶ": 3964,
      "íķľíİ¸": 3965,
      "ĠìĿ¸ìĭĿ": 3966,
      "ìĥģê³¼": 3967,
      "ê´ĢìĹĲ": 3968,
      "ë°Ķë¥´": 3969,
      "ëİ": 3970,
      "ë¡ľìļ´": 3971,
      "ê¸°ê³ł": 3972,
      "Ġë¬¸ìłľê°Ģ": 3973,
      "ëĤĺëĿ¼ìĿĺ": 3974,
      "Ġì£¼ëª©": 3975,
      "ëĭ¹ìĿĦ": 3976,
      "Ġë©ľ": 3977,
      "Ġíı¬ë¥´íĪ¬": 3978,
      "Ġê¹Į": 3979,
      "Ġ1991": 3980,
      "Ġìĺ®ê²¨": 3981,
      "ĠìĬ¹ê°ķìŀ¥": 3982,
      "ĠëĸłëĤĺ": 3983,
      "Ġê°Ģê¹Įìļ´": 3984,
      "Ġì¦īìľĦ": 3985,
      "Ġë¥´": 3986,
      "Ġêµ´": 3987,
      "ìĿ´ëŀĳ": 3988,
      "Ġì¶©ëıĮ": 3989,
      "Ġë¬¸ìĦľ": 3990,
      "Ġë§ģ": 3991,
      "ĠìĤ¬ìļ©íķĺìĹ¬": 3992,
      "ĠìľĦì¹ĺíķ´": 3993,
      "ĠìĹĺë¦¬": 3994,
      "Ġë°ĺë©´": 3995,
      "ĠìłľìŀĳìĹĲ": 3996,
      "ê²ĮìŀĦ": 3997,
      "ìĤ°ìĹħ": 3998,
      "Ġì£Ħ": 3999,
      "ëĲĺìŀĲ": 4000,
      "ìħ¨": 4001,
      "ëĴ": 4002,
      "ĠëıĻìª½": 4003,
      "Ġìĭłê²½": 4004,
      "ĠìĿ´ìĬ¤": 4005,
      "ë¦¬íŀĪ": 4006,
      "ãħĭãĦ±": 4007,
      "Ġì¤ĳìĿĺ": 4008,
      "ì¡°ê°Ģ": 4009,
      "ëł¥ìĿĺ": 4010,
      "ĠìĿ¼ìłľ": 4011,
      "ĠíĮĮìĿ´": 4012,
      "ĠëĮĢë¥Ļ": 4013,
      "īìĿĢ": 4014,
      "Ġãħĭãħĭãħĭãħĭ": 4015,
      "ëĿ¼ëħ¸": 4016,
      "ĠìĬ¹ê²©": 4017,
      "ìłĲìĹĲìĦľ": 4018,
      "!!!!": 4019,
      "Ġì°į": 4020,
      "Ġê°Ģìŀħ": 4021,
      "Ġ1993": 4022,
      "ë°±ì§Ī": 4023,
      "ëħĦê³¼": 4024,
      "ĠìķĦëĭĪëĭ¤": 4025,
      "Ġìĺ¤íĽĦ": 4026,
      "Ġìĸ´ëĸ»ê²Į": 4027,
      "ĠìĤ¬ë§ĿíķĺìĺĢëĭ¤": 4028,
      "28": 4029,
      "ĠìĿ¸ê·¼": 4030,
      "ĠíķŃìĥģ": 4031,
      "ĠìĤ¼ìĦ±": 4032,
      "Ġì¢ħëª©": 4033,
      "ì¢ħìĿ´": 4034,
      "ëĤ¸ëĭ¤": 4035,
      "ëĲ¨": 4036,
      "ìĪŃ": 4037,
      "ë¬¸íĻĶìŀ¬": 4038,
      "ë©Ķëĭ¬ìĿĦ": 4039,
      "ĠëĤĺëĪĦ": 4040,
      "Ġë°ľìĤ¬": 4041,
      "ìłģìĿ´ê³ł": 4042,
      "Ġíĳľê¸°": 4043,
      "Ġìµľê³łìĿĺ": 4044,
      "ĠíĥĢìĿ´íĭĢ": 4045,
      "ê·¸ëĥ¥": 4046,
      "ë¯¸ëĦĲ": 4047,
      "Ġë¶ĪêµĲ": 4048,
      "ëıĻì°¨": 4049,
      "ìĭľìĺ¤": 4050,
      "Ġì´Į": 4051,
      "Ġëĭ¤ì¹´": 4052,
      "ĠìĬ¤íĬľëĶĶìĺ¤": 4053,
      "ëħĦëĮĢìĹĲ": 4054,
      "ĠìĪĺê°Ģ": 4055,
      "ìĤ°ìľ¼ë¡ľ": 4056,
      "ë§ĪìŀĲ": 4057,
      "ìĦ¸ìĿ´": 4058,
      "Ġë¯¸ëŀĺ": 4059,
      "Ġì£¼ìĿ¸ê³µ": 4060,
      "ĠìłĦëŀµ": 4061,
      "Ġì¤ĳêµŃìĿĺ": 4062,
      "ìĬ¹ìĿĦ": 4063,
      "ìĪĺìĿ´ëĭ¤": 4064,
      "Ġíķĺê¸°": 4065,
      "ë¶ĦìĿĦ": 4066,
      "Ġíķľëĭ¤ê³ł": 4067,
      "ĠìĻ¼": 4068,
      "ìĦĿìĿĦ": 4069,
      "ìĨĮë¡ľ": 4070,
      "ĠëĳĺëŁ¬": 4071,
      "Ġìľ¼": 4072,
      "27": 4073,
      "Ġ188": 4074,
      "Ġë¬¼ë¡ł": 4075,
      "ê·¸ê±°": 4076,
      "35": 4077,
      "ĠìĪĺë¹Ħ": 4078,
      "Ġë¯¸ìĪł": 4079,
      "Ġìłľëª©": 4080,
      "ìłĦìľ¼ë¡ľ": 4081,
      "ëŁīìĿĺ": 4082,
      "ìĥģìĹĲìĦľ": 4083,
      "ë§Īë¥´": 4084,
      "ê³±": 4085,
      "ĠìĿ´ì§ĳ": 4086,
      "ìłģìľ¼ë¡ľëĬĶ": 4087,
      "ê²ĥëıĦ": 4088,
      "Ġì§Ģëªħ": 4089,
      "Ġê´ĳì£¼": 4090,
      "ĠíĹĪìļ©": 4091,
      "ĠìĿ¸ë¯¼": 4092,
      "ëĤĺìĻĢ": 4093,
      "ì²´ìĹĲ": 4094,
      "Ġë³´ìĿ´": 4095,
      "ĠëĴ¤ìĹĲ": 4096,
      "íĮĮìĿĺ": 4097,
      "ĠìµľìĨĮ": 4098,
      "Ġì¡°ìĦłë¯¼ì£¼ì£¼ìĿĺ": 4099,
      "ìĬ¨ìĿĢ": 4100,
      "Ġìĺ¬ëŀĲëĭ¤": 4101,
      "ĠìĿ¼ìĿ´": 4102,
      "Ġíİľ": 4103,
      "ĠëĤ©": 4104,
      "Ġì¶ľë°ľ": 4105,
      "Ġë°¥": 4106,
      "íķ´ë¥¼": 4107,
      "ĠìĿ¸íķľ": 4108,
      "ë¯¼ì¡±": 4109,
      "Ġë²Ķì£Ħ": 4110,
      "ë§Īê°Ģ": 4111,
      "íĬ¸ìĻĢ": 4112,
      "ê³łë¡ľ": 4113,
      "ĠëĴ·": 4114,
      "Ġê´Ģì°°": 4115,
      "2019": 4116,
      "ĠíĶĦë¡ľëĵĢ": 4117,
      "ĠíĻįì½©": 4118,
      "ĠìłľëıĦ": 4119,
      "ë³´ëĭ¤ëĬĶ": 4120,
      "ëĿ¼ê°Ģ": 4121,
      "ĠëªħìĺĪ": 4122,
      "Ġëļ": 4123,
      "ĠìĥĿë¬¼": 4124,
      "ĠíıīíĻĶ": 4125,
      "2020": 4126,
      "ìķ¼ì§Ģ": 4127,
      "Ġì¡°ìĦ±": 4128,
      "Ġê°ķì¡°": 4129,
      "Ġëģ¼": 4130,
      "ì£¼êµĲ": 4131,
      "Ġìĺ¤ë¥´": 4132,
      "ĠìĥģìĹħ": 4133,
      "ĠìĹ°ìŀ¥": 4134,
      "ìĤ¬ìļ°": 4135,
      "ĠìłĦìĭľ": 4136,
      "íķ´ëıĦ": 4137,
      "ê·¸ë£¹": 4138,
      "ìĿ´ìłľ": 4139,
      "Ġì£¼ìĹĪëĭ¤": 4140,
      "ĠëĤ¨ìĦ±": 4141,
      "ê¶ĮìĿ´": 4142,
      "Ġíı¬ì§Ģìħĺ": 4143,
      "ê¹¨": 4144,
      "íĺ¸ê°Ģ": 4145,
      "ĠìĤ¬ìļ©ëĲĺëĬĶ": 4146,
      "Ġìĸ´ëĶĶ": 4147,
      "íĨłë¦¬": 4148,
      "ĠìĹĲìĿ´": 4149,
      "ìĦ¸ëĮĢ": 4150,
      "Ġê±´ëĦĪ": 4151,
      "ĠìĿ´ìļ©íķĺìĹ¬": 4152,
      "ĠëĦĺìĸ´": 4153,
      "ĠìĦ±ê²©": 4154,
      "Ġê°ĲìĹ¼": 4155,
      "¼Ī": 4156,
      "Ġê¸°ë¡ĿìĿĦ": 4157,
      "Ġë§ĮëĵľëĬĶ": 4158,
      "ìŀĸìķĦ": 4159,
      "ĠìĬ¤ì½Ķ": 4160,
      "íħĮìĿ¸": 4161,
      "ë¬¸íķĻ": 4162,
      "ĠìĤ¬ìĭ¤ìĿĦ": 4163,
      "ëľ¨": 4164,
      "Ġìľłë¡ľ": 4165,
      "Ġê²½ìļ°ìĹĲëĬĶ": 4166,
      "ĠìĿ´ë£¨ìĸ´ìł¸": 4167,
      "ĠìĦľìª½": 4168,
      "Ġë¡ľìĬ¤": 4169,
      "ĠìľĦì¹ĺíķĺê³ł": 4170,
      "Ġìĸ¼êµ´": 4171,
      "Ġìĭ¤íĸī": 4172,
      "Ġê³µë¶Ģ": 4173,
      "ìĹŃìľ¼ë¡ľ": 4174,
      "ĠëĮĢíļĮìĹĲìĦľ": 4175,
      "ĠëģĬ": 4176,
      "Ġì¢ħì¢ħ": 4177,
      "Ġë°Ķíĥķìľ¼ë¡ľ": 4178,
      "ìĭłìĿ´": 4179,
      "Ġìĭ¤ìłľë¡ľ": 4180,
      "ì°¨ë¥¼": 4181,
      "ì¦ĪëĬĶ": 4182,
      "ĠìĤ¬ëŀĮëĵ¤ìĿĢ": 4183,
      "ĠëĦ¤íĬ¸ìĽĮíģ¬": 4184,
      "ìĹŃìĹĲìĦľ": 4185,
      "Ġ32": 4186,
      "ãħĭãħĭãħĭãħĭãħĭãħĭãħĭãħĭãħĭãħĭ": 4187,
      "ĠìľĮë¦¬ìĹĦ": 4188,
      "Ġë¶ĪëŁ¬": 4189,
      "Ġì¶©ë¶Ħ": 4190,
      "Ġêµ¬ëĭ¨": 4191,
      "ĠìŀĳìĦ±": 4192,
      "Ġê¸°íĽĦ": 4193,
      "ë¬¼ë¡ľ": 4194,
      "Ġë°ĶëŀĮ": 4195,
      "ìĻĢëĬĶ": 4196,
      "Ġì²Ļ": 4197,
      "Ġë§Įëĵ¤ìĸ´ì§Ħ": 4198,
      "ĠíķľêµŃìĿĺ": 4199,
      "ìĶ¬": 4200,
      "ĠìĤ¬ëŀĮìĿĦ": 4201,
      "íĨ¡": 4202,
      "Ġê°Ħì£¼": 4203,
      "ĠìłĦíĪ¬ìĹĲìĦľ": 4204,
      "íŀĺ": 4205,
      "Ġìŀ¥ìķł": 4206,
      "ìĤ¬íĤ¤": 4207,
      "ĠìĤ¬íļĮìłģ": 4208,
      "Ġì¹´ë¥¼": 4209,
      "ĠìĭľëĮĢìĿĺ": 4210,
      "ĠíĨµíķĺìĹ¬": 4211,
      "Ġì¸¡ìłķ": 4212,
      "ìŀ¥ìĿ´ëĭ¤": 4213,
      "ĠëĬ¦": 4214,
      "ĺë¦¬íı¬": 4215,
      "íĻĶìĹĲ": 4216,
      "Ġíķ´êµ°": 4217,
      "Ġë¹Ħë°Ģ": 4218,
      "ĠíĽĦì¿ł": 4219,
      "Ġê°ģì¢ħ": 4220,
      "íķŃê³µ": 4221,
      "ĠìĿĺìĤ¬": 4222,
      "Ġê¸°ëĬ¥ìĿĦ": 4223,
      "ĠìłĢíķŃ": 4224,
      "ĠìĻĶ": 4225,
      "Ġíķ´ëĭ¹íķľëĭ¤": 4226,
      "ĠìĿ´ìĬ¬ëŀĮ": 4227,
      "Ġëį¸": 4228,
      "Ġë°ľíĳľíĸĪëĭ¤": 4229,
      "íķ´ìĿĺ": 4230,
      "Ġìłķë¶ĢìĿĺ": 4231,
      "Ġë§Īëł¨": 4232,
      "ĠìłĦë°ĺ": 4233,
      "Ġëįĺ": 4234,
      "Ġíķ©ë³ĳ": 4235,
      "êµ¬ë¡ľ": 4236,
      "Ġìļ°íģ¬ëĿ¼ìĿ´ëĤĺ": 4237,
      "ìĺ¤íĶĦ": 4238,
      "Ġì»¬": 4239,
      "ĠìĿ´íĽĦìĹĲ": 4240,
      "Ġíİ¸ì§ĳ": 4241,
      "Ġë½": 4242,
      "Ġì¡°ê¸Ī": 4243,
      "ëł¥ìľ¼ë¡ľ": 4244,
      "ìĦ¸ê¸°ìĹĲ": 4245,
      "ê°ľë¥¼": 4246,
      "ë£©": 4247,
      "ĠìķĬìĿĦ": 4248,
      "ìŀĲìĹĲê²Į": 4249,
      "Ġëĭµ": 4250,
      "ĠìľĦíĺĳ": 4251,
      "ĠìĤ¬íļĮì£¼ìĿĺ": 4252,
      "Ġì¶ľìĭłìĿĺ": 4253,
      "Ġê³łìĸĳ": 4254,
      "Ġë´Ħ": 4255,
      "ĠëĤ´ë¶Ģ": 4256,
      "ĠëĤĺíĥĢëĤĺ": 4257,
      "ìħ°": 4258,
      "Ġê³ĦìĤ°": 4259,
      "ìĿĮìķħ": 4260,
      "Ġë°ĽìķĦëĵ¤": 4261,
      "Ġë²łëĦ¤": 4262,
      "ĠëĤ¨ë¶ģ": 4263,
      "ĠìķĦì¹¨": 4264,
      "Ġêµ¬ì¡°ë¥¼": 4265,
      "ë¡ľë§Ī": 4266,
      "ìĬ¤íĮĮ": 4267,
      "Ġ45": 4268,
      "ì¤ĳìķĻ": 4269,
      "ëĿ¼ìĹĺ": 4270,
      "ĺë¦¬íı¬ëĭĪìķĦ": 4271,
      "Ġìĭľê¸°ìĹĲ": 4272,
      "Ġë°ĸìĹĲ": 4273,
      "ìĭ¤ìĿĦ": 4274,
      "Ġê°ĸì¶Ķ": 4275,
      "ĠëıĻë£Į": 4276,
      "ì¡Įìľ¼ë©°": 4277,
      "ë°ĽìķĦ": 4278,
      "ëĩ": 4279,
      "ëĲĺìĹĪëĬĶëį°": 4280,
      "ĠìłĬìĿĢ": 4281,
      "ëł´": 4282,
      "Ġë¿Ĳë§Į": 4283,
      "ìĿ¼ëŁ¬": 4284,
      "ĠëŃ": 4285,
      "ĠíĻķëĮĢ": 4286,
      "Ġì¦Ŀê±°": 4287,
      "ë¦¬ìĸ´": 4288,
      "Ġë¬´ëłµ": 4289,
      "Ġì±ĦëĦĲ": 4290,
      "ĠìķĦëĤ´": 4291,
      "ĠìłķìĭĿ": 4292,
      "ê²łëĭ¤ê³ł": 4293,
      "ëªħíķľ": 4294,
      "Ġ90": 4295,
      "ëĮĢìĹĲìĦľ": 4296,
      "Ġìŀ¬ì§ģ": 4297,
      "Ġê¹Ĭ": 4298,
      "Ġìı": 4299,
      "ĠìĻ¸ìĹĲëıĦ": 4300,
      "Ġãħł": 4301,
      "ëį°ë¯¸": 4302,
      "Ġìłģê·¹": 4303,
      "íĶĦëłĪ": 4304,
      "Ġëª½ê³¨": 4305,
      "íĿĳ": 4306,
      "ãĦ¹": 4307,
      "Ġì¹´ìļ´": 4308,
      "Ġ1988": 4309,
      "Ġë§¹": 4310,
      "ĠëĤ¨íİ¸": 4311,
      "íĭ°ëĬĶ": 4312,
      "ë¡ľëĤĺ": 4313,
      "Ġë¶Īë¦°ëĭ¤": 4314,
      "ëĭĪìĸ´": 4315,
      "Ġ500": 4316,
      "ìĹĲë¥´": 4317,
      "ê¼¬": 4318,
      "ìĭľìĦ¤": 4319,
      "Ġì±ĦíĥĿ": 4320,
      "Ġìľłíĺķ": 4321,
      "Ġê·¸ê³³": 4322,
      "íĸīìĿĦ": 4323,
      "íĭ°ë¸Į": 4324,
      "Ġê·¸ëł¤": 4325,
      "Ġíķĺë©´": 4326,
      "Ġë¶ģë¶Ģ": 4327,
      "Ġë¶ķê´´": 4328,
      "ë¶Ħë¥ĺ": 4329,
      "ĠìĤ¬ë¡Ģ": 4330,
      "Ġìĺ·": 4331,
      "ìĿ¸ìĹĲ": 4332,
      "Ġì¶ľìĹ°íķĺìĺĢê³ł": 4333,
      "Ġê¿Ī": 4334,
      "ĠëıĻê³Ħ": 4335,
      "ë¯¸ëĶĶ": 4336,
      "ĠëĳĶ": 4337,
      "ĠêµŃìĻķ": 4338,
      "ĠíĬĢ": 4339,
      "ĠìłľìĻ¸íķľ": 4340,
      "ê°Ĵ": 4341,
      "ĠìĭľìŀĳëĲĺìĹĪëĭ¤": 4342,
      "Ġìŀĺëª»": 4343,
      "ëĲĺìĹĪì§Ģë§Į": 4344,
      "ĠíķĺëĬĶëį°": 4345,
      "Ġíı¬ë¥´íĪ¬ê°Ī": 4346,
      "ĠìķĦìļ°": 4347,
      "Ġìī½ê²Į": 4348,
      "ĠìļĶë¦¬": 4349,
      "Ġëĥī": 4350,
      "ìłĲìĹĲ": 4351,
      "Ġì¤ĳíĻĶìĿ¸ë¯¼ê³µíĻĶêµŃ": 4352,
      "ĠìŀħíķĻ": 4353,
      "Ġì¹¨ê³µ": 4354,
      "ĠìķĦíĤ¤": 4355,
      "Ġê³Ħìķ½ìĿĦ": 4356,
      "Ġê°Ģê²©": 4357,
      "ì¢ħìĿĢ": 4358,
      "ìķĦëħ¸": 4359,
      "ĠìĤ¬ëł¹": 4360,
      "ãħĪ": 4361,
      "ãĦ·": 4362,
      "Ġê²½ìĥģëĤ¨ëıĦ": 4363,
      "ĠêµŃíļĮìĿĺìĽĲ": 4364,
      "ĠëĲĺìĹĪìľ¼ë©°": 4365,
      "Ġì³": 4366,
      "Ġê·¸ëĥ¥": 4367,
      "Ġë¯¼ê°Ħ": 4368,
      "Ġ..": 4369,
      "Ġê¸°ì¡´ìĿĺ": 4370,
      "Ġê²½ìĥģë¶ģëıĦ": 4371,
      "ĠìĿ¼ë°ĺìłģìĿ¸": 4372,
      "ë¦¬ê¸°": 4373,
      "íģ¬ìĿĺ": 4374,
      "ĠíĻķë³´": 4375,
      "ĠìĥĿíĻľìĿĦ": 4376,
      "ìĦłìĹĲìĦľ": 4377,
      "ĠíķĺìŀĲ": 4378,
      "ĠìłĲì°¨": 4379,
      "ëıĦë¥´": 4380,
      "ĠëıĦìĭľë¡ľ": 4381,
      "ë§ĪìĬ¤": 4382,
      "íĤ¤ìķĦ": 4383,
      "Ġë¬´ìĹŃ": 4384,
      "90": 4385,
      "ëĿ¼ë¹ĦìķĦ": 4386,
      "ĠëĤĺìĻĢ": 4387,
      "Ġì±ħìŀĦ": 4388,
      "ì¡¸": 4389,
      "ìĿ´ëįĺ": 4390,
      "Ġê·¸ê²ĥìĿĢ": 4391,
      "íĢ´": 4392,
      "Ġ1989": 4393,
      "ĠëĿ¼ìĿ´ë¸Į": 4394,
      "ì¤ĳêµŃ": 4395,
      "ëĦĮ": 4396,
      "32": 4397,
      "êµ°ìľ¼ë¡ľ": 4398,
      "ê¸°ìĦľ": 4399,
      "Ġëĭ¤ìĦ¯": 4400,
      "ë¡ľìĦľìĿĺ": 4401,
      "Ġì£¼ìŀ¥íĸĪëĭ¤": 4402,
      "Ġìłľìłķ": 4403,
      "ĠíĮĲëĭ¨": 4404,
      "ëĪ": 4405,
      "Ġë§ĮíĻĶ": 4406,
      "Ġì¹ľìĿ¼": 4407,
      "ê°ĻìĿ´": 4408,
      "Ġë³´ëıĦ": 4409,
      "Ġíķľëĭ¤ëĬĶ": 4410,
      "ë´¤": 4411,
      "Ġíĺľ": 4412,
      "ĠìħĢ": 4413,
      "ĠëĨįìĹħ": 4414,
      "ìļ©ìľ¼ë¡ľ": 4415,
      "íķĺëł¤ëĬĶ": 4416,
      "ìħĶëĦĲ": 4417,
      "íıīê°Ģ": 4418,
      "ì§ĦìĿĦ": 4419,
      "Ġê´Ģìĭ¬ìĿĦ": 4420,
      "Ġì§ĳëĭ¨": 4421,
      "ìľ¼ëĭĪ": 4422,
      "íĹ¬": 4423,
      "Ġê·ł": 4424,
      "ĠìĪĺìŀħ": 4425,
      "ì¶ķêµ¬": 4426,
      "ĠìĤ¬ëĬĶ": 4427,
      "ë¬¼ìĿĢ": 4428,
      "ìĸ¸ëĭĪ": 4429,
      "34": 4430,
      "íħĮìĿ¸ë¨¼": 4431,
      "Ġë¶Ģë¬¸": 4432,
      "ìķĦë¥´": 4433,
      "ĠìŀĲë³¸": 4434,
      "ĠêµŃë°©": 4435,
      "ë©ĶìĿ´": 4436,
      "ìŀĲì¹ĺ": 4437,
      "Ġì´Īë°ĺ": 4438,
      "ĠëĤĺìĺ¤ëĬĶ": 4439,
      "ëĵľìĹĲìĦľ": 4440,
      "ëĭ¹ìĹĲ": 4441,
      "ĠìľĦìĿĺ": 4442,
      "ìĭłìĿĢ": 4443,
      "ìłķìľ¼ë¡ľ": 4444,
      "Ġìĺ¹": 4445,
      "ìłķëıĦ": 4446,
      "Ġë°©ìĭĿìľ¼ë¡ľ": 4447,
      "ìłľìĹĲ": 4448,
      "ĠìŀĪìĹĪì§Ģë§Į": 4449,
      "Ġê·¸ëłĩê²Į": 4450,
      "ìķĺìľ¼ë©°": 4451,
      "2007": 4452,
      "ĠìĬ¹ë¦¬ë¥¼": 4453,
      "ì¯": 4454,
      "195": 4455,
      "Ġë¸ĶëŀĻ": 4456,
      "Ġë³¸ëŀĺ": 4457,
      "ìĨĮìĹĲìĦľ": 4458,
      "Ġê°Ŀ": 4459,
      "ĠêµĲì²´": 4460,
      "ìķĬ": 4461,
      "ëĭ¨ì²´": 4462,
      "ĠëĴ¤ë¥¼": 4463,
      "ĠìĹĲíĶ¼": 4464,
      "ëŀĺíĶĦíĬ¸": 4465,
      "ìĤ¬ëł¹": 4466,
      "ëł¥ê³¼": 4467,
      "36": 4468,
      "Ġìłķë³´ë¥¼": 4469,
      "ĠìŀĲë¦¬ë¥¼": 4470,
      "ĠìĹ¬ê¸°ìĦľ": 4471,
      "Ġê°ķëł¥íķľ": 4472,
      "ĠëĤ¨ëıĻ": 4473,
      "íķĻëħĦ": 4474,
      "ëĦ¤ìĭľìķĦ": 4475,
      "Ġíķĺë©´ìĦľ": 4476,
      "ĠìķĮëłīìĤ°": 4477,
      "ê°ĢìĦľ": 4478,
      "ê¸°ê°Ħ": 4479,
      "ĠìĿ¸ìĪĺ": 4480,
      "Ġìĺ¤ìĤ¬ì¹´": 4481,
      "Ġêµ¬ì¶ķ": 4482,
      "ĠìĪĺë¦½": 4483,
      "ë©´ìĿĺ": 4484,
      "Ġìĵ°ìĿ¸ëĭ¤": 4485,
      "ë°Ķë¡ľ": 4486,
      "íĦ°íħĮìĿ¸ë¨¼": 4487,
      "Ġ1950": 4488,
      "íģ´ëŁ½": 4489,
      "ì§Ģë¦¬": 4490,
      "ëĵľëĿ¼": 4491,
      "íĶĦìĿĺ": 4492,
      "Ġë°ĽëĬĶ": 4493,
      "ĠìĿ¸ëĶĶ": 4494,
      "ĠìĹ°ë§¹": 4495,
      "ë²ķìĿĢ": 4496,
      "ĠëĤ´ìĹĲìĦľ": 4497,
      "ë®": 4498,
      "ìĪĺëıĦ": 4499,
      "Ġê²½íĸ¥": 4500,
      "ĠíļĮë³µ": 4501,
      "ê³ĦìĹĲìĦľ": 4502,
      "ĠëĿ¼ê³ł": 4503,
      "Ġê¼Ń": 4504,
      "ĠìľłìĿ¼": 4505,
      "Ġëĸ¨ìĸ´ìł¸": 4506,
      "ëĳĳ": 4507,
      "êµŃìĹĲ": 4508,
      "êµ¬ëł¤": 4509,
      "ë²ķìĹĲ": 4510,
      "ìĸ´ìĻĢ": 4511,
      "ĠìĥĮ": 4512,
      "Ġìłķìĥģ": 4513,
      "Ġíķ´ìĦľ": 4514,
      "ìĦľìĹĲ": 4515,
      "ìĿ¸ëıĦ": 4516,
      "ìĭľìĻĢ": 4517,
      "ëĭ¹íķľ": 4518,
      "Ġì¡±": 4519,
      "ĠìķŀëĳĲê³ł": 4520,
      "ëĭ¤ìļ´": 4521,
      "ê³Ħë¡ľ": 4522,
      "ìĿ¼ë¡ľ": 4523,
      "Ġë§ĪìĤ¬": 4524,
      "Ġëĭ¨ë°±ì§Ī": 4525,
      "Ġëĵ±ìĹĲìĦľ": 4526,
      "ì£¼ìĹĪëĭ¤": 4527,
      "Ġë¹¨": 4528,
      "Ġíķ´ìķ¼": 4529,
      "Ġìļķ": 4530,
      "ì¡±ìĿĺ": 4531,
      "Ġíĥĳìŀ¬": 4532,
      "ìķ½ìĿĦ": 4533,
      "ì§ĪìĿĦ": 4534,
      "ìĭľì¼°": 4535,
      "???": 4536,
      "íķĺëł¤ê³ł": 4537,
      "Ġëĵ±ìĿĢ": 4538,
      "ëĤ¬ìľ¼ë©°": 4539,
      "Ġìľłë¦¬": 4540,
      "ĠìŀĲìĭłìĿĦ": 4541,
      "ëį°ìĬ¤": 4542,
      "ìłĲìĿĢ": 4543,
      "Ġë¶Ģê·¼": 4544,
      "ãħĤ": 4545,
      "Ġê³µê²©ìĿĦ": 4546,
      "Ġê°ĢìĦľ": 4547,
      "Ġë¥ĺ": 4548,
      "Ġë¹Ħìľ¨": 4549,
      "ë¤Ħ": 4550,
      "ĠíĿ°": 4551,
      "ĠëĮĢê·ľëª¨": 4552,
      "ëĿ¼ê³łëıĦ": 4553,
      "ĠìłĦê°ľ": 4554,
      "ĠíĽ¨": 4555,
      "ìłģìĿ´ëĭ¤": 4556,
      "Ġë§¤ëħĦ": 4557,
      "ìĬĪíĥĢ": 4558,
      "Ġìķ½ê°Ħ": 4559,
      "Ġë§ĪìĿ´íģ¬ë¡ľ": 4560,
      "ĠìĿ´ëŀĢ": 4561,
      "ĠìķĦì£¼": 4562,
      "ë¯¹": 4563,
      "ìĦľê´Ģ": 4564,
      "ë©´ìĹĲìĦľ": 4565,
      "Ġíķ´ì²´": 4566,
      "ë¸ĮëĿ¼": 4567,
      "Ġê³µê³µ": 4568,
      "Ġìĭľìŀ¥": 4569,
      "ĠìĺģíĻĶë°°ìļ°": 4570,
      "ĠíĦ¸": 4571,
      "ê¹Ĳ": 4572,
      "Ġê·¸íķ´": 4573,
      "ĠìĿ´ìłĦìĹĲ": 4574,
      "ĠëıĻìĿ¼": 4575,
      "Ġì§ĢìĹŃìĿĢ": 4576,
      "Ġíĥľìĸ´ëĤľ": 4577,
      "ìĿ´ëĿ¼ê³łëıĦ": 4578,
      "ìĿ´ìĹĪê³ł": 4579,
      "ĠíĻĶíķĻ": 4580,
      "ê´Ħ": 4581,
      "Ġë§Įì¡±": 4582,
      "Ġì½©": 4583,
      "Ġíķĺê²Į": 4584,
      "Ġë³Ģíĺ¸": 4585,
      "Ġë¶Īê³¼": 4586,
      "íĸĪê¸°": 4587,
      "ëĬĦ": 4588,
      "ĠìĤ¬ìļ©íķľ": 4589,
      "ë²ķìĽĲ": 4590,
      "ĠìłĦìĤ¬": 4591,
      "Ġìĺ¤ìĬ¤": 4592,
      "ìĨĮíĶĦíĬ¸": 4593,
      "ë¶ĦìĿ´": 4594,
      "íĺķìĿĢ": 4595,
      "ĠíĹĿê°Ģ": 4596,
      "ìŀĲëĵ¤ìĿĦ": 4597,
      "íģ¬ë¡ľ": 4598,
      "Ġê³¼ìłķìĿĦ": 4599,
      "êµ¬ìĻĢ": 4600,
      "ë©´ìĿĢ": 4601,
      "ëł¥ìĹĲ": 4602,
      "ì²©": 4603,
      "ĠìĦŃ": 4604,
      "ë¥´íĥĢ": 4605,
      "Ġë¸Ķë£¨": 4606,
      "Ġë³µìŀ¡": 4607,
      "ëĦ¬": 4608,
      "Ġë³´ìĿ´ëĬĶ": 4609,
      "Ġë²ĦìĬ¤": 4610,
      "ëĿ¼ìļ´ëĵľ": 4611,
      "ë²ķìĿĺ": 4612,
      "ìĪĺìĻĢ": 4613,
      "ë¥ľ": 4614,
      "Ġìĭľê°ĦìĿ´": 4615,
      "ëıĦìĹĲìĦľ": 4616,
      "ê¹Įì§ĢìĿĺ": 4617,
      "íĭĢëŀľëĵľ": 4618,
      "Ġìŀłìĭľ": 4619,
      "ìĹŃìĹĲ": 4620,
      "Ġì°¨ì§ĢíĸĪëĭ¤": 4621,
      "Ġì£½ìĿĮ": 4622,
      "ë¥¼ë¦°": 4623,
      "ê¹Įì§ĢëĬĶ": 4624,
      "Ġìį¨": 4625,
      "ëĤŃ": 4626,
      "ê²½ì°°": 4627,
      "Ġë³´ëĬĶ": 4628,
      "Ġê³µìľł": 4629,
      "ìĭľëĮĢìĿĺ": 4630,
      "ĠìĽĲìŀĲ": 4631,
      "ĠìķĦë¦Ħ": 4632,
      "Ġ36": 4633,
      "ë¥ĺë¥¼": 4634,
      "ë³´ëĵľ": 4635,
      "Ġê²½ìļ°ëıĦ": 4636,
      "ëĤĺë¯¸": 4637,
      "ĠíļĮìĽĲ": 4638,
      "ëıĻìĿĺ": 4639,
      "ìĶ¨ëĬĶ": 4640,
      "ĠìĹĨê³ł": 4641,
      "Ġê°ľìĦł": 4642,
      "ë§ĪíĬ¸": 4643,
      "ĺĳ": 4644,
      "ëģĶ": 4645,
      "Ġêµ¬ìĦ±ëĲľ": 4646,
      "37": 4647,
      "2000": 4648,
      "ĠìľłìĹĶ": 4649,
      "ê²½ìĿĺ": 4650,
      "ĠìĭľëĮĢìĹĲ": 4651,
      "ìĬ¤ëŁ½": 4652,
      "ĠìĪĺìłķ": 4653,
      "Ġëª¨ìĬ¤íģ¬": 4654,
      "Ġ187": 4655,
      "Ġìĩł": 4656,
      "íĺķìĿ´": 4657,
      "ĠìĽĲì¹Ļ": 4658,
      "ìĸ´ìł¸": 4659,
      "ĠíĽ¨ìĶ¬": 4660,
      "ë¡ľëĵľ": 4661,
      "ìĹĲìĿ´": 4662,
      "ëħĦìĿ´": 4663,
      "ĠìĹĳ": 4664,
      "ë¬´ìĽĲ": 4665,
      "ìĹĲê²ĮëĬĶ": 4666,
      "ĠìĿĢíĸī": 4667,
      "íĽĦìĿĺ": 4668,
      "Ġê²ĮìĿ´": 4669,
      "ĠìĿ¸ê°ĦìĿĺ": 4670,
      "ë¬´ëĿ¼": 4671,
      "Ġìºĺë¦¬íı¬ëĭĪìķĦ": 4672,
      "Ġ34": 4673,
      "Ġì§ĵ": 4674,
      "ë¯¸ìķ¼": 4675,
      "Ġ186": 4676,
      "ìĪĺìĹĲ": 4677,
      "Ġ300": 4678,
      "Ġê°Ķëĭ¤": 4679,
      "ëĤ©": 4680,
      "ì¼Ī": 4681,
      "ìļ°ê³ł": 4682,
      "ĠìĿ´ëģĦëĬĶ": 4683,
      "ë¡ľëıĦ": 4684,
      "ĠìĪ²": 4685,
      "ĠíŀĺìĿĦ": 4686,
      "ëł¤ëĬĶ": 4687,
      "ĠíĶĮëŀ«": 4688,
      "Ġìĭľì²Ń": 4689,
      "Ġë¹Ħìļ©": 4690,
      "ëłĪìĿ´ìħĺ": 4691,
      "ĠìĹĨëĭ¤ê³ł": 4692,
      "Ġíģ´ëŀĺ": 4693,
      "ĠìłĦëĿ¼ëĤ¨ëıĦ": 4694,
      "ì¢ħìľ¼ë¡ľ": 4695,
      "ĠìŀĦëªħëĲĺìĹĪëĭ¤": 4696,
      "ĠìķĦëĤĺ": 4697,
      "ĠìļĶìĥĪ": 4698,
      "Ġê´Ģìĭ¬": 4699,
      "ĠìĤ¬ìļ©ëĲĺìĹĪëĭ¤": 4700,
      "Ġì¹´ë©Ķ": 4701,
      "ĠëıĻë¶Ģ": 4702,
      "ì§Ģê¸°": 4703,
      "ĠëıĦìĽĢìĿĦ": 4704,
      "ìĭ±íĦ´": 4705,
      "ë¦¬íķĻ": 4706,
      "ĠíĥĢê³ł": 4707,
      "Ġìĸ¸ìłľ": 4708,
      "ëĲĺë©´": 4709,
      "íĴĪìĿĦ": 4710,
      "ê²½ìĹĲ": 4711,
      "ĠìĿ´ë£¨ìĸ´ì§Ħ": 4712,
      "íķĺê³łìŀĲ": 4713,
      "ĠìłĢëħģ": 4714,
      "Ġë°ķë¬¼": 4715,
      "ê¶ĮìĿĢ": 4716,
      "ëıĻìĿĢ": 4717,
      "ĠìĦ¸ë¥´": 4718,
      "Ġì¼ĢìĿ´": 4719,
      "ĠíĸīìĤ¬": 4720,
      "ĠìĿ´ìĬ¤ëĿ¼ìĹĺ": 4721,
      "ë©ľ": 4722,
      "ì´ĮìĿĢ": 4723,
      "ë±ħ": 4724,
      "Ġì°°": 4725,
      "ìķĪìĹĲ": 4726,
      "ëĬ¬": 4727,
      "ĠíıŃë°ľ": 4728,
      "ĠìĭłìĦ¤": 4729,
      "Ġ48": 4730,
      "ĠëĮĢë¦½": 4731,
      "ë¶ĦìĿĺ": 4732,
      "Ġì¤ĳë°ĺ": 4733,
      "ë¯¸ëĬĶ": 4734,
      "ìłķì±ħ": 4735,
      "Ġìĺ¤ìĬ¤íĬ¸ëłĪìĿ¼ë¦¬ìķĦ": 4736,
      "Ġë§Įìķ½": 4737,
      "Ġë¸Įëŀľëĵľ": 4738,
      "ĠëĤĺìĦľ": 4739,
      "Ġì¦Ŀëªħ": 4740,
      "ë²łë¥´íģ¬": 4741,
      "Ġì²¨": 4742,
      "ë¹Ľ": 4743,
      "ìĿ¸ëĵ¤ìĿĺ": 4744,
      "ĠëĮĢìĥģìľ¼ë¡ľ": 4745,
      "ë¹Ħëĵľ": 4746,
      "Ġíĺĳëł¥": 4747,
      "ìĪĺë¡Ŀ": 4748,
      "ĠíĨµíķľ": 4749,
      "íĭ°ëĤĺ": 4750,
      "ìĹĪì§Ģë§Į": 4751,
      "ì£¼ìĹĲìĦľ": 4752,
      "Ġì¤ĳíķĻêµĲ": 4753,
      "Ġãħĭ": 4754,
      "ĠìĦľë¶Ģ": 4755,
      "Ġë¨¸ë¦¬": 4756,
      "Ġê¸°ê³Ħ": 4757,
      "Ġë¬»": 4758,
      "Ġìĭ«": 4759,
      "Ġì«": 4760,
      "Ġë¹ĦêµĲìłģ": 4761,
      "ĠíĺķìĭĿ": 4762,
      "ë°ĽìĿĢ": 4763,
      "Ġ1945": 4764,
      "ĠíķĢëŀĢëĵľ": 4765,
      "Ġê°Ģë¦¬íĤ¤ëĬĶ": 4766,
      "ĠìĿ¸ìĤ¬": 4767,
      "ë£Įë¥¼": 4768,
      "Ġì°¸ìĦĿ": 4769,
      "ĠìľĪëıĦìļ°": 4770,
      "Ġëį´ë§Īíģ¬": 4771,
      "ĠìĤ¬ëŀĮìĿĺ": 4772,
      "ĠìłĦíĺĢ": 4773,
      "ĠìĦłìĿĺ": 4774,
      "ĠìĦ¸ìļ´": 4775,
      "ĠëĨĴìĿ´": 4776,
      "Ġì¡°ìłķ": 4777,
      "ľì°®": 4778,
      "ê³łê¸°": 4779,
      "ĠìĪĺì¶ľ": 4780,
      "ĠìĿ¸ê¸°ë¥¼": 4781,
      "ĠìĿ¸íķĺìĹ¬": 4782,
      "ë°ĶëĿ¼": 4783,
      "ì´Īëĵ±íķĻêµĲëĬĶ": 4784,
      "ĠëĮĢíĺķ": 4785,
      "Ġë¶Īê°ĢëĬ¥": 4786,
      "Ġê°ĸì¶ĺ": 4787,
      "39": 4788,
      "ĠìĿ´ê²ĥìĿ´": 4789,
      "ìĿ¸ë¬¼": 4790,
      "ĠíĺĦìĭ¤": 4791,
      "ĠíĺķíĥľìĿĺ": 4792,
      "Ġëĭ¹ìĭľìĿĺ": 4793,
      "Ġ38": 4794,
      "38": 4795,
      "Ġìĭ¬ê°ģ": 4796,
      "Ġìŀ¬ìłķ": 4797,
      "ĠëĮĢìĥģ": 4798,
      "ĠëĲĺì§Ģ": 4799,
      "2006": 4800,
      "ë§Įíģ¼": 4801,
      "ĠìŀĲì²´": 4802,
      "ĠìłĢìŀ¥": 4803,
      "ĠìĹĲëĦĪì§Ģ": 4804,
      "ë¿": 4805,
      "ìĭľíĤ¬": 4806,
      "Ġíı¬ì§ĢìħĺìĿĢ": 4807,
      "ìĹ¬ìĦľ": 4808,
      "Ġê°ľíİ¸": 4809,
      "Ġë§ĲìĿ´ëĭ¤": 4810,
      "ĠìŀŃ": 4811,
      "ê¸°ìĹĲëĬĶ": 4812,
      "ĠìĹħë¬´": 4813,
      "ĠíĮĮë¦¬": 4814,
      "ĠëĤĺëīĺ": 4815,
      "ĠíĬ¹ìĪĺ": 4816,
      "Ġì§§ìĿĢ": 4817,
      "ĠìĦ±ìļ°": 4818,
      "Ġê°Ģë¡ľ": 4819,
      "íķĺëĭ¤ëĬĶ": 4820,
      "ì£¼ìĻĢ": 4821,
      "Ġ1987": 4822,
      "ĠìĨĮíĶĦíĬ¸ìĽ¨ìĸ´": 4823,
      "Ġìķ¼ë§Ī": 4824,
      "íħĮë¥´": 4825,
      "Ġê³łìļ©": 4826,
      "ĠìķĦíĮĮ": 4827,
      "Ġë¡¤": 4828,
      "ìĦľê°Ģ": 4829,
      "ĠíĨµìĭł": 4830,
      "Ġê³łíĸ¥": 4831,
      "¾Į": 4832,
      "Ġì¶ĺ": 4833,
      "Ġíİ¸ìŀħ": 4834,
      "ĠìĪĺíķĻ": 4835,
      "ĠíķĦë¦¬íķĢ": 4836,
      "Ġê¸°íļį": 4837,
      "Ġíħį": 4838,
      "ĠíĮĢìĿĢ": 4839,
      "ìĦ¤ìĿĦ": 4840,
      "Ġíķµìĭ¬": 4841,
      "ê³µìĹħ": 4842,
      "ĠìĨįìĹĲ": 4843,
      "êµŃë¯¼": 4844,
      "ì¿¨": 4845,
      "Ġê¸°ë°ĺìľ¼ë¡ľ": 4846,
      "ãħİãħİãħİãħİ": 4847,
      "Ġëį®": 4848,
      "ĠìŀĪìĹĪëĬĶëį°": 4849,
      "ĠëĵĿìłĲ": 4850,
      "ĠíĿĺ": 4851,
      "ĠìķĦëŀį": 4852,
      "Ġìĺ¤ëŀľ": 4853,
      "ë¦¬ëħ¸": 4854,
      "Ġíķ´ë°©": 4855,
      "ë¦¬íĬ¸": 4856,
      "ëĭĪìĿĺ": 4857,
      "ë¦¬ëĤĺ": 4858,
      "ĠíĺĲìĿĺ": 4859,
      "ĠìĺĪìĥģ": 4860,
      "ĠëĽ°ìĸ´ëĤľ": 4861,
      "Ġë±": 4862,
      "Ġì£½ìĿĢ": 4863,
      "ĠìĿĺíķ´ìĦľ": 4864,
      "ĠëĿ¼íĭ´": 4865,
      "ĠìĹŃìĤ¬ìĥģ": 4866,
      "ë°Ľê³ł": 4867,
      "ĠìĭľëĤ´": 4868,
      "ĠìŀĪìĹĪìľ¼ë©°": 4869,
      "Ġê²ĢìĿĢ": 4870,
      "ĠìľłëıĦ": 4871,
      "íķĺë§Ī": 4872,
      "ê±°ëĵł": 4873,
      "ìĹĨëĬĶ": 4874,
      "ìłķì¹ĺ": 4875,
      "Ġê³łìłĦ": 4876,
      "ĠìĿ¼ì¢ħìĿ´ëĭ¤": 4877,
      "ìķĺëįĺ": 4878,
      "Ġì½Ķë¯¸ëĶĶ": 4879,
      "ĠìĹĲëĵľ": 4880,
      "Ġìĭłë¬¸": 4881,
      "Ġ1986": 4882,
      "ìĹĪìľ¼ëĤĺ": 4883,
      "ì½¤": 4884,
      "Ġë½ĳ": 4885,
      "ë²ĪìĿĺ": 4886,
      "ëĦ¹": 4887,
      "ê¶": 4888,
      "ì§ĢìĽĲ": 4889,
      "Ġê³łëĵ±": 4890,
      "Ġê°ĢëĬ¥ìĦ±ìĿ´": 4891,
      "Ġíĥľíıīìĸĳ": 4892,
      "ĠìĨįìĹĲìĦľ": 4893,
      "ãħĭãħĭãħĭãħĭãħĭãħĭãħĭãħĭãħĭãħĭãħĭ": 4894,
      "íŀĪëł¤": 4895,
      "ĠìĤ¬ìĭ¤ìĥģ": 4896,
      "ĠìĦ¤ìłķ": 4897,
      "ìĦľìĿĺ": 4898,
      "ìľłìĿĺ": 4899,
      "Ġìĸ´ëłµ": 4900,
      "ëļ": 4901,
      "ĠíĻķìĭ¤": 4902,
      "ìĮį": 4903,
      "ĠíĸĪì§Ģë§Į": 4904,
      "ë¦¬ì¼Ģ": 4905,
      "ë¹ĦìĬ¤": 4906,
      "ë£Įë¡ľ": 4907,
      "ëĤĺì¹´": 4908,
      "Ġë§Īëĵľë¦¬": 4909,
      "ĠìłĦì°¨": 4910,
      "Ġëĵ¯": 4911,
      "Ġë¶ģìĦľ": 4912,
      "ĠëıĦìĽĢ": 4913,
      "ĠëıĻìĿ¼íķľ": 4914,
      "ë§ĮìĿĢ": 4915,
      "ìĹŃìĿĺ": 4916,
      "Ġê·¼ëį°": 4917,
      "Ġë³¸ê²©": 4918,
      "Ġê²½ê¸°ìĹĲ": 4919,
      "ê¶ĮìĹĲ": 4920,
      "Ġê¸¸ìĿ´": 4921,
      "ì¼Ħ": 4922,
      "Ġê·¸ëŁ¼": 4923,
      "ĠëĤĺíı´": 4924,
      "ĠìĻ¸ìĹĲ": 4925,
      "ĠíĻķìłķ": 4926,
      "Ġë©ĶìĿ´ìłĢ": 4927,
      "48": 4928,
      "íķ¨ìĹĲ": 4929,
      "ë³´ë¥¼": 4930,
      "Ġ1984": 4931,
      "íķĺìĭľ": 4932,
      "ëįĶëĭĪ": 4933,
      "Ġê°ķìĽĲëıĦ": 4934,
      "Ġë³¸ìĦł": 4935,
      "ìķĦëĬĶ": 4936,
      "ê¸°íĥĢ": 4937,
      "ĠìĭłëĿ¼": 4938,
      "ë°ķì¥Ĳ": 4939,
      "Ġíİ¸ìĦ±": 4940,
      "Ġìļ°ìĦł": 4941,
      "ĠíĪ¬ìŀĲ": 4942,
      "Ġë¹ĦëĤľ": 4943,
      "ĠìĦ¸ê³ĦìĹĲìĦľ": 4944,
      "ĠíĽĦìĨĲ": 4945,
      "31": 4946,
      "Ġì§Ĳ": 4947,
      "Ġëª¨ë¥´": 4948,
      "ì¿łëĿ¼": 4949,
      "ĠìķĶìĤ´": 4950,
      "Ġê·ĢêµŃ": 4951,
      "ìĸ´ëĵ¤": 4952,
      "ĠìĦ¤ì¹ĺëĲĺìĸ´": 4953,
      "Ġìķ½ìĨį": 4954,
      "ĠíĶĮëŀ«íı¼": 4955,
      "ĠìķĦìĭľìķĪ": 4956,
      "ĠëĿł": 4957,
      "ìģĺ": 4958,
      "Ġìŀ¥ì°©": 4959,
      "Ġìŀİ": 4960,
      "Ġê°Īëĵ±": 4961,
      "ë£¬ëĭ¤": 4962,
      "íķ´ì§Ħ": 4963,
      "ĠìĪĺìĹ¬": 4964,
      "ë¹Ħì¹ĺ": 4965,
      "ë¥¨": 4966,
      "ë¦¬ì¦ĺ": 4967,
      "ìķĦë©Ķë¦¬ì¹´": 4968,
      "ĠíĨłë¡ł": 4969,
      "ëħ¸ëıĻ": 4970,
      "ĠíĸĪê³ł": 4971,
      "Ġë°ľìĥĿíķľ": 4972,
      "Ġëĵ±ìŀ¥íķĺëĬĶ": 4973,
      "ê³łëĬĶ": 4974,
      "Ġê¶Įíķľ": 4975,
      "Ġê¸Ģë¡ľ": 4976,
      "ìķ¼êµ¬": 4977,
      "ĠíĻĪëŁ°": 4978,
      "ĠìķĦì¹´ëį°ë¯¸": 4979,
      "ëĿ¼íģ¬": 4980,
      "ĠìľĦì¹ĺíķľëĭ¤": 4981,
      "Ġì¶ĶìłķëĲľëĭ¤": 4982,
      "ĠëĤ´ìļ©ìĿĦ": 4983,
      "ìĭľíĭ°": 4984,
      "ë¹ĦìĿĺ": 4985,
      "Ġëĭ¤ëĭĪ": 4986,
      "ì§Ģë©´ìĦľ": 4987,
      "ĠìĦ¤ë¦½ëĲľ": 4988,
      "ì¶°": 4989,
      "ëŀ¬": 4990,
      "Ġì°½ìĦ¤": 4991,
      "ê°ľê°Ģ": 4992,
      "Ġë°ĺë³µ": 4993,
      "45": 4994,
      "Ġê¸°ìĤ¬": 4995,
      "íĺ¸ìĿĺ": 4996,
      "ĠìĿ¼ì°į": 4997,
      "ĠëķĮìĹĲëĬĶ": 4998,
      ";;": 4999,
      "ê·¸ìĿĺ": 5000,
      "ìĤ°ìĿ´": 5001,
      "Ġë£¨ìĿ´": 5002,
      "Ġë¬¼ëŁ¬": 5003,
      "ìŀĪìĸ´": 5004,
      "ìĬ¤ë¦¬ê·¸": 5005,
      "ëĿ¼ìĦľ": 5006,
      "ìĺĪìĪł": 5007,
      "Ġê°ľë´īíķľ": 5008,
      "ëıĻìĿ´": 5009,
      "ê·¸ëŀĺëıĦ": 5010,
      "íĦ°ëĬĶ": 5011,
      "ĠìĪ«": 5012,
      "Ġë°ķìĤ¬": 5013,
      "ë´ĩ": 5014,
      "ĠìłĪëĮĢ": 5015,
      "íĥĢëĬĶ": 5016,
      "ìĿĺìĿĺ": 5017,
      "ĠìłģìĿĢ": 5018,
      "Ġíĺ¸íħĶ": 5019,
      "ì°¨ë¡Ģ": 5020,
      "ĠìĿ´ìĬ¹": 5021,
      "ĠìĤ¬íĽĦ": 5022,
      "Ġìĸ»ìĹĪëĭ¤": 5023,
      "ê·¸ëłĩ": 5024,
      "Ġê³µíı¬": 5025,
      "ĠìĭľìĿĺ": 5026,
      "Ġìľłëªħíķĺëĭ¤": 5027,
      "ĠìĹĲíĶ¼ìĨĮ": 5028,
      "Ġê³łìłķ": 5029,
      "ĠíĥĦìĥĿ": 5030,
      "ĠìŀĲëĬĶ": 5031,
      "Ġìłķë³µ": 5032,
      "Ġëĳ¥": 5033,
      "ì²¨": 5034,
      "Ġë°ľê²¬ëĲľëĭ¤": 5035,
      "Ġìĭľê°ģ": 5036,
      "ë©Ķë¦¬": 5037,
      "ìķĦíĶĦë¦¬ì¹´": 5038,
      "Ġë¬¸ìŀĲ": 5039,
      "íĨ±": 5040,
      "íĻĶë¡ľ": 5041,
      "ĠêµŃê°ĢìĿĺ": 5042,
      "ĠìķĦë²Ħ": 5043,
      "ìĶ¨ìĿĺ": 5044,
      "ìĤŃ": 5045,
      "ĠëĤ´ìĹĲ": 5046,
      "Ġê¸Īìľµ": 5047,
      "ĠëĵĢ": 5048,
      "ĠìĹŃëĮĢ": 5049,
      "Ġêµ¬ì²´": 5050,
      "Ġì¡°íķ©": 5051,
      "99": 5052,
      "íĿ¡": 5053,
      "ê²½ìĿĢ": 5054,
      "ãĦ±ãĦ±": 5055,
      "ìĬ¤íİĺ": 5056,
      "Ġë¶ģëıĻ": 5057,
      "ìŀħëĭĪëĭ¤": 5058,
      "ĠëıĦëĭ¬": 5059,
      "ĠìŀĪìĹĪìľ¼ëĤĺ": 5060,
      "Ġìłķë¶Ģê°Ģ": 5061,
      "ì§ĦìĿĢ": 5062,
      "ĠìĬ¤íĶ¼": 5063,
      "Ġ1985": 5064,
      "ëģĿ": 5065,
      "ìĿ´ìĹĪìľ¼ëĤĺ": 5066,
      "ĠìĹ´ëĮĢ": 5067,
      "!!!": 5068,
      "Ġìļ¸ìĤ°": 5069,
      "Ġì¶ľë§Ī": 5070,
      "ĠëĬĲëĤĮ": 5071,
      "Ġëħ¸ìĺĪ": 5072,
      "ì°¨ë¡ľ": 5073,
      "Ġê°ľìłķ": 5074,
      "ĠíĶĦë¡ľê·¸ëŀ¨ìĿ´ëĭ¤": 5075,
      "ĠìĿ¸íĦ°ë·°": 5076,
      "êµŃìĹĲìĦľ": 5077,
      "500": 5078,
      "Ġë³´ê¸ī": 5079,
      "Ġê²°ê³¼ë¥¼": 5080,
      "Ġêµ¬ë³Ħ": 5081,
      "Ġë°©ì¶ľ": 5082,
      "ìĥīìĿĦ": 5083,
      "ì¶Ķìĸ´": 5084,
      "ĠìĿĺë£Į": 5085,
      "Ġëĭ¨ìĿ¼": 5086,
      "Ġíıīìĸĳ": 5087,
      "ĠíķĺëĬĺ": 5088,
      "Ġíĥľìĸ´ëĤĺ": 5089,
      "Ġê·¼ëĮĢ": 5090,
      "Ġë§Įíģ¼": 5091,
      "Ġëľ»ìĿ´": 5092,
      "ĠíĨµìłľ": 5093,
      "Ġ33": 5094,
      "ìłĢëĬĶ": 5095,
      "ëħĦìĹĲìĦľ": 5096,
      "Ġê±°ìłĪ": 5097,
      "ëĤĻ": 5098,
      "ëĭ¤ë©´": 5099,
      "ĠìłķëıĦìĿĺ": 5100,
      "Ġë§Īë¦¬ìķĦ": 5101,
      "Ġë¶ĢìĿ¸": 5102,
      "Ġìĺ¤ëŀĺëĲľ": 5103,
      "ëĭ¤ìĿĮìĿĢ": 5104,
      "Ġëª©ìłģ": 5105,
      "ĠìĦłê³ł": 5106,
      "ìĥĿìĿĺ": 5107,
      "íĮĮìĿ´": 5108,
      "ë©´ìĿ´": 5109,
      "ĠìĭĿë¬¼": 5110,
      "ë¨¹ê³ł": 5111,
      "ĠìķłíĶĮ": 5112,
      "Ġìĺ¤íŀĪëł¤": 5113,
      "ĠëĤĺìĿ´": 5114,
      "ìĨĮìĻĢ": 5115,
      "Ġíŀĺëĵ¤": 5116,
      "ĠëķĮìĹĲ": 5117,
      "ĠëĦĵìĿĢ": 5118,
      "ëªħê³¼": 5119,
      "ëł¹ìĿĦ": 5120,
      "ìĿĮìĹĲëıĦ": 5121,
      "ĠìĦ¸ìĽłëĭ¤": 5122,
      "Ġíĺķìłľ": 5123,
      "ìľ¨ìĿĦ": 5124,
      "Ġì¶Ķì¸¡": 5125,
      "ãħģ": 5126,
      "Ġìľ¼ë¡ľ": 5127,
      "Ġë³´ìĺĢëĭ¤": 5128,
      "Ġë²ĦìłĦ": 5129,
      "Ġëħ¼ìŁģ": 5130,
      "ëŁ¬ëĬĶ": 5131,
      "ìķĦìķĦ": 5132,
      "Ġìłľì¶ľ": 5133,
      "ĠëĮĢíĳľíĮĢ": 5134,
      "ĠìĤ´ê³ł": 5135,
      "íĻĶìĻĢ": 5136,
      "ìŀ¬ë¥¼": 5137,
      "ĠìĥĿê²¨": 5138,
      "Ġê³Ħê¸ī": 5139,
      "ĠìĤ¬ë§ĿíĸĪëĭ¤": 5140,
      "ë¦¬ìļ°": 5141,
      "Ġë§¡ê³ł": 5142,
      "ì¡°ì§ģ": 5143,
      "Ġíķ©ìĿĺ": 5144,
      "Ġìħ°": 5145,
      "Ġê³łêµ¬ëł¤": 5146,
      "ĠëĲĺë©´ìĦľ": 5147,
      "ĠëĲĺë©´": 5148,
      "ê¾": 5149,
      "ĠìĭłìķĻ": 5150,
      "ĠíĶĮë¡ľ": 5151,
      "ëĵľìĭľ": 5152,
      "ĠíĿĶíŀĪ": 5153,
      "Ġìĭľíĭ°": 5154,
      "ĠíĮĲê²°": 5155,
      "ĠíĬ¸ëŀĻ": 5156,
      "ê¸°ìĹĲìĦľ": 5157,
      "ãħĮãħĮ": 5158,
      "íĤ¤ìĬ¤íĥĦ": 5159,
      "ì¦ĿìĿĦ": 5160,
      "ĠìĿ´ëģĮê³ł": 5161,
      "Ġê³ĦíļįìĿĦ": 5162,
      "Ġíı¬íķ¨ëĲĺìĸ´": 5163,
      "ĠìĦłê±°ìĹĲìĦľ": 5164,
      "Ġìĭľì¦ĮìĿĦ": 5165,
      "ĠíķŃë³µ": 5166,
      "ìĬ¤ì¼Ģ": 5167,
      "Ġì¶©ì²ŃëĤ¨ëıĦ": 5168,
      "ĠìĹĶíĦ°íħĮìĿ¸ë¨¼": 5169,
      "ìĿ´ìĤ¬": 5170,
      "Ġë³´ëĥĪëĭ¤": 5171,
      "ìļĶìĭľ": 5172,
      "ëŀĲ": 5173,
      "Ġìŀ¥ê¸°": 5174,
      "ĠìĦ¤ì¹ĺëĲĺìĹĪëįĺ": 5175,
      "ëįĶëĿ¼ëıĦ": 5176,
      "íĽ": 5177,
      "Ġê·¸ëķĮ": 5178,
      "Ġíı¬ê¸°": 5179,
      "íŀĲ": 5180,
      "ìĿĮìĿ´": 5181,
      "Ġ2022": 5182,
      "íĥĢë¥¼": 5183,
      "Ġê±°ëĮĢíķľ": 5184,
      "ĠìķĦë¥´íĹ¨": 5185,
      "Ġì§ĢìĽĲìĿĦ": 5186,
      "ĠíĮĮìĿ¼": 5187,
      "Ġê´ĳê³ł": 5188,
      "ì¡°ìĤ¬": 5189,
      "ë§ĪìĿĺ": 5190,
      "ëĭ¤ìĭľ": 5191,
      "Ġë¬´ê¸°": 5192,
      "íħį": 5193,
      "ĠìĿ¼ë³¸ìĹĲìĦľ": 5194,
      "Ġë²Īì§¸ë¡ľ": 5195,
      "ĠíĦ°íĤ¤": 5196,
      "Ġëı¼": 5197,
      "íĺĳíļĮ": 5198,
      "Ġê·¸ìĹĲ": 5199,
      "ê³½": 5200,
      "Ġê¸¸ìĿ´ëĬĶ": 5201,
      "ìķĦë²Ħì§Ģ": 5202,
      "ĠìłľìŀĦìĬ¤": 5203,
      "ëłĪìĺ¤": 5204,
      "Ġìĺ¤íĶĪ": 5205,
      "ìĦĿìĿ´": 5206,
      "ĠíĪ¬ìŀħ": 5207,
      "Ġì£¼êµĲ": 5208,
      "Ġê·¸ìĹĲê²Į": 5209,
      "Ġë¨¸ë¬¼": 5210,
      "ĠíĸĪìľ¼ëĤĺ": 5211,
      "Ġìĭľìŀĳíķľ": 5212,
      "ë¤¼": 5213,
      "ë©į": 5214,
      "ĠëŁ¬ìĭľìķĦìĿĺ": 5215,
      "ê°ĦìĹĲ": 5216,
      "ĠìĥĿì¡´": 5217,
      "ëĬĶê±°": 5218,
      "ì§ĢìĿ´ëĭ¤": 5219,
      "ĠëĤŃ": 5220,
      "ë²ķìĿ´": 5221,
      "êµŃìľ¼ë¡ľ": 5222,
      "ìĦĿìĿĢ": 5223,
      "ĠíĬ¸ë¦¬": 5224,
      "ĠìłĲìĹĲìĦľ": 5225,
      "ìŀĲëĵ¤": 5226,
      "ĠìĨĶë¡ľ": 5227,
      "Ġìľµ": 5228,
      "ìłĦë¬¸": 5229,
      "ëĭ¹íĸĪëĭ¤": 5230,
      "ê·¸ëĿ¼": 5231,
      "ìħĪ": 5232,
      "ĠìĤ¬ìļ©íķĺê³ł": 5233,
      "ìĤ°ìĹĲ": 5234,
      "ìĸ¸ìĿĦ": 5235,
      "Ġë©¸ë§Ŀ": 5236,
      "ìĤ¬ìĿ¸": 5237,
      "ĠìºĦ": 5238,
      "ë¦¬ê²Į": 5239,
      "Ġë¨¹ê³ł": 5240,
      "ìľ¼ë¡ľëıĦ": 5241,
      "ìĿ´ë²Ī": 5242,
      "ìĬ¤ëŁ¬ìļ´": 5243,
      "ìĹŃìĿ´": 5244,
      "Ġë²łìĿ´ì§ķ": 5245,
      "ĠìĽĥ": 5246,
      "ĠìĽĲìłķ": 5247,
      "ĠëĮĢíķŃ": 5248,
      "íİĻ": 5249,
      "47": 5250,
      "Ġì²łíķĻ": 5251,
      "ê²½ê¸°ìĹĲ": 5252,
      "Ġì°¨ìĿ´ê°Ģ": 5253,
      "ãħı": 5254,
      "Ġë§ŀìķĦ": 5255,
      "ĠíķĺìĺĢê³ł": 5256,
      "íĥ±": 5257,
      "ëģĦ": 5258,
      "Ġìĺ¤ìłĦ": 5259,
      "ĠìĿ¸ê¸°": 5260,
      "ĠêµĲíĨł": 5261,
      "ìķĪìĿĺ": 5262,
      "ëįĺëį°": 5263,
      "Ġëľ»ìĿĦ": 5264,
      "ĠìĿ´ìķ¼ê¸°ë¥¼": 5265,
      "ëĴ¤": 5266,
      "Ġë»": 5267,
      "ìĪłìĿĦ": 5268,
      "ĠìĽĲìŀĳ": 5269,
      "ìĭľíĹĺ": 5270,
      "ëĭ¤ëĭĪ": 5271,
      "Ġë°ĺìĺģ": 5272,
      "ĠìłĦìĦ¤": 5273,
      "ì°¨ê°Ģ": 5274,
      "Ġë³¸ê´ĢìĿĢ": 5275,
      "Ġ1982": 5276,
      "Ġìĸĺ": 5277,
      "Ġìĺ¤ë¦¬": 5278,
      "Ġì´Īëĵ±íķĻêµĲìĿ´ëĭ¤": 5279,
      "ë£¸": 5280,
      "ĠìĦ¸ìĿ´": 5281,
      "ĠíĻľë°ľ": 5282,
      "ëłĺ": 5283,
      "ë§ĪëĬĶ": 5284,
      "ĠëĲĲëĭ¤": 5285,
      "ëĭ¹ê³¼": 5286,
      "Ġë¬´ìĹĩ": 5287,
      "ĠìķŀìĦľ": 5288,
      "Ġì°½ë¦½": 5289,
      "ĠëĤ¨ìĦľ": 5290,
      "íĮĲìĿĦ": 5291,
      "ĠíĭĢ": 5292,
      "ĠìĤŃ": 5293,
      "ìķ¨": 5294,
      "Ġ37": 5295,
      "ĠìłĦìļ©": 5296,
      "ì¤Ħê±°ë¦¬": 5297,
      "Ġëªħëªħ": 5298,
      "ìĦ¸ìĻĢ": 5299,
      "ĠìĨįíķľëĭ¤": 5300,
      "Ġë¬´ìŀ¥": 5301,
      "ĠìłĢì§Ģ": 5302,
      "ĠìĿ´íĥĪë¦¬ìķĦìĿĺ": 5303,
      "ëĤĺìĿ´íĭ°": 5304,
      "Ġê·¸ê²ĥìĿĦ": 5305,
      "ĠëıĻìĿĺ": 5306,
      "ìŀĲìĿ´": 5307,
      "ìĦ¸ë¡ľ": 5308,
      "ìĨĮë¦¬": 5309,
      "Ġì§ĢëĭĮ": 5310,
      "ëĦ¤ìĬ¤": 5311,
      "Ġìĭľê°ĦìĿĦ": 5312,
      "ìĿ¸ë¯¼ê³µíĻĶêµŃìĿĺ": 5313,
      "ĠìłľìĿ¼": 5314,
      "ĠíķĺëĤĺëĬĶ": 5315,
      "Ġìĵ¸": 5316,
      "ìĿ´ìĥģ": 5317,
      "ë¯¸ê°Ģ": 5318,
      "ĠìĿ´íĽĦìĹĲëĬĶ": 5319,
      "Ġê±´ì¡°": 5320,
      "ĠìŀĩëĬĶ": 5321,
      "Ġì§ľ": 5322,
      "ĠìĿĮìĭĿ": 5323,
      "Ġë§Īì¹¨": 5324,
      "Ġë´Ĳ": 5325,
      "Ġì£¼ê³ł": 5326,
      "Ġë²łìĿ´ìĬ¤": 5327,
      "ê°ĢìĹĲ": 5328,
      "ìĿµìĿĦ": 5329,
      "Ġíİł": 5330,
      "2021": 5331,
      "ê²Ķ": 5332,
      "Ġê¸°ëĮĢ": 5333,
      "ëł¸ê³ł": 5334,
      "ĠìķĦë©Ķë¦¬ì¹´": 5335,
      "íģ°": 5336,
      "ĠìłĲìĿĦ": 5337,
      "ê¾¼": 5338,
      "íĮ©": 5339,
      "ì¹ĺìĹĲ": 5340,
      "ìĥĿê°ģ": 5341,
      "ì¡´ëĤĺ": 5342,
      "ĠìĤ°ë§¥": 5343,
      "ĠëĮĢë¹Ħ": 5344,
      "ĠíĺĦìŀ¬ê¹Įì§Ģ": 5345,
      "33": 5346,
      "Ġìŀ¥ìķħ": 5347,
      "Ġìĥģëĭ¹íŀĪ": 5348,
      "55": 5349,
      "ëĪĦìĬ¤": 5350,
      "ĠíĮĢìĿ´": 5351,
      "ë¥ĺê°Ģ": 5352,
      "ìĿ´ìĹĪìľ¼ë©°": 5353,
      "ìłĢìļ°": 5354,
      "Ġëª¨ìĬ¤íģ¬ë°Ķ": 5355,
      "ë»": 5356,
      "Ġì§ĳìĹĲ": 5357,
      "ë§ĮìĽĲ": 5358,
      "ĠìĬ¤íĨł": 5359,
      "ìķ¤ìł¤": 5360,
      "ĠìłĦìŁģìĿĦ": 5361,
      "ëĿ¼ë¥¼": 5362,
      "Ġê²ĥì²ĺëŁ¼": 5363,
      "ì§Ģë©°": 5364,
      "ì£¼ë¯¼": 5365,
      "ĠìŀĲê²©": 5366,
      "ì§ĢìŀĲ": 5367,
      "ëŁ¬ê°Ģ": 5368,
      "ëĿ¼ìĿ´ìĸ¸": 5369,
      "Ġë¬¸íĻĶìŀ¬": 5370,
      "ì¡°ìĹĲ": 5371,
      "Ġì²ŃìĨĮëħĦ": 5372,
      "ĠìłĦíĽĦ": 5373,
      "ëĦ¨": 5374,
      "ìĤ¬ëŀĳ": 5375,
      "ìĹĲíĬ¸": 5376,
      "ĠìĬ¤íģ¬": 5377,
      "Ġë°±ìŀĳ": 5378,
      "ë¯¼êµŃìĿĺ": 5379,
      "ì¡°íķ©": 5380,
      "Ġë²łë¥¼ë¦°": 5381,
      "ĠìłľëĮĢë¡ľ": 5382,
      "ĠëĤĺì¹´": 5383,
      "ìĶ¨ê°Ģ": 5384,
      "ĠìĿ´ì¤ĳ": 5385,
      "Ġíķĺëĵľ": 5386,
      "ë³ĳìĿĦ": 5387,
      "Ġê¸°ëĭ¤": 5388,
      "ìĺ¬ë¦¼íĶ½": 5389,
      "ìłľêµŃ": 5390,
      "Ġê°Ħëĭ¨": 5391,
      "ĠìĹŃìŀĦíĸĪëĭ¤": 5392,
      "Ġê°ķìłľ": 5393,
      "Ġëľ»íķľëĭ¤": 5394,
      "íĥĲ": 5395,
      "ĠìĽĮìĭ±íĦ´": 5396,
      "ëĭĪìķĦìĿĺ": 5397,
      "ĠìĿĺì¡´": 5398,
      "ì½ĶëĬĶ": 5399,
      "ĠíĨµíķ´ìĦľ": 5400,
      "Ġ1983": 5401,
      "Ġì¡°ìĦłë¯¼ì£¼ì£¼ìĿĺìĿ¸ë¯¼ê³µíĻĶêµŃ": 5402,
      "Ġë°ľíĳľíķľ": 5403,
      "Ġë¶īìĿĢ": 5404,
      "Ġì²łëıĦìĹŃìĿ´ëĭ¤": 5405,
      "ĠìĿ´ë¥´ëĬĶ": 5406,
      "ìĿ¼ë³´": 5407,
      "ìĭľìĬ¤": 5408,
      "Ġ180": 5409,
      "Ġë°©ë²ķìĿĦ": 5410,
      "ĠëĤĺëĪ": 5411,
      "Ġê´Ģíķłíķľëĭ¤": 5412,
      "Ġë§İìķĦ": 5413,
      "ĠìĿ´ìľłëĬĶ": 5414,
      "ĠíĪ¬ìĪĺ": 5415,
      "ë¡łìĿĺ": 5416,
      "ĠìĿĺíļĮ": 5417,
      "ëĭ¨ê³¼": 5418,
      "Ġê°ģë³¸": 5419,
      "Ġê°Ķ": 5420,
      "ĠìķĮê²Į": 5421,
      "Ġíķ´ëĭ¹íķĺëĬĶ": 5422,
      "**": 5423,
      "ì²´ìľ¡": 5424,
      "Ġì¢ģ": 5425,
      "ĠíĮĢìĿĦ": 5426,
      "ĠìŀĳìłĦ": 5427,
      "ĠìĭĿë¯¼ì§Ģ": 5428,
      "ëłĲ": 5429,
      "Ġì·¨ëĵĿ": 5430,
      "Ġì·¨ê¸ī": 5431,
      "ĠíĸĪìľ¼ë©°": 5432,
      "ĠìĿ´ë¯¼": 5433,
      "Ġê³µìĤ°ì£¼ìĿĺ": 5434,
      "Ġë¹łë¥¸": 5435,
      "Ġì²ľë¬¸": 5436,
      "íĮĮëĬĶ": 5437,
      "ĠíĶ¼ìķĦëħ¸": 5438,
      "Ġê·ľì¹Ļ": 5439,
      "92": 5440,
      "ĠìĿ´ë¥¸": 5441,
      "Ġê°ľìĭľ": 5442,
      "ĠíĥľíĴį": 5443,
      "ĠìłĦìŁģìĿ´": 5444,
      "Ġê±°ëŀĺ": 5445,
      "ĠìŀĳíĴĪìĿĦ": 5446,
      "ĠìĿ¸ê³µ": 5447,
      "Ġë³´ì¡°": 5448,
      "Ġíĺ¼ëŀĢ": 5449,
      "ĠìĿ¼ìľ¼ì¼": 5450,
      "ìĭ¼": 5451,
      "ìĹ°ë§¹": 5452,
      "ĠëĦĺëĬĶ": 5453,
      "ĠíķľëķĮ": 5454,
      "ĠìĹ°ëĿ½": 5455,
      "Ġìĺ¨ëĿ¼ìĿ¸": 5456,
      "Ġë¶ĢíĻľ": 5457,
      "Ġê°ķìĿĺ": 5458,
      "ëĭĽ": 5459,
      "Ġì¶Ķì²ľ": 5460,
      "ĠìľĦíķ´ìĦľëĬĶ": 5461,
      "ìĺģìĿĢ": 5462,
      "ĠíķĺëĤĺëĭĺ": 5463,
      "Ġë¦°": 5464,
      "ìĿĺíļĮ": 5465,
      "Ġê¸ĪìĨį": 5466,
      "ë¿Ĳë§Į": 5467,
      "êµĲë¥¼": 5468,
      "ëĲĺëĬĶëį°": 5469,
      "Ġíķ¨ìĪĺ": 5470,
      "ĠìĸĳìĦ±": 5471,
      "ĠìĦľë¹ĦìĬ¤ë¥¼": 5472,
      "Ġê·¸ê±°": 5473,
      "Ġê³µìĭĿìłģìľ¼ë¡ľ": 5474,
      "íĬ¹ì§ķ": 5475,
      "Ġë¹łìł¸": 5476,
      "ëłĽ": 5477,
      "ĠìĥĿê¸´": 5478,
      "ìĺ¤ìĬ¤": 5479,
      "ë§ĪìĿĦ": 5480,
      "Ġë°Ľì§Ģ": 5481,
      "Ġì²ŃëħĦ": 5482,
      "Ġë³ĳìĤ¬": 5483,
      "ë¦¬ëĭ¤": 5484,
      "íĥł": 5485,
      "íŀĪëĬĶ": 5486,
      "ìĻķìĿ´": 5487,
      "Ġìļ´ìłĦ": 5488,
      "ĠìķŀìĹĲ": 5489,
      "ĠìĪĺìĥģíĸĪëĭ¤": 5490,
      "ĠëĿ¼ìĿ¸": 5491,
      "íİĺë¥´": 5492,
      "ë²Īì§¸ë¡ľ": 5493,
      "Ġë¡¯": 5494,
      "Ġë¹łë¥´ê²Į": 5495,
      "Ġê±´ë¦½": 5496,
      "ĠìĬ¤ì½ĶíĭĢëŀľëĵľ": 5497,
      "íĺķìľ¼ë¡ľ": 5498,
      "ĠìĤ¬ê±´ìĿĦ": 5499,
      "Ġë®": 5500,
      "ìĥĿìĿĦ": 5501,
      "ë¦¬ìłģ": 5502,
      "ìĦłìľ¼ë¡ľ": 5503,
      "Ġê°ĻìķĦ": 5504,
      "íĥĢë¥´": 5505,
      "ì°¾": 5506,
      "Ġë¶ĦìŁģ": 5507,
      "Ġë°ĢëıĦëĬĶ": 5508,
      "Ġì½ĺìĦľ": 5509,
      "ĠìľłìĤ¬íķľ": 5510,
      "ĠìĦ±ìłģ": 5511,
      "ĠíŀĲ": 5512,
      "Ġë°©íĸ¥ìľ¼ë¡ľ": 5513,
      "ì§Ŀ": 5514,
      "Ġì¤Ģìļ°": 5515,
      "2005": 5516,
      "Ġë¶ĢìŀĦ": 5517,
      "êµ¬ì¡°": 5518,
      "ê³Ħíļį": 5519,
      "Ġê²½ê³Ħ": 5520,
      "ĠìľłëĤĺìĿ´íĭ°": 5521,
      "Ġ400": 5522,
      "ëª¨ë¥¼": 5523,
      "ìĸĳìĿĺ": 5524,
      "ĠíĬ¸ëłĪìĿ´": 5525,
      "ìĹĲë§Į": 5526,
      "ìĹĲê²ĮìĦľ": 5527,
      "Ġê³³ìĹĲìĦľ": 5528,
      "ìĥĿë¬¼": 5529,
      "ĠìĪĺì§ĳ": 5530,
      "Ġëħ¼ìĿĺ": 5531,
      "Ġì²´ê³Ħ": 5532,
      "ìĭľíĤ¨ëĭ¤": 5533,
      "Ġìŀ¡ìķĦ": 5534,
      "98": 5535,
      "ìĭľìĹĲìĦľ": 5536,
      "ĠìĹŃìĿĦ": 5537,
      "Ġë¯¸ëĵľ": 5538,
      "ĠìĿĢíķĺ": 5539,
      "Ġë¶ĪìķĪ": 5540,
      "ìĭĿìĹĲ": 5541,
      "ĠëķĮë¶ĢíĦ°": 5542,
      "ê¹Ķ": 5543,
      "Ġíĸīìłķêµ¬": 5544,
      "ĠëªħìĿ´": 5545,
      "ĠìľĮ": 5546,
      "ĠìļĶìĨĮ": 5547,
      "Ġ1979": 5548,
      "Ġë¶ĻìĹ¬": 5549,
      "ĠíĿ¡ìĪĺ": 5550,
      "ĠíĥĿ": 5551,
      "ìģľ": 5552,
      "ìļ°ì£¼": 5553,
      "ëªħìĹĲ": 5554,
      "ê²½ìĿ´": 5555,
      "ëĿ¼ìĻĢ": 5556,
      "Ġë³´ëĤ¸": 5557,
      "Ġê±°ë¦¬": 5558,
      "Ġëĭ¬ëĿ¼": 5559,
      "ìĽ°": 5560,
      "ĠìŀĲëħĢ": 5561,
      "ì¢ĭìķĦ": 5562,
      "ê¹Ŀ": 5563,
      "ë¡łìĿĢ": 5564,
      "Ġë°Ķê¿": 5565,
      "ĠëĵĿíĳľ": 5566,
      "Ġë¯¸ëĶĶìĸ´": 5567,
      "Ġìļ´ìļ©": 5568,
      "íĶĦë¥¼": 5569,
      "ë³Ħë¡ľ": 5570,
      "ĠìļĶíķľ": 5571,
      "Ġì§Ħìŀħ": 5572,
      "Ġìĭłì²Ń": 5573,
      "ë¯¸ìĿĺ": 5574,
      "ĠìĤ¼ê°ģ": 5575,
      "Ġ1972": 5576,
      "ĠëıĻëĤ¨": 5577,
      "ĠìķĬìķĺê³ł": 5578,
      "Ġê¹ĬìĿĢ": 5579,
      "ĠëĨĴìķĦ": 5580,
      "ĠëıĦë§Ŀ": 5581,
      "ë¨¸ìĬ¤": 5582,
      "ê³łê°Ģ": 5583,
      "ĠíĹ¤ìĿ´": 5584,
      "ĠìłĦê³µ": 5585,
      "Ġê¸°ë¡Ŀíķľ": 5586,
      "Ġê¸°ìŀĲ": 5587,
      "ĠëĤ¨ìĿĢ": 5588,
      "ĠìĹĲìĸ´": 5589,
      "Ġ150": 5590,
      "ĠìĬ¬ë¡ľ": 5591,
      "Ġì«ĵ": 5592,
      "ĠìĬ¹ìĿ¸": 5593,
      "Ġê·¸ëŁ¬íķľ": 5594,
      "íĦ°ë¦¬": 5595,
      "ĠìĺĪì¸¡": 5596,
      "ĠëĬĺìĸ´": 5597,
      "ĠìķĮë°Ķ": 5598,
      "ìĹĪëĭ¤ê³ł": 5599,
      "ĠìĪĺìĤ¬": 5600,
      "ĠíĥĪì¶ľ": 5601,
      "Ġì¢ħë¥ĺìĿĺ": 5602,
      "Ġë³´ìŀ¥": 5603,
      "ĠíĨµê³Ħ": 5604,
      "ĠëŀŃ": 5605,
      "ê³µíĻĶêµŃ": 5606,
      "ê³¡ìĿĦ": 5607,
      "ĠíĻľëıĻíĸĪëĭ¤": 5608,
      "ê¸°ê¹Įì§Ģ": 5609,
      "ìłģìĿĺ": 5610,
      "46": 5611,
      "ìĺ·": 5612,
      "ĠíĽĦìĹĲëĬĶ": 5613,
      "ìĤ¬ë¬´": 5614,
      "ĠìĿ´ìļ©íķľ": 5615,
      "ĠíĸĪëįĺ": 5616,
      "ìłľìĻĢ": 5617,
      "ĠëĮĢê³µ": 5618,
      "ìķĦëĤĺ": 5619,
      "Ġë°ĺë°ľ": 5620,
      "ĠíĥĪëĿ½": 5621,
      "75": 5622,
      "42": 5623,
      "êµ¬ìĹĲìĦľ": 5624,
      "Ġì§ĢëĤ¸": 5625,
      "Ġì¤ĳìĿ´ëĭ¤": 5626,
      "190": 5627,
      "ë¡ľê·¸": 5628,
      "Ġë³´ì»¬": 5629,
      "ĠëłĮ": 5630,
      "Ġì¥Ĳ": 5631,
      "ê¸°ìķķ": 5632,
      "ĠìĭľìŀĳíķĺìĹ¬": 5633,
      "Ġëŀĺ": 5634,
      "Ġê¸°ìĪłìĿĦ": 5635,
      "ĠìĪĺìĽĲ": 5636,
      "Ġê½": 5637,
      "ĠëıħìŀĲ": 5638,
      "ĠëĮĢëŀµ": 5639,
      "ĠìĨĮìĪĺ": 5640,
      "Ġëī´ìĬ¤": 5641,
      "Ġìŀ¥ìĭĿ": 5642,
      "Ġìĺģìŀħ": 5643,
      "Ġíķ´ìĹĲ": 5644,
      "ë°¤": 5645,
      "Ġê°ĢìĿĦ": 5646,
      "íĺĦìĿĢ": 5647,
      "ìĤ°íĻĶ": 5648,
      "Ġì¶ľìŀħ": 5649,
      "Ġë¶Ģìĥģ": 5650,
      "Ġì§ĦíĻĶ": 5651,
      "íĨłëĭĪ": 5652,
      "ìŀĲìľł": 5653,
      "ĠëĮĢíķĻêµĲìĹĲìĦľ": 5654,
      "Ġê²ĥìĿ´ëĿ¼": 5655,
      "ĠêµŃìłľê³µíķŃ": 5656,
      "Ġ1981": 5657,
      "ĠìłĦì²ł": 5658,
      "ì§ĦìĿĺ": 5659,
      "ë°ķë¬¼": 5660,
      "ĠìĿ´ìļ©íķ´": 5661,
      "ë¯¸ë¥¼": 5662,
      "Ġë¸Įë¦¬": 5663,
      "Ġì¡°ìłĪ": 5664,
      "Ġ1973": 5665,
      "ĠìĿ´ë¤Ħ": 5666,
      "ì°¨ëĬĶ": 5667,
      "ìĺĢìľ¼ëĤĺ": 5668,
      "íĭ°ëħ¸": 5669,
      "ĠíĬ¹ë³Ħíķľ": 5670,
      "Ġê±´êµŃ": 5671,
      "íĦ°ë¥¼": 5672,
      "íħĮëĦ¤": 5673,
      "Ġë¬¸íĹĮ": 5674,
      "ĠìĪŃ": 5675,
      "ĠíĶĮëĿ¼": 5676,
      "Ġê³µíĨµ": 5677,
      "ëĦ¤ìĿ´": 5678,
      "ë¥Ń": 5679,
      "ĠìĦ±ìĿ¸": 5680,
      "ìĿ´ë©´": 5681,
      "ëłĪìĿ¸": 5682,
      "ë£¨ëĬĶ": 5683,
      "Ġë°ľíĳľíķĺìĺĢëĭ¤": 5684,
      "ĠìĹĨëĭ¤ëĬĶ": 5685,
      "Ġë°ĽìĿĦ": 5686,
      "ìłĦê³¼": 5687,
      "ĠìĭłìĿ¸": 5688,
      "ë¬µ": 5689,
      "Ġìłľê³µíķľëĭ¤": 5690,
      "95": 5691,
      "ìķĦì§ģ": 5692,
      "ĠìĻķêµŃ": 5693,
      "Ġìĸ´ëĸł": 5694,
      "100": 5695,
      "Ġë§Īìĵ°": 5696,
      "íĨµìĿĦ": 5697,
      "ìĿ´ê±°": 5698,
      "ê¸°ë¡Ŀ": 5699,
      "Ġëª¨ë¦¬": 5700,
      "Ġê°¤": 5701,
      "ĠìķĦëĵ¤ìĿ´": 5702,
      "Ġë²ķì¹Ļ": 5703,
      "ìĺ´": 5704,
      "ëıĻìľ¼ë¡ľ": 5705,
      "ĠìĦłë³´": 5706,
      "ëł¤ìĦľ": 5707,
      "ãħĭãħĭãħĭãħĭãħĭãħĭãħĭãħĭãħĭãħĭãħĭãħĭ": 5708,
      "ê²łëĭ¤ëĬĶ": 5709,
      "Ġêµ¬ìĨį": 5710,
      "ê°ķìłĲ": 5711,
      "ìĹ°íŀĪ": 5712,
      "Ġì£¼ìĭĿ": 5713,
      "ì¢ħìĿĦ": 5714,
      "ĠíĶĦë¦¬ë¯¸": 5715,
      "ëıĻìĥĿ": 5716,
      "Ġ1920": 5717,
      "ì§Ģë§Ī": 5718,
      "Ġìĵ°ëĬĶ": 5719,
      "ĠìĹĲëıĦ": 5720,
      "Ġë²¨ê¸°ìĹĲ": 5721,
      "Ġì²ĺìĿĮìĹĲëĬĶ": 5722,
      "Ġìĸ»ìĸ´": 5723,
      "Ġìĺ¤íĨł": 5724,
      "Ġêµ°ëĮĢë¥¼": 5725,
      "ë³´ë©´": 5726,
      "ĠëĤĺìĻĶëĭ¤": 5727,
      "ĠëĳĲìĹĪëĭ¤": 5728,
      "Ġê²Ĳ": 5729,
      "Ġìĭľìŀĳìľ¼ë¡ľ": 5730,
      "ĠëĮĦ": 5731,
      "íĨµìĭł": 5732,
      "Ġì§ĳíĸī": 5733,
      "ì§ĢìĿ¸": 5734,
      "ìķŀ": 5735,
      "Ġë°ľê²¬ëĲľ": 5736,
      "ë¦°ìĿĢ": 5737,
      "ì°¨ìĽĲ": 5738,
      "Ġêº": 5739,
      "Ġì½Ķë¡ľëĤĺ": 5740,
      "Ġì´Ŀë¦¬": 5741,
      "Ġíĺ¼ìŀĲ": 5742,
      "Ġë¯¸ëĭĪ": 5743,
      "ìķĪìĿĢ": 5744,
      "Ġ1930": 5745,
      "Ġìļ´ëıĻìĿĦ": 5746,
      "Ġíıīê°Ģë¥¼": 5747,
      "ĠëıĦì¤ĳ": 5748,
      "Ġíı¬ìľĦ": 5749,
      "ëĦĪëĬĶ": 5750,
      "íĻĶëĲĺìĸ´": 5751,
      "ĠìĿ´íĽĦë¡ľ": 5752,
      "ĠìĪĺìĨ¡": 5753,
      "ĠìĥģìĬ¹": 5754,
      "íĻĶëĲĺìĹĪëĭ¤": 5755,
      "ĠìĿ¼ë¶ĢëĬĶ": 5756,
      "ì©Į": 5757,
      "Ġëľ»ìľ¼ë¡ľ": 5758,
      "Ġê²ĢìĤ¬": 5759,
      "Ġìħĭ": 5760,
      "ĠìłĲìłĲ": 5761,
      "ĠìĻ¸ë¶Ģ": 5762,
      "ì§Ģì»¬": 5763,
      "Ġë¶Īë²ķ": 5764,
      "ĠíĶ¼íķ´ë¥¼": 5765,
      "ĠìĤ¬íĥľ": 5766,
      "¥¬": 5767,
      "Ġê°Ģë¬¸": 5768,
      "Ġëĵ±ê¸ī": 5769,
      "Ġì£¼ìĸ´": 5770,
      "ĠìĻĦë£Į": 5771,
      "ĠíĤ¹": 5772,
      "ëĶĶìħĺ": 5773,
      "Ġì´Ŀëıħ": 5774,
      "ĠìĿ´ìłĦìĿĺ": 5775,
      "ĠìĤ¬ìļ©ëĲĺê³ł": 5776,
      "Ġëĭ¤ë¥´ëĭ¤": 5777,
      "ĠëģĿëĤľ": 5778,
      "ĠíŀĪëį°": 5779,
      "ìĻĢìĦľ": 5780,
      "ìŀ¬íĮĲ": 5781,
      "ë¥´ê°Ģ": 5782,
      "Ġìľ¡ìĥģ": 5783,
      "ìĥģíĥľ": 5784,
      "ë´Ħ": 5785,
      "ĠëĶ±": 5786,
      "????": 5787,
      "Ġì²ŃëĤĺëĿ¼": 5788,
      "Ġì´ĮìĿ´ëĭ¤": 5789,
      "ĠìŀĲìĤ´": 5790,
      "Ġê³µê°ľëĲľ": 5791,
      "ìĺĮ": 5792,
      "ĠíĶĦë¡ľìĦ¸": 5793,
      "ĠíĶĦë¡ľìłĿíĬ¸": 5794,
      "Ġìŀ¥ê´Ģ": 5795,
      "Ġìį¼ëĭ¤": 5796,
      "Ġëª©íĳľë¡ľ": 5797,
      "Ġìĺ¬ë¦¬": 5798,
      "ë²Ħê·¸": 5799,
      "Ġìĥģë¥Ļ": 5800,
      "Ġëŀľ": 5801,
      "íĮ¬": 5802,
      "ëĥĲê³ł": 5803,
      "ì§Ģìĸ´": 5804,
      "Ġì§ĢìĭĿ": 5805,
      "Ġì¶ľìĭłìľ¼ë¡ľ": 5806,
      "ìĿ´ì¦Ī": 5807,
      "ĠíĽĦìĨį": 5808,
      "Ġê²ĥìĿ´ë©°": 5809,
      "Ġê²½ê¸°ëĬĶ": 5810,
      "ĠëĬĲëģ¼": 5811,
      "ãħ¡ãħ¡": 5812,
      "ĠìĹ°ê´Ģ": 5813,
      "ìĿĳìĿĳ": 5814,
      "Ġíķ©ê²©": 5815,
      "ìĿ¼ë°ĺ": 5816,
      "ĠíĶĦëŀĢ": 5817,
      "ëĬĶì§Ģ": 5818,
      "ĠìĿ´ê²ĥìĿĦ": 5819,
      "ĠìĥģíĴĪ": 5820,
      "Ġê³µíĻĶ": 5821,
      "ĠëĮĢë¶Ģë¶ĦìĿĢ": 5822,
      "ëĵŃ": 5823,
      "ê³µìĤ¬": 5824,
      "Ġì¡´ìŀ¬íķĺëĬĶ": 5825,
      "ë¯¸ëĭĪ": 5826,
      "ĠìĿ´ëĵ¤ìĿĺ": 5827,
      "ìŀ¥ìĿ¸": 5828,
      "ì£¼ìļĶ": 5829,
      "ëĩ¨": 5830,
      "Ġì³Ĳ": 5831,
      "Ġë¹Ħë¡Ŀ": 5832,
      "Ġëĺĳ": 5833,
      "Ġì§Ħìķķ": 5834,
      "íĪ°": 5835,
      "ìłķíĿ¬": 5836,
      "ĠíĸīìĦ±": 5837,
      "Ġê²ĥìĿ´ëĿ¼ëĬĶ": 5838,
      "ë¨¸ë¦¬": 5839,
      "ì¹ľêµ¬": 5840,
      "ĠëıħíĬ¹": 5841,
      "Ġ1974": 5842,
      "ĠëĬ¥ëł¥ìĿĦ": 5843,
      "ë¯¼ì£¼ëĭ¹": 5844,
      "Ġê°ĳìŀĲê¸°": 5845,
      "ìĽĲëŀĺ": 5846,
      "Ġë°Ľê²Į": 5847,
      "ĠíĮĿ": 5848,
      "ĠêµŃê²½": 5849,
      "ĠëĤ´ìĿĺ": 5850,
      "ãħħãħĤ": 5851,
      "Ġë³µíķ©": 5852,
      "ĠíĸĪëĬĶëį°": 5853,
      "ê±°ìļ´": 5854,
      "ĠëıĮìķĦê°Ģ": 5855,
      "íķ´ê°Ģ": 5856,
      "Ġë°Ľìķĺê³ł": 5857,
      "ìŀİ": 5858,
      "ë±Ģ": 5859,
      "ĠìĿ¼ìłķ": 5860,
      "ì£¼ìĿĺë¥¼": 5861,
      "ë¯¸ëħ¸": 5862,
      "ìľĦìĻĢ": 5863,
      "ì§ĦìĿ´": 5864,
      "ĠëķĮìĿĺ": 5865,
      "ì§Īëŀľëĵľ": 5866,
      "ĠíĻľëıĻíķĺìĺĢëĭ¤": 5867,
      "ĠëĤĺíĥĢëĤ´ëĬĶ": 5868,
      "2004": 5869,
      "Ġìłķì¹ĺìĿ¸ìĿ´ëĭ¤": 5870,
      "íĺĦìĿĺ": 5871,
      "Ġ55": 5872,
      "ĠíĬ¸ë¡ľ": 5873,
      "ĠìĤ¬ê±´ìĿ´": 5874,
      "Ġì§Ģìĸ´": 5875,
      "Ġì§ĢíĤ¤": 5876,
      "ĠìĦłìĪĺê°Ģ": 5877,
      "Ġ1000": 5878,
      "íķĻìĹĲìĦľ": 5879,
      "Ġë³Ģê²½ëĲĺìĹĪëĭ¤": 5880,
      "íİĺìĿ´": 5881,
      "Ġëħ¸ë¶Ģ": 5882,
      "Ġì·¨ìĨĮ": 5883,
      "ì¡°ê±´": 5884,
      "ëĲĺìĹĪìĿĦ": 5885,
      "ë§Īìĵ°": 5886,
      "Ġì£¼ëĳĶ": 5887,
      "ĠëłĪì½ĶëĵľìĹĲ": 5888,
      "ĠìĤ¼êµŃ": 5889,
      "íķľëį°": 5890,
      "Ġ1975": 5891,
      "Ġë§ĲëłĪìĿ´": 5892,
      "Ġì¸µ": 5893,
      "Ġãħİ": 5894,
      "Ġë³ĢíĻĺ": 5895,
      "Ġíı¬íķ¨íķĺìĹ¬": 5896,
      "ĠìĻ¼ìª½": 5897,
      "Ġë°ĺëĵľìĭľ": 5898,
      "ĠëłĪëĵľ": 5899,
      "Ġë³Ħë¡ľ": 5900,
      "Ġì°¨ìĿ´": 5901,
      "ĠìĿĳìļ©": 5902,
      "Ġìłķì±ħìĿĦ": 5903,
      "ĠìĿ¸ëıĦëĦ¤ìĭľìķĦ": 5904,
      "ëıĻë¬¼": 5905,
      "Ġìļ°ëł¤": 5906,
      "Ġë²łìĬ¤íĬ¸": 5907,
      "Ġë§ŀìĿ´": 5908,
      "ìĬ¤íĶ¼": 5909,
      "ê´Ģê³Ħ": 5910,
      "ĠêµĲíĻĺ": 5911,
      "ĠìĹ´ëł¸ëĭ¤": 5912,
      "ĠëģĿëĤĺ": 5913,
      "Ġê·¸ëŁ°ëį°": 5914,
      "ëĵ¤ìĿ´ëĭ¤": 5915,
      "ë°©ìĿĦ": 5916,
      "ìħī": 5917,
      "ê°ĢëĿ½": 5918,
      "ĠíĻľìĦ±": 5919,
      "96": 5920,
      "ĠìĹ°ì¶ľ": 5921,
      "ìĹĪìĸ´": 5922,
      "ìĪ¨": 5923,
      "ì¯¤": 5924,
      "Ġíķ´ìĤ°": 5925,
      "Ġê°ĪëĿ¼": 5926,
      "Ġ1978": 5927,
      "ĠìķĮëł¤ì¡Įëĭ¤": 5928,
      "íĻĪ": 5929,
      "ĠìĨĮëħĢ": 5930,
      "Ġê°ľë°ľíķľ": 5931,
      "ìĿ´ê²Į": 5932,
      "ìĬ¤íı¬": 5933,
      "Ġì¶ľìĹ°íķĺìĺĢëĭ¤": 5934,
      "íĨłìĿĺ": 5935,
      "Ġì±Ħìļ©": 5936,
      "Ġíĸ¥ìĥģ": 5937,
      "ĠìĽ¨ìĬ¤íĬ¸": 5938,
      "ĠìľĦë°ĺ": 5939,
      "ĠìłĦíĻĶ": 5940,
      "Ġì°¸ìłĦ": 5941,
      "ëŀĲëĭ¤": 5942,
      "Ġì°¨íĬ¸": 5943,
      "ĠëĮĢìĦ±": 5944,
      "íķĺìĺĢì§Ģë§Į": 5945,
      "ĠíķĻìľĦë¥¼": 5946,
      "ĠíĶĮëłĪìĿ´ìĺ¤íĶĦ": 5947,
      "Ġê³µìĿĦ": 5948,
      "Ġê¸°ë¡ĿíķĺìĺĢëĭ¤": 5949,
      "ìĸ´ëĶĶ": 5950,
      "ĠêµĲìľ¡ìĿĦ": 5951,
      "íį¼ëĵľ": 5952,
      "íĥĢì¹´": 5953,
      "ĠìĦłêµĲ": 5954,
      "ĠìŀĳíĴĪìĿĢ": 5955,
      "Ġë§Īë¦¬": 5956,
      "ë¬´ë¦¬": 5957,
      "Ġëħ¼ëŀĢìĿ´": 5958,
      "íķ´ìļĶ": 5959,
      "ĠìĥĿëªħ": 5960,
      "ĠìĻķêµŃìĿĺ": 5961,
      "Ġìłľìĸ´": 5962,
      "ĠíĥĢìĿ´ìĻĦ": 5963,
      "Ġê·¸ëĵ¤ìĿ´": 5964,
      "Ġê°ľìµľëĲľ": 5965,
      "Ġë§Ĳìķĺëĭ¤": 5966,
      "Ġë°°ì¶ľ": 5967,
      "Ġë²¡": 5968,
      "Ġ1976": 5969,
      "Ġê²Ģì°°": 5970,
      "ìĦłê³¼": 5971,
      "ĠìĦ¸ì¢ħ": 5972,
      "ĠìĤ¬íķŃ": 5973,
      "ëĵľëłĪ": 5974,
      "ĠìĹ°êµ¬ë¥¼": 5975,
      "íħĲì¸ł": 5976,
      "ê²ĮëĬĶ": 5977,
      "Ġì¶ľê°Ħ": 5978,
      "ìĭłêµĲ": 5979,
      "ê³µìĽĲ": 5980,
      "ë©´ìľ¼ë¡ľ": 5981,
      "Ġë¶ĦìľĦ": 5982,
      "ĠíĴįë¶Ģ": 5983,
      "Ġëĵ¤ìĸ´ìĦľ": 5984,
      "ĠìłľìĻ¸íķĺê³ł": 5985,
      "Ġë§Īì§Ģë§īìľ¼ë¡ľ": 5986,
      "Ġìĭľì¦ĮìĹĲ": 5987,
      "ë¶ĢìĿ¸": 5988,
      "Ġìĵ°ê³ł": 5989,
      "íĪ¬ìĬ¤": 5990,
      "ê¸°ëħĲ": 5991,
      "88": 5992,
      "Ġëľ¨": 5993,
      "Ġë³´ìķĦ": 5994,
      "Ġì°½ì¡°": 5995,
      "ĠëıĻìĦ±": 5996,
      "Ġì°¨ë³Ħ": 5997,
      "Ġìķī": 5998,
      "Ġìĺ¤íİĺ": 5999,
      "Ġìĺ¬ëł¤": 6000,
      "Ġë³´ê´Ģ": 6001,
      "Ġíķ©ìĦ±": 6002,
      "Ġ1971": 6003,
      "Ġ1940": 6004,
      "ĠìĹ°ìŀ¬": 6005,
      "ìĭľìŀ¥": 6006,
      "Ġì§ĢëĭĪ": 6007,
      "Ġê³łìĨį": 6008,
      "ĠëıĻìŀĳ": 6009,
      "ĠëĨĴìĿ´ëĬĶ": 6010,
      "Ġë¦¬ëįĶ": 6011,
      "ĠìĭłìĦ±": 6012,
      "ĠìķĬìľ¼ë©°": 6013,
      "ì°¨ìłĦ": 6014,
      "ë°ĺëıĦ": 6015,
      "Ġì±ĶíĶ¼ìĸ¸ìĭŃ": 6016,
      "44": 6017,
      "ìĦ¸íķľ": 6018,
      "Ġì±ĶíĶ¼ìĸ¸ìĬ¤ë¦¬ê·¸": 6019,
      "Ġê·¸ìĻĢ": 6020,
      "ĠìĨĮìŀ¥": 6021,
      "ì´": 6022,
      "ë¯¸ë¥´": 6023,
      "Ġì¡°ìŀĳ": 6024,
      "íĮ¨ë¥¼": 6025,
      "Ġë§¡ìķĦ": 6026,
      "Ġëĭ¤ìĪĺìĿĺ": 6027,
      "Ġì£¼íĥĿ": 6028,
      "ì£¼ìĿĺìĿĺ": 6029,
      "Ġê°ģê°ģìĿĺ": 6030,
      "íĳ": 6031,
      "ĠìŀĲìĿ´": 6032,
      "ĠìłĦëĿ¼ë¶ģëıĦ": 6033,
      "Ġêº¾": 6034,
      "Ġìŀ¥êµ°": 6035,
      "ë®¤ëĭĪ": 6036,
      "Ġë¡¯ëį°": 6037,
      "ì½ĶìĿĺ": 6038,
      "ĠíĿī": 6039,
      "ĠìķĦëĵ¤ë¡ľ": 6040,
      "ë¬¸ìłľ": 6041,
      "Ġì¹ĺëŁ¬": 6042,
      "ë§ĿìĿĦ": 6043,
      "ĠìĿĮë°ĺìĿĢ": 6044,
      "ĠìĨĮëħĦ": 6045,
      "Ġíĺķíĥľë¥¼": 6046,
      "ĠëĨįë¯¼": 6047,
      "ĠìłķíĻķíķľ": 6048,
      "ì¡°ë¡ľ": 6049,
      "Ġê²½ìļ°ëĬĶ": 6050,
      "Ġ1968": 6051,
      "ĠìĤ¬ë²ķ": 6052,
      "ĠìĬ¤íĭ°": 6053,
      "Ġê°ĲëıħìĿĦ": 6054,
      "Ġì£¼ê´Ģ": 6055,
      "íĮĮë¥¼": 6056,
      "ĠêµŃë¬´": 6057,
      "Ġíļ¨ìľ¨": 6058,
      "ê°ľíĺģ": 6059,
      "ĠëĤ¸": 6060,
      "ìĹ¥": 6061,
      "ĠëĳĺëŁ¬ìĭ¸": 6062,
      "ìĿ¼ê³¼": 6063,
      "Ġë²¼": 6064,
      "ë¥ĺëĬĶ": 6065,
      "íĻľëıĻ": 6066,
      "Ġíĥģ": 6067,
      "ê°Ĳëıħ": 6068,
      "Ġê²½ìĦ±": 6069,
      "Ġë¬¶": 6070,
      "Ġíı¬íķ¨íķľëĭ¤": 6071,
      "Ġíĥľìĸ´ëĤ¬ìľ¼ë©°": 6072,
      "Ġíı¬ëıĦ": 6073,
      "ĠìĿĺë¬´": 6074,
      "íĸīìľĦ": 6075,
      "ĠìŀĳíĴĪìĿ´ëĭ¤": 6076,
      "Ġê°Ģì¡Įëĭ¤": 6077,
      "Ġë¹Ļ": 6078,
      "ĠíĮĮìķħ": 6079,
      "íķĺëĭĪ": 6080,
      "ĠëĮĢê¸°": 6081,
      "ìłĦíĪ¬": 6082,
      "íķ´ìł¸": 6083,
      "ê³łìĨįëıĦë¡ľ": 6084,
      "76": 6085,
      "ê°ľë¡ľ": 6086,
      "ëĮĢì¤ĳ": 6087,
      "ĠëıĻìĽĲ": 6088,
      "ãħİãħİãħİ": 6089,
      "ë¶ĢíĦ°ëĬĶ": 6090,
      "ì¹´ê³ł": 6091,
      "ì²¸": 6092,
      "ĠíĦ°ëĦĲ": 6093,
      "ĠìĦ±ëĬ¥": 6094,
      "Ġë°ĽëĬĶëĭ¤": 6095,
      "Ġë°©ìĺģëĲľ": 6096,
      "Ġ1969": 6097,
      "ìį": 6098,
      "ì¹ĺìĻĢ": 6099,
      "Ġìĭłë¢°": 6100,
      "Ġìµľëĭ¤": 6101,
      "ĠíķĻë¬¸": 6102,
      "ĠëĶ°ë¡ľ": 6103,
      "Ġì§Ģê¸ī": 6104,
      "Ġë¶Ħíķł": 6105,
      "Ġë°©ìĤ¬": 6106,
      "Ġê±°ëĳĲìĹĪëĭ¤": 6107,
      "ĠëĤĺìĿ´ë¡ľ": 6108,
      "Ġëĳĺì§¸": 6109,
      "Ġë§Īì¼Ģ": 6110,
      "ĠíĽĦê¸°": 6111,
      "Ġê°ĸëĬĶ": 6112,
      "ìĤ¬ìĿ´íĬ¸": 6113,
      "ĠìĬ¹ì§Ħ": 6114,
      "ĠëĲĺìŀĲ": 6115,
      "Ġëĭ¥": 6116,
      "ãħłãħłãħł": 6117,
      "ëĮĢìĭł": 6118,
      "Ġ75": 6119,
      "ìĿ´ë¯Ģë¡ľ": 6120,
      "Ġìĺ¤ë¥¸ìª½": 6121,
      "ĠìŀĪìĿĮìĿĦ": 6122,
      "Ġë§Įì£¼": 6123,
      "ë°°ê²½": 6124,
      "Ġê³µêµ°": 6125,
      "ĠìĦľë²Ħ": 6126,
      "ĠìĨįíķľ": 6127,
      "Ġê¸ĢìĿĦ": 6128,
      "Ġë¡ľë²ĦíĬ¸": 6129,
      "Ġì§Ģë¶ķ": 6130,
      "ë¹ĦìĹĲ": 6131,
      "Ġì§Ģë°©ìĿĺ": 6132,
      "Ġì¶ľìĭľëĲĺìĹĪëĭ¤": 6133,
      "ê°Ģìĭľ": 6134,
      "ìķ¤ìł¤ëłĪìĬ¤": 6135,
      "ìĦĿìĿĺ": 6136,
      "Ġëĭ¨ëıħ": 6137,
      "ĠëªħíĻķ": 6138,
      "Ġìŀ¬ê±´": 6139,
      "Ġëª¨ìĹ¬": 6140,
      "Ġê³Ħê¸°ë¡ľ": 6141,
      "ĠìĪĺìĺģ": 6142,
      "ĠìłĢìŀĳ": 6143,
      "ĠìłģìłĪ": 6144,
      "Ġë§¤ìĿ¼": 6145,
      "Ġë°ľê²¬ëĲĺìĹĪëĭ¤": 6146,
      "ê±į": 6147,
      "ì±ħìĿĦ": 6148,
      "Ġãħľãħľ": 6149,
      "íĶĦëŀĢ": 6150,
      "ĠëĤĺëıĦ": 6151,
      "ĠíķĺëĤĺìĿ¸": 6152,
      "ë¼Ī": 6153,
      "Ġìĥģëĭ¹íķľ": 6154,
      "ĠìĿ´ë£¨ìĸ´ì¡Įëĭ¤": 6155,
      "Ġì¤ĳíĻĶë¯¼êµŃ": 6156,
      "Ġë¶ĦìĹ´": 6157,
      "Ġì¼Ħ": 6158,
      "ĠíķľêµŃìĹĲìĦľ": 6159,
      "ĠìĦ¸ëł¥": 6160,
      "íģ¬ë¦¬ìĬ¤": 6161,
      "ĠëĤĺíĥĢëĤľëĭ¤": 6162,
      "ìĽħìĽħ": 6163,
      "ĠìĿ¸ìłĳ": 6164,
      "Ġëĵ¤ê³ł": 6165,
      "ĠìŀĳìĹħìĿĦ": 6166,
      "ë³´íĨµ": 6167,
      "Ġìĺ¬ëŀĲ": 6168,
      "Ķê°Ģ": 6169,
      "ìĭ¤ìĿĢ": 6170,
      "Ġíģ¬ê³ł": 6171,
      "ĠíķĻìĬµ": 6172,
      "ĠìĿ¼ì¹ĺ": 6173,
      "Ġìłķë§Ĳ": 6174,
      "ë£°": 6175,
      "ĠìŀĲìĭłëĵ¤ìĿĺ": 6176,
      "Ġíķ´ìĸĳ": 6177,
      "Ġêµ°ì£¼": 6178,
      "Ġì¤ĳìĦ¸": 6179,
      "Ġë§ĲìĹĲ": 6180,
      "ĠíļĮìłĦ": 6181,
      "Ġëª¨ìĸĳìĿĺ": 6182,
      "Ġë¬´ìĭľ": 6183,
      "íĦ°ìĿĺ": 6184,
      "Ġê°ĲëıħìĿ´": 6185,
      "Ġíķľìłķ": 6186,
      "ìĺ¨ìĿĢ": 6187,
      "íĺĶ": 6188,
      "Ġìĸ´ëĸłíķľ": 6189,
      "Ġíı¬íķ¨íķĺê³ł": 6190,
      "ĠìłĦíĨµìłģìĿ¸": 6191,
      "ĠíĤ¬": 6192,
      "ëħ¹": 6193,
      "Ġë°ĶëĿ¼": 6194,
      "ĠíĶĦë¡ľê·¸ëŀ¨ìĿĦ": 6195,
      "Ġìĭ¤ì§Ī": 6196,
      "íķĻìĿĢ": 6197,
      "ëĮĢêµ¬": 6198,
      "ëĵ¤ë¡ľë¶ĢíĦ°": 6199,
      "Ġ1963": 6200,
      "ĠìĸĳìŀĲ": 6201,
      "ìħĢë¡ľ": 6202,
      "ëıħë¦½": 6203,
      "ìĤ¬ê´Ģ": 6204,
      "ì¦Ĳ": 6205,
      "Ġëįľ": 6206,
      "Ġìĺģìĥģ": 6207,
      "ê°Ģì¡±": 6208,
      "Ġìľłíĸī": 6209,
      "ì¡°íĮĲ": 6210,
      "ëŀ´": 6211,
      "Ġë¨¹ìĿĦ": 6212,
      "ìľ¼ë¡ľìĦľìĿĺ": 6213,
      "ì§ĪìĿ´": 6214,
      "Ġì§Ħë³´": 6215,
      "ĠìĹ¬ê¸°ìĹĲ": 6216,
      "ëĤĺìļĶ": 6217,
      "íĦ°ê°Ģ": 6218,
      "ë¦ĦìĿĦ": 6219,
      "ĠìĿ´íĽĦìĿĺ": 6220,
      "Ġì¢Įìļ°": 6221,
      "Ġìĸ´ë¦°ìĿ´": 6222,
      "ĠìĹŃìĤ¬ìłģ": 6223,
      "ĠíĶĦë¡ľëĵĢìĦľ": 6224,
      "Ġíķ´ëıĦ": 6225,
      "ë³µìĿĦ": 6226,
      "ìĭľë¦¬ì¦Ī": 6227,
      "ëĤ¬ê³ł": 6228,
      "65": 6229,
      "ìŀĲë£Į": 6230,
      "ìĬ¨ìĿĺ": 6231,
      "Ġ...": 6232,
      "íĳľë¥¼": 6233,
      "77": 6234,
      "ĠìĺĪë¹Ħ": 6235,
      "íĭ°ìĬ¤íĬ¸": 6236,
      "ê°ķìĿĺ": 6237,
      "ê¹¥": 6238,
      "Ġì§ĢëĤ´": 6239,
      "ĠìŀĲê·¹": 6240,
      "ĠëĤĺì¹ĺ": 6241,
      "ĠìĨĮìĨįìľ¼ë¡ľ": 6242,
      "Ġì²ľìĹ°": 6243,
      "ĠìĿĮìķħìĿĦ": 6244,
      "ìĨĮìĨ¡": 6245,
      "íķĺìĦ¸ìļĶ": 6246,
      "ìĻķìĿĢ": 6247,
      "ë£¨ê°Ģ": 6248,
      "Ġë³´ìķĪ": 6249,
      "Ġë¹¼ìķĹ": 6250,
      "íĮĲìĿ´": 6251,
      "Ġê´ľì°®": 6252,
      "ĠëĮĢíĨµëł¹ìĿ´": 6253,
      "ì¹ĺìķĦ": 6254,
      "íĶĦëĿ¼": 6255,
      "íķ©ëĭĪëĭ¤": 6256,
      "Ġì½ĺìĬ¤íĥĦ": 6257,
      "Ġì¤ĳìĿ¸": 6258,
      "ì¿łìĬ¤": 6259,
      "Ġíļ¡": 6260,
      "ĠìĿĺë¯¸ë¥¼": 6261,
      "ĠìĤ½": 6262,
      "ĠíĬ¹ìĿ´": 6263,
      "Ġë¿Į": 6264,
      "ìķĺëĬĶëį°": 6265,
      "Ġë¬¸ìłľë¡ľ": 6266,
      "ĠëĭĪì½ľ": 6267,
      "ĠìĦłìłķëĲĺìĹĪëĭ¤": 6268,
      "Ġë¬´ëį¤": 6269,
      "ĠëĤĺëīľ": 6270,
      "Ġ39": 6271,
      "ìłĦìŀĲ": 6272,
      "Ġì§Īë³ĳ": 6273,
      "Ġê´Ģë£Į": 6274,
      "ĠìĿ¸êµ¬ìĿĺ": 6275,
      "ìĿĺìĽĲ": 6276,
      "Ġê·¸ëłĪìĿ´": 6277,
      "ì§ĳìĹĲ": 6278,
      "Ġì°½ëĭ¨": 6279,
      "Ġëľ»íķĺëĬĶ": 6280,
      "Ġì¶ľë²Ķ": 6281,
      "ëį©": 6282,
      "ĠìĬ¤íİĺìĿ¸ìĿĺ": 6283,
      "Ġê²½ìłľìłģ": 6284,
      "Ġìŀ¬ë°°": 6285,
      "ĠìĨĮë¹ĦìĹĲíĬ¸": 6286,
      "Ġë§ĪìĿ´íģ´": 6287,
      "Ġê´Ģê³Ħê°Ģ": 6288,
      "ĠìĹ°ëĮĢ": 6289,
      "ë¥´ê¸°": 6290,
      "ë¹Ħë¡ľ": 6291,
      "Ġëıħë¦½ìļ´ëıĻ": 6292,
      "ĠìĿ´ì§ĳíĬ¸": 6293,
      "ê¶¤": 6294,
      "ĠìĦ¸ë¥´ë¹ĦìķĦ": 6295,
      "ĠìĺģíĻĶëĬĶ": 6296,
      "ĠìĻĦê³µ": 6297,
      "Ġê°Ģìķ¼": 6298,
      "íķĺìĺĢëĭ¤ê³ł": 6299,
      "Ġëª¨ìķĦ": 6300,
      "ìĤ°ìĭľ": 6301,
      "Ġë§Īì¹ĺ": 6302,
      "ìĩł": 6303,
      "ìķµ": 6304,
      "Ġë¶ĪëłĢëĭ¤": 6305,
      "ìĸĳìĿ´": 6306,
      "ìĤ¬ëĭ¨": 6307,
      "Ġ1977": 6308,
      "ìĵ": 6309,
      "Ġì¹´ë¥´": 6310,
      "Ġíĸ¥íķ´": 6311,
      "ìŀĲë¡ľìĦľ": 6312,
      "ìĭľíĤ¤ê¸°": 6313,
      "Ġë¸Įë£¨": 6314,
      "Ġê¸į": 6315,
      "Ġë¶Ģë¥´ëĬĶ": 6316,
      "Ġë¹Ħë¡Ģ": 6317,
      "Ġë©Ķìĭľ": 6318,
      "ĠìĿ´ë£¬ëĭ¤": 6319,
      "ĠìĿ´ìĦ±": 6320,
      "Ġë¹¨ë¦¬": 6321,
      "ëĵ¤ëª©": 6322,
      "ë°©ìĿĺ": 6323,
      "Ġìłľìŀĳíķľ": 6324,
      "êµĲëĬĶ": 6325,
      "ìĹł": 6326,
      "ìķĪëħķ": 6327,
      "ĠìĦ±íĸ¥": 6328,
      "Ġì²ĺíĺķ": 6329,
      "Ġë¶Ħëªħ": 6330,
      "íĬ¸ë¦Ń": 6331,
      "íĤ´": 6332,
      "ìłľëıĦ": 6333,
      "Ġê¸°ë¡ĿìĿ´": 6334,
      "Ġì£¼ìŀ¥íķĺìĺĢëĭ¤": 6335,
      "Ġê¼½": 6336,
      "ĠìĬ¤íĮĮ": 6337,
      "ĠìĬ¤ë¯¸": 6338,
      "ĠìĭľìŀĳëĲľ": 6339,
      "Ġì§ĢëĥĪ": 6340,
      "ëł¹ìĿ´": 6341,
      "Ġê°ľìŀħ": 6342,
      "Ġìłľê³µíķĺëĬĶ": 6343,
      "ì¹´ìĿ´ëıĦ": 6344,
      "ĠìĦľìĸĳ": 6345,
      "ĠìĿ¼ë¶Ģë¥¼": 6346,
      "íĶĦëŀĳìĬ¤": 6347,
      "ëĿ¼ë©´": 6348,
      "Ġì¡°ë³Ħ": 6349,
      "ĠìĬ¹ê°Ŀ": 6350,
      "ì²ľìĭľ": 6351,
      "Ġë°ĺëĮĢë¡ľ": 6352,
      "ĠíĽĦë³´ë¡ľ": 6353,
      "íģ¬ë¥¼": 6354,
      "Ġ185": 6355,
      "Ġìľłê¸°": 6356,
      "ëĶķ": 6357,
      "ìŀĦìĿ´": 6358,
      "ìķĪìĿ´": 6359,
      "ĠìĤ¬ëŀĮëĵ¤ìĿĺ": 6360,
      "ë¹¨": 6361,
      "ëł¨ìĿĺ": 6362,
      "ĠëĲĺë©°": 6363,
      "ĠìĿ¼ìłľê°ķìłĲ": 6364,
      "ëĵ¤ìĹĲìĦľ": 6365,
      "Ġë´¤": 6366,
      "ĠìĦŀ": 6367,
      "ëŀ«ëıĻìķĪ": 6368,
      "ĠìĦ±ìĿĦ": 6369,
      "ĠíĮĮëĿ¼": 6370,
      "Ġë§Īì¹¨ëĤ´": 6371,
      "ëĶĶëĬĶ": 6372,
      "Ġìłĳì´ī": 6373,
      "Ġíķ¨ëĿ½": 6374,
      "Ġë§Įëĵ¤ìĸ´ì¡Įëĭ¤": 6375,
      "ĠíĻĶìŀ¥": 6376,
      "Ġê°Ĳëıħìľ¼ë¡ľ": 6377,
      "ê°ģìĿĦ": 6378,
      "ì²¼": 6379,
      "Ġìłķì°¨": 6380,
      "ë§Įíķľ": 6381,
      "Ġê¸īìłľ": 6382,
      "ĠìĿ¸ì§Ģ": 6383,
      "ĠëıĦìĻĢ": 6384,
      "2002": 6385,
      "ë²ĶìľĦ": 6386,
      "ìłķê³¼": 6387,
      "ìĤ¬ê³ł": 6388,
      "Ġë¯¸êµ°": 6389,
      "ì²´ìĻĢ": 6390,
      "íĤ¤ê°Ģ": 6391,
      "ì¸łëĬĶ": 6392,
      "ĠìķĦë²Ħì§ĢëĬĶ": 6393,
      "ë¡ľìĻĢ": 6394,
      "ìĿ´ìĦ¼": 6395,
      "ë³´ìĿ´": 6396,
      "ìĸ´ëĸ": 6397,
      "Ġíİĺë¥´ìĭľìķĦ": 6398,
      "ĠíķĺìĺĢìľ¼ëĤĺ": 6399,
      "Ġê³¡ìĿĢ": 6400,
      "ê±°ì§Ģ": 6401,
      "ĠíķĻìĪł": 6402,
      "ĠìĭľìĹĲ": 6403,
      "Ġêµ¬íĺĦ": 6404,
      "ĠíĺĲìĿĺë¡ľ": 6405,
      "Ġë¡ľì¼ĵ": 6406,
      "Ġ1948": 6407,
      "Ġì§Ģê¸ĪìĿĺ": 6408,
      "ìŀĲëĵ¤ìĹĲê²Į": 6409,
      "ĠíĬ¸ëŀľ": 6410,
      "ĠíĹ¨ë¦¬": 6411,
      "ĠìĿ´ë¦ĦìĿĺ": 6412,
      "Ġë°©ë²ķìľ¼ë¡ľ": 6413,
      "Ġëħ¸ë²¨": 6414,
      "Ġíķ©ì³Ĳ": 6415,
      "ĠíĨµìĤ°": 6416,
      "ĠìŀĦëĮĢ": 6417,
      "ĠìĦ¤ë¦½ëĲĺìĹĪëĭ¤": 6418,
      "ĠíķĺìĺĢìľ¼ë©°": 6419,
      "Ġë¬´ëĦĪ": 6420,
      "ìļ°ìĿĺ": 6421,
      "íĻĶíķľ": 6422,
      "ìķĦëŀĺ": 6423,
      "Ġë·": 6424,
      "íĭ°ìĺ¤": 6425,
      "ĠêµŃíļĮ": 6426,
      "ĹëĤł": 6427,
      "ê²°ìĬ¹": 6428,
      "ëıĻë§¹": 6429,
      "Ġì§Ģê¸ĪìĿĢ": 6430,
      "ĠìĥĪê²¨": 6431,
      "Ġë³´ìĹ¬ì£¼": 6432,
      "ë¹µ": 6433,
      "Ġ!": 6434,
      "ëł·": 6435,
      "ìĺ¤ìĺ¤": 6436,
      "Ġì§ģìĹħ": 6437,
      "Ġë°Ķê¹¥": 6438,
      "Ġê¸°ìĽĲ": 6439,
      "ĠìĿ¸ì¢ħ": 6440,
      "Ġì¢ĭì§Ģ": 6441,
      "íĽĦìĹĲ": 6442,
      "ĠìĹŃìĿ´ëĭ¤": 6443,
      "ĠìĹĨìľ¼ë©°": 6444,
      "ìĽĮìĦľ": 6445,
      "Ġê·ľëª¨ìĿĺ": 6446,
      "íģ¬ê°Ģ": 6447,
      "ë©Ķë¦¬ì¹¸": 6448,
      "ĠìĿ¼ëĭ¨": 6449,
      "ë¬´ë¶Ģ": 6450,
      "Ġë¦´": 6451,
      "Ġëª©ë¡ĿìĿ´ëĭ¤": 6452,
      "ë§Īë¦¬": 6453,
      "Ġìĥĺ": 6454,
      "Ġëħ¸ëŀĺë¥¼": 6455,
      "ĠìĦ¸ìĿ¸íĬ¸": 6456,
      "Ġë¶Ģë¶ĦìĿĦ": 6457,
      "ìĥīìĿĺ": 6458,
      "ìľłíķľ": 6459,
      "ĠìĹŃìľ¼ë¡ľ": 6460,
      "Ġìĭ¬ê°ģíķľ": 6461,
      "ëª¨ë¥´": 6462,
      "Ġë°©ìłķ": 6463,
      "ê¸°ì§Ģ": 6464,
      "ĠíķĺìľĦ": 6465,
      "ì¹´ëĬĶ": 6466,
      "Ġëĵ£ê³ł": 6467,
      "ĠíĶ½": 6468,
      "ê±°ëŀĺ": 6469,
      "ĠìĿĺíĺ¹": 6470,
      "ëĨĪ": 6471,
      "ìºł": 6472,
      "ê°ĢëĬ¥": 6473,
      "ĠíĻľëıĻíķĺê³ł": 6474,
      "Ġê°Ħíĸī": 6475,
      "Ġê·¸ëłĪ": 6476,
      "ìĿ´ëŁ°": 6477,
      "íĨłëĬĶ": 6478,
      "Ġ1964": 6479,
      "ì¹ĺê²Į": 6480,
      "ì¹´ë¥¼": 6481,
      "ìļ°ìĪĺ": 6482,
      "ĠíĿ¬ìĥĿ": 6483,
      "Ġì§Ģì¼ľ": 6484,
      "íĥĢë§Ī": 6485,
      "íĥĢìļ´": 6486,
      "Ġê°ľë§ī": 6487,
      "ìĬ¤ëŁ½ê²Į": 6488,
      "Ġë°ľêµ´": 6489,
      "ê·¸ë¦¬": 6490,
      "ĠíĶĮëŀĺ": 6491,
      "Ġíĺ¼íķ©": 6492,
      "ĠìĭľìľĦ": 6493,
      "Ġë³ĢíĻĶë¥¼": 6494,
      "Ġ1967": 6495,
      "Ġì§ĦíĸīëĲĺìĹĪëĭ¤": 6496,
      "ĠíĦ°ë¯¸ëĦĲ": 6497,
      "ĠëĮĢìĪĺ": 6498,
      "ëĿ¼ë©°": 6499,
      "ĠìķĪìĹĲìĦľ": 6500,
      "Ġê´Ģëł¨ìĿ´": 6501,
      "êµ¬ì¹ĺ": 6502,
      "ĠìĤ¬ë¦½": 6503,
      "ìĹĪìĿĦ": 6504,
      "85": 6505,
      "íķĺìĺĢëįĺ": 6506,
      "ĠíĻķë¥ł": 6507,
      "Ġëĭ¤ìļ´": 6508,
      "ĠìķĦìĤ¬": 6509,
      "ì²´ìĬ¤íĦ°": 6510,
      "ìľłê°Ģ": 6511,
      "Ġê³łë¬¸": 6512,
      "ĠíĻĭ": 6513,
      "ìĨĮìĦ¤": 6514,
      "Ġê°Ģì§ĢëĬĶ": 6515,
      "ë¡łìĿ´": 6516,
      "ĠíĺķìĤ¬": 6517,
      "ì´Īê¸°": 6518,
      "íķ´ì£¼": 6519,
      "Ġ1946": 6520,
      "ê³µìĤ°": 6521,
      "Ġê³łìĨįëıĦë¡ľ": 6522,
      "ëĤ´ìĹĲ": 6523,
      "ĠìľĦìĦ±": 6524,
      "ëª¸": 6525,
      "ĠëıĦì¿ł": 6526,
      "Ġìĸ´ëł¤ìļ´": 6527,
      "Ġê¸¸ìĿĦ": 6528,
      "Ġëĭ¹ìĭľìĹĲëĬĶ": 6529,
      "Ġì£¼ì§Ģ": 6530,
      "Ġê¸°ìļ¸": 6531,
      "ĠíĻ©ê¸Ī": 6532,
      "íķľìĿĺ": 6533,
      "íĸĪìĸ´": 6534,
      "Ġì§ĢìĿĢ": 6535,
      "ĠìĥĿìķł": 6536,
      "Ġìĭľìŀĳíķľëĭ¤": 6537,
      "ĠìķĬê²Į": 6538,
      "Ġì¡´ëĤĺ": 6539,
      "ìŀĲëıĻì°¨": 6540,
      "Ġëī´ì§Īëŀľëĵľ": 6541,
      "Ġìķ¡ìħĺ": 6542,
      "ĠìĬ¤ë§ĪíĬ¸": 6543,
      "ĠìĥĪë¡Ńê²Į": 6544,
      "Ġê²½ìļ°ìĹĲ": 6545,
      "Ġëļľ": 6546,
      "ë³´ìĤ´": 6547,
      "ĠíıĲìĩĦ": 6548,
      "ìĺĢì§Ģë§Į": 6549,
      "ë¬´ëĬ¬": 6550,
      "Ġë¯¼ì£¼ëĭ¹": 6551,
      "Ģëĭ¤": 6552,
      "Ġ46": 6553,
      "íħľ": 6554,
      "ĠìĦ¸ê³ĦìĿĺ": 6555,
      "ìĸ´ë²Ħ": 6556,
      "ĠíĹ¤ë¥´": 6557,
      "Ġê·¼ë³¸": 6558,
      "íį¼ìĬ¤": 6559,
      "ìĿ´ìĹĪì§Ģë§Į": 6560,
      "Ġê³¡ìĿĦ": 6561,
      "Ġë°ľë°ľ": 6562,
      "ĠìĦłìĥĿ": 6563,
      "ìĸĳìĿĦ": 6564,
      "ĠêµŃë¯¼ìĿĺ": 6565,
      "ĠìĬ¤íĥł": 6566,
      "Ġë§ĽìŀĪ": 6567,
      "íĤ¤ìĿĺ": 6568,
      "ê¸°íļį": 6569,
      "ê¸°ìĽĲìłĦ": 6570,
      "Ġì²ĺë²Į": 6571,
      "ëĶĶìĽĢ": 6572,
      "íĸīìĿ´": 6573,
      "Ġëĵ±ìŀ¥íķľëĭ¤": 6574,
      "Ġì§Ģê¸Īê¹Įì§Ģ": 6575,
      "ĠëĤĺìĻĶ": 6576,
      "ĠíħĮëŁ¬": 6577,
      "Ġëĭ¨ê³Ħ": 6578,
      "Ġìĺ¤ëŀ«ëıĻìķĪ": 6579,
      "Ġë®¤ì§Ģì»¬": 6580,
      "Ġë©Ģë¦¬": 6581,
      "ĠìĤ¬ìļ©ëĲľ": 6582,
      "ìĭĿê³¼": 6583,
      "ìĤ¬ìĬ¤": 6584,
      "ĠìĤ¬ëĥ¥": 6585,
      "ĠìłĪë°ĺ": 6586,
      "ìŀ¬ë¡ľ": 6587,
      "Ġì§ĢìĹŃìľ¼ë¡ľ": 6588,
      "Ġìĭ¤íĺĦ": 6589,
      "Ġìŀĳê³¡ê°Ģ": 6590,
      "ĠìłĦíĮĮ": 6591,
      "ìľłë¡ľ": 6592,
      "Ġ64": 6593,
      "ĠíĿĺëŁ¬": 6594,
      "ìĿ¸ëĵ¤ìĿĦ": 6595,
      "ĠìĤ¬ìŀĦ": 6596,
      "ê°ľëĬĶ": 6597,
      "ĠìĨĮìĨ¡": 6598,
      "ëĶ±": 6599,
      "Ġìĸ´ê¹¨": 6600,
      "..?": 6601,
      "ë²łë¥´íĬ¸": 6602,
      "ìĿ¸íĦ°": 6603,
      "Ġê°ĢëĤĺ": 6604,
      "ìĸ´ìĿ´ëĭ¤": 6605,
      "ë¶ĢìĤ°": 6606,
      "Ġëį§": 6607,
      "ĠëĤĺíĥĢëĤ¸ëĭ¤": 6608,
      "Ġì¹´ëĵľ": 6609,
      "ĠìĻķì¡°": 6610,
      "Ġì£¼ìłĦ": 6611,
      "Ġ42": 6612,
      "ĠìĹĨìĿĦ": 6613,
      "ĠìłĢìĪł": 6614,
      "ĠíĻķë¦½": 6615,
      "Ġë°ĺëıĦ": 6616,
      "Ġë©ĶìĿ¸": 6617,
      "íģ´ë¦¬": 6618,
      "Ġê°Ģê²Į": 6619,
      "ê°ĢíĥĢ": 6620,
      "ëĦ£": 6621,
      "Ġì£¼ìŀ¥íķľëĭ¤": 6622,
      "ëĲĺìĹĪëĭ¤ê³ł": 6623,
      "Ġë°ĽìķĦëĵ¤ìĹ¬": 6624,
      "Ġ1962": 6625,
      "ëİħ": 6626,
      "Ġìĭłíĺ¸": 6627,
      "Ġë§Įëĵ¤ê³ł": 6628,
      "ĠìļĶì½Ķ": 6629,
      "ĠëıĪìĿĦ": 6630,
      "ìĺģìĿĺ": 6631,
      "ì²ľêµ°": 6632,
      "Ġë¹Įë³´ëĵľ": 6633,
      "Ġìŀ¥ì¹ĺ": 6634,
      "ĠëıħíĬ¹íķľ": 6635,
      "Ġì§ĢìľĦë¥¼": 6636,
      "ĠìĿ¸êµ¬ê°Ģ": 6637,
      "Ġìĸ»ìĿĢ": 6638,
      "ĠìłĢìĦľ": 6639,
      "Ġìĺ¤ìĬ¤ë§Į": 6640,
      "ĠìĿĮëł¥": 6641,
      "Ġì¶ľìŀ¥": 6642,
      "ìĬ¤íĬ¸ë¡ľ": 6643,
      "ìī½": 6644,
      "ĠíĺĦìĹŃ": 6645,
      "ĠëĨĵê³ł": 6646,
      "ĠìĤ¬ëŀĮëĵ¤ìĿĦ": 6647,
      "ëĨĵê³ł": 6648,
      "ìĬ¬ëŁ¬": 6649,
      "Ġì¹¨ëŀµ": 6650,
      "ĠìĺĪìĪĺ": 6651,
      "ĠìĹ°ê²°íķĺëĬĶ": 6652,
      "ĠëªħìĿĦ": 6653,
      "2003": 6654,
      "ìļĶì¦ĺ": 6655,
      "Ġë°ľìĥĿíķĺëĬĶ": 6656,
      "Ġìĵ°ìĿ´ëĬĶ": 6657,
      "ĠìķŀìĹĲìĦľ": 6658,
      "Ġìĥģíĥľë¡ľ": 6659,
      "Ġìłķê¸°": 6660,
      "ĠíĻįë³´": 6661,
      "Ġëħ¸ì¶ľ": 6662,
      "Ġëĭ¤ë¥´ê²Į": 6663,
      "ĠíĻĶë¬¼": 6664,
      "ìŀ¥ìķł": 6665,
      "Ġê³µíĹĮ": 6666,
      "ĠëĮĢë¦¬": 6667,
      "ĠíĽĮ": 6668,
      "ĠëĦ¤ìĿ´": 6669,
      "Ġíİ¸ì°¬": 6670,
      "ê²ģ": 6671,
      "ëıħìĿ¼": 6672,
      "Ġ44": 6673,
      "ë¬¼ìĿ´ëĭ¤": 6674,
      "ìķľ": 6675,
      "ĠíĮĮíĬ¸": 6676,
      "ëĵ¯ìĿ´": 6677,
      "Ġê³µìĹ°ìĿĦ": 6678,
      "ìĭłìľ¼ë¡ľ": 6679,
      "Ġë¬µ": 6680,
      "Ġíģ¬ë¡ľìķĦ": 6681,
      "ĠìĬ¤íĶĦ": 6682,
      "íķ¨ê³¼": 6683,
      "Ġëĭ¨íİ¸": 6684,
      "Ġëĭ¤ë¦¬": 6685,
      "íĸĦ": 6686,
      "Ġìŀħìŀ¥ìĿĦ": 6687,
      "ĠìķĦìĿ´ëıĮ": 6688,
      "Ġê¸°íļĮë¥¼": 6689,
      "Ġê³ĦíĨµ": 6690,
      "ĠíķŃìĦ±": 6691,
      "ĠìĤ¬ìļ°": 6692,
      "ìĺ¤ê³ł": 6693,
      "ĠìķĮíĮĮ": 6694,
      "ĠíĸīëıĻìĿĦ": 6695,
      "Ġë³ĳìĽĲ": 6696,
      "ĠíķĺìĹĲ": 6697,
      "ëľ»": 6698,
      "ê²©íķľ": 6699,
      "ì§Ģë©´": 6700,
      "ĠìĺĪìłķìĿ´ëĭ¤": 6701,
      "ĠíħĮìĿ´": 6702,
      "ëĵľëĿ¼ë§Ī": 6703,
      "ìĺ¤ë¹ł": 6704,
      "ĠëĵľëĿ¼ìĿ´": 6705,
      "ĠìĤ¬ë§Ŀíķľ": 6706,
      "Ġì»¤ë®¤ëĭĪ": 6707,
      "ĠíĽĦê³Ħ": 6708,
      "Ġì¹¨ìŀħ": 6709,
      "ë²ĪìĹĲ": 6710,
      "Ġëıķ": 6711,
      "Ġìĭľë¦¬ì¦ĪìĿĺ": 6712,
      "ĠìĥģìľĦ": 6713,
      "ëĭ¤ë¦¬": 6714,
      "ì¸µìĿĺ": 6715,
      "ĠìĭľìĬ¤íħľìĿĦ": 6716,
      "Ġíİ¼ì³Ĳ": 6717,
      "ëį°ë¥´": 6718,
      "ĠìĥģëĮĢìłģìľ¼ë¡ľ": 6719,
      "Ġë²ĪìĿĺ": 6720,
      "ìĦ°ëĭ¤": 6721,
      "Ġêµ³": 6722,
      "ìĦ±êµ°": 6723,
      "ĠìĹ°êµ¬ìĹĲ": 6724,
      "Ġì¼Ī": 6725,
      "ĠìĹł": 6726,
      "Ġì§Ģìĭľ": 6727,
      "íķ¨ìĿ´": 6728,
      "Ġ47": 6729,
      "Ġë§Ŀëªħ": 6730,
      "êµ¬ìĿ´ëĭ¤": 6731,
      "ĠìĦ±ìłģìĿĦ": 6732,
      "Ġê³µìĹħ": 6733,
      "ê³łëĵ±": 6734,
      "Ġì¡°ì¢ħ": 6735,
      "ëª©ë¡Ŀ": 6736,
      "Ġìĭľë¦¬ìķĦ": 6737,
      "Ġë§ĲíķĺëĬĶ": 6738,
      "ĠíħĮìĬ¤íĬ¸": 6739,
      "ĠìĿ´ë¥´ëŁ¬": 6740,
      "ìĭ¤ìĿĺ": 6741,
      "Ġ1949": 6742,
      "ëıĻìĭľ": 6743,
      "Ġê¸°ëĳ¥": 6744,
      "íĥĢìĿĺ": 6745,
      "ĠíĨ°": 6746,
      "íŀĪê³ł": 6747,
      "ë¡łìĹĲ": 6748,
      "ì£¼ìĿĺìłģ": 6749,
      "Ġê¸Īë©Ķëĭ¬ìĿĦ": 6750,
      "ĠìĥģìĿĦ": 6751,
      "ĠíĥĢìŀĦ": 6752,
      "ìĥīìľ¼ë¡ľ": 6753,
      "Ġìļ°ë¦¬ëĬĶ": 6754,
      "ì¹´ê°Ģ": 6755,
      "Ġê´ĢìĹ¬": 6756,
      "Ġì¡¸ìĹħíķĺê³ł": 6757,
      "Ġì²łìĪĺ": 6758,
      "ë°ĶìĿ¼": 6759,
      "Ġë°Ľìķĺìľ¼ë©°": 6760,
      "ì¤¬": 6761,
      "ì¼ĵëª¬": 6762,
      "ìļ°ê°Ģ": 6763,
      "ĠìĤ¬ëŀĮëĵ¤": 6764,
      "ĠìľłìĿ¼íķĺê²Į": 6765,
      "ë©Ģ": 6766,
      "ĠìĿ¸ê¶Į": 6767,
      "íķĺì§ĢëĬĶ": 6768,
      "66": 6769,
      "ĠíĽĦì§Ģ": 6770,
      "ĠìĿ´ëĵ¤ìĿĦ": 6771,
      "ĠíĽĹëĤł": 6772,
      "Ġìĺ¬ëł¸ëĭ¤": 6773,
      "ëĿ¼ë¦¬": 6774,
      "ĠìĿĺëıĦ": 6775,
      "íĶĮë¡ľ": 6776,
      "ìĨįìĹĲ": 6777,
      "Ġëªħì¹ŃìĿĢ": 6778,
      "ëĭĺìĿ´": 6779,
      "ĠìĿĺìĭ¬": 6780,
      "ĠìķĦëĭĪê³ł": 6781,
      "ĠëĮĢíļĮìĹĲ": 6782,
      "ë°´": 6783,
      "Ġë³´ìķĺëĭ¤": 6784,
      "Ġë¶ĢëĮĢ": 6785,
      "ĠìŀĦì§Ħ": 6786,
      "Ġê°Ģê³ł": 6787,
      "Ġê¹ĢìĿ¼": 6788,
      "Ġíļ¨ê³¼ë¥¼": 6789,
      "ãħĭãħĭãħĭãħĭãħĭãħĭãħĭãħĭãħĭãħĭãħĭãħĭãħĭ": 6790,
      "ì´Ŀëıħ": 6791,
      "ê´Ģê³¼": 6792,
      "Ġë³´ìľłíķĺê³ł": 6793,
      "ëŁ¬ìĭľìķĦ": 6794,
      "ĠìĹ¬ê²¨ì§Ħëĭ¤": 6795,
      "94": 6796,
      "Ġë¶ĢìĥģìĿĦ": 6797,
      "Ġì£½ìĹĪëĭ¤": 6798,
      "êµ¬ìļĶ": 6799,
      "Ġë¶Ģëĭ´": 6800,
      "ĠìºĶ": 6801,
      "Ġãħĭãħĭãħĭãħĭãħĭ": 6802,
      "Ġë§ĲìĿ´": 6803,
      "Ġë³Ģíĺķ": 6804,
      "ĠìłĦì£¼": 6805,
      "ëłĪëĤĺ": 6806,
      "Ġê°ķëĵ±": 6807,
      "Ġì¤ĳìĹĲëĬĶ": 6808,
      "ĠíĹĿê°Ģë¦¬": 6809,
      "Ġê°Ģë¬¸ìĿĺ": 6810,
      "ĠìĥģíĻ©ìĹĲìĦľ": 6811,
      "ìĸ´ìĹĲìĦľ": 6812,
      "ĠëĤ´ìļ©ìĿĢ": 6813,
      "ĠìĿ´ìĭľ": 6814,
      "ĠìĬ¤íĤ¤": 6815,
      ".....": 6816,
      "Ġë°Ķëĭ¥": 6817,
      "ĠìĿ´íĺ¼": 6818,
      "ĠëĮĢíĳľíķĺëĬĶ": 6819,
      "Ġìŀīê¸ĢëŀľëĵľìĿĺ": 6820,
      "íķĺë£¨": 6821,
      "Ġë¯¸ëĵľíķĦ": 6822,
      "Ġê°ĢìĬ´": 6823,
      "Ġì¶¤": 6824,
      "ĠíĶĦëĿ¼": 6825,
      "íĬľë¸Į": 6826,
      "ĠíĽĦìĽĲ": 6827,
      "ë¬¼ìĹĲ": 6828,
      "Ġì°¸ìĹ¬íĸĪëĭ¤": 6829,
      "ĠìĿ¸ìĩĦ": 6830,
      "ë²ķìľ¼ë¡ľ": 6831,
      "ìĹ°ìĿĦ": 6832,
      "Ġëĭ¤ìĬ¤": 6833,
      "ëĶľ": 6834,
      "Ġì¡°ìĦłìĿĺ": 6835,
      "Ġ43": 6836,
      "ë¦¬ìĸ¸": 6837,
      "Ġìŀ¡ì§Ģ": 6838,
      "ĠìłĦê¹Įì§Ģ": 6839,
      "ĠìľłëŁ½ìĿĺ": 6840,
      "Ġì´ĿìĦł": 6841,
      "ì²ĺëĵľ": 6842,
      "ëĭ¤ìĿĺ": 6843,
      "ì½ĶìĬ¤": 6844,
      "Ġíĺ¸ëĬĶ": 6845,
      "ĠìĿ¼ìľ¼íĤ¤": 6846,
      "ĠìĿ´íķĺ": 6847,
      "ìĽĲìĿ´ëĭ¤": 6848,
      "ëĤĺë§Ī": 6849,
      "ì§ĪìĿĺ": 6850,
      "Ġì£¼ìµľ": 6851,
      "ìĿ´ìĹĲë¥¸": 6852,
      "ê²ĮìĿ´": 6853,
      "Ġë²Įìĸ´": 6854,
      "ĠëĪĦêµ¬": 6855,
      "ê³łìĿĺ": 6856,
      "ìħĭ": 6857,
      "ê¶Ĳ": 6858,
      "ìĿ´ì¹ĺ": 6859,
      "Ġ1965": 6860,
      "ìĹ¬íĸī": 6861,
      "ĠìĬ¤ì¼Ģ": 6862,
      "íĮĮê°Ģ": 6863,
      "Ġê°ĢìĬ¤": 6864,
      "ë°ĽëĬĶ": 6865,
      "Ġ1966": 6866,
      "ĠìĻĦìłĦíķľ": 6867,
      "Ġê³¨ìĿĦ": 6868,
      "Ġìŀħê³ł": 6869,
      "íĮ¡": 6870,
      "ìĻľëŀĢ": 6871,
      "ë¦ĦìĿ´": 6872,
      "ĠëĳĲëł¤": 6873,
      "Ġì¤Ģëĭ¤": 6874,
      "Ġíķľê¸Ģ": 6875,
      "ìĺ¤ìĿĺ": 6876,
      "ĠëĤ´ëł¸ëĭ¤": 6877,
      "ĠëĲĺëĬĶëį°": 6878,
      "íĺĦëĮĢ": 6879,
      "Ġì¶Ķêµ¬": 6880,
      "ìĿ¸ìĹĲê²Į": 6881,
      "ĠíĶĦë¦¬ë¯¸ìĸ´": 6882,
      "ê°ĲìĿ´": 6883,
      "Ġìłķì§Ģ": 6884,
      "Ġë³´ë³ĳ": 6885,
      "ìĭ¬íŀĪ": 6886,
      "ĠìĿ¼ìĸ´ëĤ¬ëĭ¤": 6887,
      "ëĲĺê²Į": 6888,
      "ĠíĮ½": 6889,
      "Ġê°ľìĭłêµĲ": 6890,
      "Ġê°ľì¡°": 6891,
      "Ġìŀ¥êµĲ": 6892,
      "Ġëª»íķĺëĬĶ": 6893,
      "Ġê¸įìłķ": 6894,
      "~~~": 6895,
      "Ġëĭ«": 6896,
      "ĠìĤ¬ìļ´ëĵľ": 6897,
      "ëª¨ê°Ģ": 6898,
      "ĠíĪ": 6899,
      "97": 6900,
      "ĠëĤĺëīľëĭ¤": 6901,
      "ëĲĺìĹĪëĭ¤ê°Ģ": 6902,
      "Ġë¨¹ëĬĶ": 6903,
      "Ġë¯¸ìĤ¬ìĿ¼": 6904,
      "ëħ¸ìĬ¤": 6905,
      "Ġê°Ģëĭ´": 6906,
      "Ġë¯¸ëĵľíķĦëįĶ": 6907,
      "ĠìĤ´ìĿ¸": 6908,
      "ê·¸ëłĪ": 6909,
      "Ġë¶Ģíķĺ": 6910,
      "ĠìĪľìľĦ": 6911,
      "ëĮĢíķľë¯¼êµŃìĿĺ": 6912,
      "Ġíĸīë³µ": 6913,
      "ìĬ¬ë¡ľ": 6914,
      "ĠìĺģìĽħ": 6915,
      "ĠëĭĮ": 6916,
      "ìĹŃê³¼": 6917,
      "Ġê±°ëĵŃ": 6918,
      "ĠíĶĦë¡ľê·¸ëŀĺ": 6919,
      "Ġì¶©ì²Ńë¶ģëıĦ": 6920,
      "Ġìľłì¹ĺ": 6921,
      "ĠìĬ¤ì¹´": 6922,
      "Ġê¹Ģìĺģ": 6923,
      "ĠíķĦìļĶê°Ģ": 6924,
      "ĠìķĦëĿ¼": 6925,
      "ë¹ħ": 6926,
      "Ġì§ĢìĥģìĹŃìĿ´ëĭ¤": 6927,
      "ê·¸ëĭĪê¹Į": 6928,
      "íĺģëªħ": 6929,
      "ìłĢëıĦ": 6930,
      "ĠìĤ¬ìĹħìĿĦ": 6931,
      "Ġê°Ģì¹ĺê°Ģ": 6932,
      "Ġêµ¬ë§¤": 6933,
      "ĠìłĦì§ģ": 6934,
      "ĠëĤĺíĥĢëĤ´": 6935,
      "ëķħ": 6936,
      "ë§Īë¥¼": 6937,
      "ì¦Īê°Ģ": 6938,
      "ëĿ¼ëĶĶ": 6939,
      "ìłľìĹĲìĦľ": 6940,
      "Ġê³µíĻĶêµŃìĿĺ": 6941,
      "Ġë¬¸ìĿĦ": 6942,
      "Ġìłģíķ©": 6943,
      "ìĭłê²½": 6944,
      "Ġìĥģê´Ģ": 6945,
      "ĠìĿ¼ë³¸ìĹĲ": 6946,
      "ìĹĪê¸°": 6947,
      "Ġë°ĶëĢĮìĹĪëĭ¤": 6948,
      "ìĿ¸ìĿ¸": 6949,
      "ë³´íĺ¸": 6950,
      "Ġê³Ħê³¡": 6951,
      "Ġìĥ¤ë¥¼": 6952,
      "ĠìłĦë¶Ģ": 6953,
      "Ġê²½ì£¼": 6954,
      "ĠìłĦíĺķ": 6955,
      "Ġì£¼ë§Ĳ": 6956,
      "ĠìĦ¤ëĵĿ": 6957,
      "Ġì§ĢëıĦìŀĲ": 6958,
      "ĠìĿ¼ìĭľ": 6959,
      "Ġë¶Ħëħ¸": 6960,
      "ìķĦë§Ī": 6961,
      "Ġëĵ±íĮĲ": 6962,
      "ĠìķĬì§Ģë§Į": 6963,
      "ĠìĦ±ê³µìĿĦ": 6964,
      "Ġ120": 6965,
      "ìķĦëĭĪìķĦ": 6966,
      "Ġë¡ľë´ĩ": 6967,
      "Ġì½Ķë¥´": 6968,
      "ì¹ĺì§Ģ": 6969,
      "ĠìŀĪìĹĪëĭ¤ê³ł": 6970,
      "Ġê´ĳë²ĶìľĦ": 6971,
      "ĠëıĦìĭľìĿĺ": 6972,
      "ìŀĳìĿĢ": 6973,
      "íı¬ë¥¼": 6974,
      "ë¡Ģë¥¼": 6975,
      "ĠíĢ¸": 6976,
      "ĠíĶĦë¦°": 6977,
      "Ġë§¡ìĿĢ": 6978,
      "Ġëĭ¤ìĨĮ": 6979,
      "ê°ķìĹĲ": 6980,
      "ĠìŀĲìłĦ": 6981,
      "Ġë¸ĮëĿ¼ìļ´": 6982,
      "Ġë°ĺëŀĢìĿĦ": 6983,
      ",,,": 6984,
      "64": 6985,
      "ĠëłĪìĺ¤": 6986,
      "ĠìŀĲë¦¬ìŀ¡": 6987,
      "Ġëĭ¤ìĪĺ": 6988,
      "ĠíĥĪíĩ´": 6989,
      "ĠëĪĪìĹĲ": 6990,
      "ì¡±ìĿ´": 6991,
      "ë¸Įë¡ľ": 6992,
      "Ġê²¹": 6993,
      "ëħĦëıĦ": 6994,
      "íĥĢë¡ľ": 6995,
      "ëĮĢìŀ¥": 6996,
      "Ġë³´ìĹ¬ì¤Ģëĭ¤": 6997,
      "ëĭĪìĬ¤íĥĦ": 6998,
      "ĠìĪľê°Ħ": 6999,
      "ĠíİĺìĿ´": 7000,
      "Ġì°¸ê°ĢíĸĪëĭ¤": 7001,
      "ĠìŁ": 7002,
      "ëĭŃ": 7003,
      "ìłĦê¸°": 7004,
      "ĠëĤĺìķĦê°Ģ": 7005,
      "ĠëĦ£ìĸ´": 7006,
      "ĠìĹĦì²ŃëĤľ": 7007,
      "ĠìĹ°ìĬµ": 7008,
      "ìĭľìĬ¤ì½Ķ": 7009,
      "ĠëĤĺëĵ¤ëª©": 7010,
      "Ġë¯¸ìķ¼": 7011,
      "ĠìŀĦê¸Ī": 7012,
      "Ġëį°ìĹĲ": 7013,
      "ìĭ¤ìĿ´": 7014,
      "íıīê·ł": 7015,
      "ë²łë¦¬": 7016,
      "ĠíķĻìĤ´": 7017,
      "Ġì¡´ìŀ¬íķĺì§Ģ": 7018,
      "Ġëª°ìķĦ": 7019,
      "ëĤĺê²Į": 7020,
      "Ġìŀ¥ëĤ¨": 7021,
      "Ġì½¤": 7022,
      "ìķ¼ìĿĺ": 7023,
      "ê²©ìľ¼ë¡ľ": 7024,
      "ì¢ħíķ©": 7025,
      "ĠìĤ¬ìĭ¤ìĿ´": 7026,
      "ĠìĿ¼ë¶Ģê°Ģ": 7027,
      "ê´ĢìĹĲìĦľ": 7028,
      "ì¡±ìĿĢ": 7029,
      "ĠìĪĺìļĶ": 7030,
      "ë°ĶëĬĶ": 7031,
      "Ġìŀ¬ê°ľ": 7032,
      "ĠìĿ´ë£¨ê³ł": 7033,
      "ìĿ¸êµ¬": 7034,
      "ĠìĽħ": 7035,
      "ĠíĬ¹ìłķíķľ": 7036,
      "Ġìĺ¬ë¦¼íĶ½ìĹĲ": 7037,
      "Ġì¹´ìĿ´": 7038,
      "ĠíĪ¬ìŁģ": 7039,
      "ĠìĹ°ìĺĪ": 7040,
      "Ġ41": 7041,
      "ĠëĮĢë¶Ģë¶ĦìĿ´": 7042,
      "Ġì»¤íĶ¼": 7043,
      "ìĺĢëĬĶëį°": 7044,
      "íĮĮë¡ľ": 7045,
      "Ġëħ¼ë¬¸": 7046,
      "89": 7047,
      "ĠëĤĺíı´ëłĪ": 7048,
      "ëĵľëŁ¬": 7049,
      "Ġë§Īë¥´íģ¬": 7050,
      "ê²łìĸ´": 7051,
      "íķĺëĦ¤": 7052,
      "ĠìĦ¤ì¹ĺëĲľ": 7053,
      "Ġê³¨ëĵł": 7054,
      "íķĺë¯Ģë¡ľ": 7055,
      "Ġíķ«": 7056,
      "ìĹĲìĦľë§Į": 7057,
      "ĠìĤ¬ìļ©íĸĪëĭ¤": 7058,
      "ìŀĳíĴĪ": 7059,
      "Ġë¬¼ìĸ´": 7060,
      "Ġê·¼ì²ĺìĹĲ": 7061,
      "ìĸ´ìĹĲ": 7062,
      "Ġì´ĪìĹĲ": 7063,
      "ìĻĢìĿ´": 7064,
      "ìłĲìĿĺ": 7065,
      "Ġëª©ìĨĮ": 7066,
      "ê³µìĿĺ": 7067,
      "ĠìĨįíķ´": 7068,
      "Ġë¶ĢìĤ°ê´ĳìĹŃìĭľ": 7069,
      "Ġìłĳíķľëĭ¤": 7070,
      "ëłĪëĬĶ": 7071,
      "ĠìĿ¼ìĸ´ëĤĺëĬĶ": 7072,
      "Ġìļ´ìĺģíķĺê³ł": 7073,
      "ĠíĬ¹ì§ķìĿ´ëĭ¤": 7074,
      "ĠìºĲëĤĺëĭ¤ìĿĺ": 7075,
      "Ġë¯¸ë¦¬": 7076,
      "ë¹Ħìĭľ": 7077,
      "Ġìłķì²´": 7078,
      "ĠìĹŃìĤ¬ë¥¼": 7079,
      "Ġìļ°ë¦¬ê°Ģ": 7080,
      "Ġìł¤": 7081,
      "Ġêµ°ìĿĺ": 7082,
      "--": 7083,
      "ê¸°ëĬ¥": 7084,
      "ê±´ìĿĦ": 7085,
      "Ġíİ¸ìĿ´ëĭ¤": 7086,
      "ĠëıĦìĭľìĿ´ëĭ¤": 7087,
      "Ġë§ĪìĿ´íģ¬ë¡ľìĨĮíĶĦíĬ¸": 7088,
      "ì¹´ëĵľ": 7089,
      "íĸīìĦ±": 7090,
      "ĠëĤ´ìħĶëĦĲ": 7091,
      "ìĦľìĸĳ": 7092,
      "ìĨįìĿĺ": 7093,
      "ĠëĮĢíĨµëł¹ìĿĢ": 7094,
      "ëĿ¼ìĹĲ": 7095,
      "ĠíĺĦìĥģ": 7096,
      "ĠëĸłëĤ¬ëĭ¤": 7097,
      "Ġëĭ¨ìľĦ": 7098,
      "Ġê°ľìĦ¤": 7099,
      "ĠìĦłë°ķ": 7100,
      "ĠìĨĮë©¸": 7101,
      "ĠíĬ¹ìĦ±": 7102,
      "Ġíģ¬ê¸°": 7103,
      "Ġë¶Ģë¶ĦìĿ´": 7104,
      "ìķĦë¦¬": 7105,
      "ĠìĺģìĹħ": 7106,
      "Ġì²´ì½Ķ": 7107,
      "Ġëĭ¤ëħĢ": 7108,
      "Ġê·¸ëŀĺíĶ½": 7109,
      "ìĤ°ê³¼": 7110,
      "ĠìĹ¬ìĦ¯": 7111,
      "Ġìį": 7112,
      "ĠëıĦìłĦ": 7113,
      "Ġì½Ķëĵľ": 7114,
      "Ġë¬´íķľ": 7115,
      "ìĭľê³ł": 7116,
      "Ġëĵ¤ìĸ´ê°Ķëĭ¤": 7117,
      "ĠëĤĺíĥĢëĤĺëĬĶ": 7118,
      "ë¨¼íĬ¸": 7119,
      "ê°ĵ": 7120,
      "Ġ65": 7121,
      "ĠíĿ¬ë§Ŀ": 7122,
      "Ġ?": 7123,
      "ëĭ·": 7124,
      "ìĭľìĬ¤íħľ": 7125,
      "íķĻìĹĲ": 7126,
      "ìľłë¥¼": 7127,
      "ãħĭãĦ±ãħĭãĦ±": 7128,
      "ĠìĤ¬ê±´ìĿĢ": 7129,
      "ĠìŀĳíĴĪìľ¼ë¡ľ": 7130,
      "ìĬ¬ëĿ¼": 7131,
      "íĶ¼ìĬ¤": 7132,
      "Ġìľ¨": 7133,
      "ì§ģìĹĲ": 7134,
      "ĠíĻľìķ½ìĿĦ": 7135,
      "íĮĲìĿĢ": 7136,
      "ëįĶìĬ¤": 7137,
      "ĠíķĦìĪĺ": 7138,
      "ë¨¹ìĸ´": 7139,
      "ĠíķĦìļĶíķĺëĭ¤": 7140,
      "ĠìľĦë¡ľ": 7141,
      "Ġëį°ë·ĶíĸĪëĭ¤": 7142,
      "ëıĻê³¼": 7143,
      "ĠìŀĲë¦¬ìĹĲ": 7144,
      "ĠìĹ¬ê°Ŀì²łëıĦ": 7145,
      "ì¹´ë¥´": 7146,
      "ĠíĻĶíķ©": 7147,
      "Ġìĭľìĥģ": 7148,
      "Ġìłķë¹Ħ": 7149,
      "Ġëĭ¨ì§Ģ": 7150,
      "Ġê·¸ë§Į": 7151,
      "ì¡°ì§Ģ": 7152,
      "ĠëĨĴëĭ¤": 7153,
      "ĠëĤĺíĥĢëĤ¬ëĭ¤": 7154,
      "ìĹĦë§Ī": 7155,
      "Ġëį°ìĿ´ë¹Ħëĵľ": 7156,
      "Ġëĭ¤ëĭ¤": 7157,
      "Ġ1961": 7158,
      "ĠìķĦìĿ´ëĶĶ": 7159,
      "Ġê·¹ìŀ¥": 7160,
      "Ġë¶Ģë¶ĦìĿĢ": 7161,
      "Ġê³³ìľ¼ë¡ľ": 7162,
      "ĠëĮĢê°ľ": 7163,
      "ì¸łìĿĺ": 7164,
      "ĠëĤ´ìļ©ìĿ´": 7165,
      "Ġë¡ľìĬ¤ìķ¤ìł¤ëłĪìĬ¤": 7166,
      "ìĽĶëĵľ": 7167,
      "Ġë°ľíĥģ": 7168,
      "Ġì¢ħìĤ¬": 7169,
      "íķĻìŀĲëĵ¤ìĿĢ": 7170,
      "ìĸ´ìłľ": 7171,
      "ìĤ¬ìĿ´ëĭ¤": 7172,
      "ĠëĿ¼ìĿ´íĬ¸": 7173,
      "Ġê·¼ìľ¡": 7174,
      "Ġê°Ģë©´": 7175,
      "ë§ĪëĭĪìķĦ": 7176,
      "Ġê°Ģì§Ħëĭ¤": 7177,
      "ëĲĺìĸ´ìķ¼": 7178,
      "Ġë§Īë¬´ë¦¬": 7179,
      "Ġì§ĳìĹĲìĦľ": 7180,
      "Ġíı¬íķ¨ëĲľëĭ¤": 7181,
      "ĠíĸīìľĦ": 7182,
      "ĠëıĮëł¤": 7183,
      "ĠìĦ¸ëł¥ìĿĦ": 7184,
      "êµ¬ìĦ±": 7185,
      "ê³Ħìķ½": 7186,
      "ĠëģĮìĸ´": 7187,
      "Ġê³µì¤ĳ": 7188,
      "Ġì¦īìĭľ": 7189,
      "ĠìĿ¸ìļ©": 7190,
      "ëĵľë¦¬íŀĪ": 7191,
      "ëħ¸ëĬĶ": 7192,
      "68": 7193,
      "ê°ķìĿĦ": 7194,
      "Ġêµ¬ìŀħ": 7195,
      "Ġíķ´ë¦¬": 7196,
      "ĠëĤĺëĪĦìĸ´": 7197,
      "Ġêµ°ìĿ´ëĭ¤": 7198,
      "Ġìļ´ìĺģíķĺëĬĶ": 7199,
      "67": 7200,
      "ë¯¸ìĪł": 7201,
      "ĠìŀĪìĹĪê¸°": 7202,
      "ĠìĹ°ê°Ħ": 7203,
      "ĠíĶĦë¡ľíĨł": 7204,
      "ê°Ģê³ł": 7205,
      "Ġê°ĸì¶Ķê³ł": 7206,
      "Ġê·¸ê³³ìĹĲìĦľ": 7207,
      "Ġìĺ¤ì§ģ": 7208,
      "Ġê²Ģìĥī": 7209,
      "ëŁ¿": 7210,
      "Ġìĭłì²´": 7211,
      "Ġíĸīëł¬": 7212,
      "íģ´ëłĪ": 7213,
      "ĠìĦłìłĦ": 7214,
      "Ġìĵ°ìĹ¬": 7215,
      "Ġì»¤ë²Ħ": 7216,
      "ĠìķĦë¦Ħëĭ¤ìļ´": 7217,
      "62": 7218,
      "ĠìĦ¸ìĥģìĿĦ": 7219,
      "Ġì§Ģì§Ģë¥¼": 7220,
      "Ġìĭľì¹´ê³ł": 7221,
      "Ġê³µìĤ¬": 7222,
      "ë¹ĦëĶĶìĺ¤": 7223,
      "ëĤ´ìĿ¼": 7224,
      "Ġì½ĶíĮĮ": 7225,
      "Ġê¸°ë¡ĿìĿĢ": 7226,
      "ìķĦìĽĥ": 7227,
      "Ġë²ķìłķ": 7228,
      "ĠìĺģêµŃìĹĲìĦľ": 7229,
      "ìĿ´ëŁ¬íķľ": 7230,
      "ĠìĹ°ìĤ°": 7231,
      "Ġíı¬ìĬ¤íĬ¸": 7232,
      "Ġëį°ë·ĶíķĺìĺĢëĭ¤": 7233,
      "íķ´ìĹĲ": 7234,
      "ëĲĺì§Ģë§Į": 7235,
      "ĠìłĦë©´": 7236,
      "Ġë¦¬ê·¸ìĿĺ": 7237,
      "ĠìĮĢ": 7238,
      "Ġì¹´íİĺ": 7239,
      "Ġì§ĳê¶Į": 7240,
      "ĠìĿ¼ì»": 7241,
      "ĠìĨĮëł¨ìĿĺ": 7242,
      "ë£¨ë¥¼": 7243,
      "Ġì£¼ìŀ¥ìĿĦ": 7244,
      "ĠìŀĳëıĻ": 7245,
      "ì¹´ìĿĺ": 7246,
      "ë°±ë§Į": 7247,
      "ìķ¼ìķ¼": 7248,
      "ëłģ": 7249,
      "2022": 7250,
      "ĠìĿ¼ì»«": 7251,
      "ì²ĺë¥¼": 7252,
      "ê³¼ìłķ": 7253,
      "ë¦¬ê·¸ìĿĺ": 7254,
      "Ġì¤ĳë¶Ģ": 7255,
      "ë¦°ìĿĺ": 7256,
      "Ġë§Įëĵłëĭ¤": 7257,
      "ëŁ¬ìĿĺ": 7258,
      "Ġë¬´ìĬ¨": 7259,
      "ĠëłĪìķĮ": 7260,
      "ĠìĹ°ê³ł": 7261,
      "Ġë§Ĳíķ´": 7262,
      "ë¸ĮëłĪ": 7263,
      "íĻĺê²½": 7264,
      "ê³µê°Ħ": 7265,
      "ĠìĨįìĿĺ": 7266,
      "ë§ĪìĹĲ": 7267,
      "ë³ĳìĽĲ": 7268,
      "ĠìĿ´ë¦ĦìĿ´ëĭ¤": 7269,
      "ĠëĤĺìĺ¨ëĭ¤": 7270,
      "ìĿĢëį°": 7271,
      "Ġê³łë¯¼": 7272,
      "Ġìĸ¸ëĭĪ": 7273,
      "ë¨¹ìĿĦ": 7274,
      "ĠìĿ´ëģĮìĹĪëĭ¤": 7275,
      "ìŀĲíĤ¤": 7276,
      "Ġìĸ»ìĿĦ": 7277,
      "ìłľìĿ´": 7278,
      "Ġìłķê¶Į": 7279,
      "ĠêµĲíĸ¥": 7280,
      "ĠíŀĮ": 7281,
      "ĠíŀĻ": 7282,
      "ĠíĨłì§Ģ": 7283,
      "íı´ë¦¬": 7284,
      "ĠìłĦëł¥": 7285,
      "ë§Įìľ¼ë¡ľ": 7286,
      "Ġê·¸ê²ĥìĿ´": 7287,
      "Ġì¿łëį°": 7288,
      "ĠëĮĢíĨµëł¹ìĿĺ": 7289,
      "Ġë°©ì§Ģ": 7290,
      "ìĦľìĻĢ": 7291,
      "Ġì§ĢìĨįìłģìľ¼ë¡ľ": 7292,
      "ĠìĻ¸êµŃìĿ¸": 7293,
      "íĻĺìľ¼ë¡ľ": 7294,
      "Ġìĭ±ê°Ģ": 7295,
      "ë¶Ģìŀ¥": 7296,
      "Ġë¶Ģì¹ľ": 7297,
      "Ġì§ģìĽĲ": 7298,
      "ĠìĿ¸ëĶĶìĸ¸": 7299,
      "ĠìŀĦë¬´": 7300,
      "Ġêº¼": 7301,
      "Ġëĭ¹ì´Ī": 7302,
      "Ġë®Į": 7303,
      "ê²łì§Ģ": 7304,
      "Ġë°©ìĭĿìĿĦ": 7305,
      "ë²łìĬ¤": 7306,
      "ĠíĶĦë¡ľìĿ´ìĦ¼": 7307,
      "ìłľë¥´": 7308,
      "ìĺ¨ëĭ¤": 7309,
      "ì½§": 7310,
      "ëħĦë¶ĢíĦ°ëĬĶ": 7311,
      "Ġìľłíĺķë¬¸íĻĶìŀ¬": 7312,
      "ĠëıĦëª¨": 7313,
      "Ġíķ´ìĥģ": 7314,
      "ĠìĽĲì£¼ë¯¼": 7315,
      "Ġë¯¸êµŃê³¼": 7316,
      "ê°ĢìĿ¸": 7317,
      "ëĤĺìĦľ": 7318,
      "ĠëĤ¨ìª½ìľ¼ë¡ľ": 7319,
      "ĠìĥģíĻ©ìĿĦ": 7320,
      "Ġë²Ĺìĸ´ëĤĺ": 7321,
      "íĮ½": 7322,
      "ë¦¬ìķĪ": 7323,
      "ĠìłĲìĿ´": 7324,
      "ĠìĽĲìĨĮ": 7325,
      "Ġë¹ļ": 7326,
      "ĠìķĦíĭ°ìĬ¤íĬ¸": 7327,
      "Ġë°©íķ´": 7328,
      "ìĻķìĿĦ": 7329,
      "Ġë°ķìłķíĿ¬": 7330,
      "ĠìķĬìľ¼ë©´": 7331,
      "Ġë¹Ħìĥģ": 7332,
      "Ġëĭ¬ëł¤": 7333,
      "Ġìĸ´ë¨¸ëĭĪëĬĶ": 7334,
      "ĠìĦ¸ê³Ħìłģìľ¼ë¡ľ": 7335,
      "ĠìĻĦë²½": 7336,
      "ëĭ¹ìĭľ": 7337,
      "Ġë¬¸ìłľìĹĲ": 7338,
      "ìķĦìĿ¼ëŀľëĵľ": 7339,
      "ìĿ¼ëĭ¨": 7340,
      "ĠëªħëĤĺëĿ¼": 7341,
      "Ġë³ĳíķ©": 7342,
      "ĠëŀĢ": 7343,
      "Ġë©ĺ": 7344,
      "Ġë§Īíģ¬": 7345,
      "ëª©ìĿĦ": 7346,
      "íİĻíĬ¸": 7347,
      "Ġìĭ¬ë¦¬": 7348,
      "ëĭ¨ìĿ´ëĭ¤": 7349,
      "Ġíĺ¹": 7350,
      "ê·¸ì¹ĺ": 7351,
      "íĿł": 7352,
      "íŀĪë¡ľ": 7353,
      "ìľ¼ëĭĪê¹Į": 7354,
      "ì¤ĳìĿ´": 7355,
      "Ġê¸°ë¡Ŀíķĺë©°": 7356,
      "Ġê·¸ë¡ľ": 7357,
      "ĠìĬ¤íĬ¸ë¦¬": 7358,
      "ì²ŃìĿĢ": 7359,
      "ì¹ľëĭ¤": 7360,
      "Ġë°ĿíĺĢì¡Įëĭ¤": 7361,
      "ê²¸": 7362,
      "ê·¸ê²Į": 7363,
      "Ġê°ľì²´": 7364,
      "ë¹ĦíĬ¸": 7365,
      "íħĮìĿ´": 7366,
      "Ġë¶Ħìķ¼ìĹĲìĦľ": 7367,
      "íİ¸ìĿĺ": 7368,
      "ĠëıĦëįķ": 7369,
      "ĠìŀłìĪĺ": 7370,
      "ĠìłĦìŁģìĹĲ": 7371,
      "Ġë¬´ê²Į": 7372,
      "Ġê¾¸ì¤Ģ": 7373,
      "ë¹Ħíĸī": 7374,
      "ë²łë¦¬ìķĦ": 7375,
      "ĠìĸĳìĿĺ": 7376,
      "Ġì§ķìĹŃ": 7377,
      "ë®¬": 7378,
      "ĠìŀĲìĿ´ìĸ¸": 7379,
      "ëĦĪìĬ¤": 7380,
      "Ġê¹ĥ": 7381,
      "Ġì¶Ķê°Ģë¡ľ": 7382,
      "ëĵ±ìĿĦ": 7383,
      "ĠìłĦìŁģìĹĲìĦľ": 7384,
      "Ġë¡ľë§ĪìĿĺ": 7385,
      "ĠëĶ°ìĦľ": 7386,
      "Ġë¶Ħíķ´": 7387,
      "Ġíı¬íķ¨íķĺëĬĶ": 7388,
      "ìķ¼ëĬĶ": 7389,
      "íĬĢ": 7390,
      "Ġë©¸ì¢ħ": 7391,
      "Ġì±ħìĿĦ": 7392,
      "ë³´íĹĺ": 7393,
      "ĠìĭľìĤ¬": 7394,
      "ĠìĿ´ë²¤": 7395,
      "ĠìĭľëĤĺ": 7396,
      "Ġê¶Įëł¥ìĿĦ": 7397,
      "49": 7398,
      "Ġë³µë¬´": 7399,
      "Ġìĸµìłľ": 7400,
      "íĬ¸ëŀĻ": 7401,
      "ë¬´ìŀ¥": 7402,
      "ë¶ĢëĮĢ": 7403,
      "ìĺģìĿĦ": 7404,
      "Ġíĳľë©´": 7405,
      "íĸĪëĭ¤ê°Ģ": 7406,
      "ĠëĮĢì²´ë¡ľ": 7407,
      "ĠìĹ°ê²°ëĲĺìĸ´": 7408,
      "ĠìĿ´ë¥¸ëĭ¤": 7409,
      "ĠíĽĦìŀĦ": 7410,
      "ì¦Īë¥¼": 7411,
      "ê·¸ê±´": 7412,
      "ì¤ĳìĿĺ": 7413,
      "ĠëĮĢìŀ¥": 7414,
      "ë²¡": 7415,
      "ìļ°ëĿ¼": 7416,
      "Ġìĺ¬íķ´ìĿĺ": 7417,
      "Ġê²ĮìŀĦìĿĦ": 7418,
      "ê³¼ëĮĢíķĻ": 7419,
      "ĠìķĦëĵ¤ìĿ¸": 7420,
      "Ġìĺ¬ë¦¼íĶ½ìĹĲìĦľ": 7421,
      "íı´ë¦¬ìĬ¤": 7422,
      "ĠìĿ¼ìłķíķľ": 7423,
      "ĠíĮ¨ìħĺ": 7424,
      "ëĸ¡": 7425,
      "ì§ĳìĿĦ": 7426,
      "Ġì°½ìĽĲ": 7427,
      "ĠíĺĳíļĮ": 7428,
      "ë°Į": 7429,
      "ì§Ģêµ¬": 7430,
      "Ġë¶Īëł¸ëĭ¤": 7431,
      "ĠìĻĢìĦľ": 7432,
      "Ġê°Ģì¹ĺ": 7433,
      "ĠíĮĮìĽĮ": 7434,
      "ĠëĨįêµ¬": 7435,
      "Ġì±ħìŀĦìĿĦ": 7436,
      "Ġëħ¹ìĥī": 7437,
      "ĠìĪĺìĦĿ": 7438,
      "Ġê¸°ìĨĮ": 7439,
      "ìĬ¤íĬ¸ëĿ¼": 7440,
      "Ġë¬¼ìĿĦ": 7441,
      "Ġëªħëł¹ìĿĦ": 7442,
      "ë°©ìĹĲ": 7443,
      "ĠìĦłì¶ľëĲĺìĹĪëĭ¤": 7444,
      "íķĻìŀĲìĿ´ëĭ¤": 7445,
      "Ġë°Ķë¥´ìħĢë¡ľ": 7446,
      "Ġì°¸ê°Ģíķľ": 7447,
      "íĤ·": 7448,
      "ĠìĤ¬ìļ©íķĺìĺĢëĭ¤": 7449,
      "ĠëĭĪìĭľ": 7450,
      "Ġ1919": 7451,
      "ĠëĤ¨ê²¼ëĭ¤": 7452,
      "ê±°ê°ĻìķĦ": 7453,
      "ê´Ģê´ĳ": 7454,
      "Ġë°ľìĸ¸": 7455,
      "íħĶëłĪ": 7456,
      "ëĦĪê°Ģ": 7457,
      "íķŃìĿĦ": 7458,
      "43": 7459,
      "ìī": 7460,
      "íıīìĿĦ": 7461,
      "Ġê°ľë³Ħ": 7462,
      "ë£¨ìĿĺ": 7463,
      "Ġìĸ¸ëįķ": 7464,
      "ĠìĭľìĿ¸": 7465,
      "Ġì¸¡ë©´": 7466,
      "Ġë¶Ģì§Ħ": 7467,
      "ĠìľĦì¹ĺë¥¼": 7468,
      "ë½": 7469,
      "Ġê°ľì¹Ń": 7470,
      "ë°Ķëĭ¤": 7471,
      "ìļ°ìĹĲ": 7472,
      "ĠìĨĮë°©": 7473,
      "Ġìĺ¤ë¹ł": 7474,
      "Ġë§Įíķľ": 7475,
      "Ġë¦¬ë²Ħ": 7476,
      "ãħĶ": 7477,
      "87": 7478,
      "ìĤ¬ì§Ħ": 7479,
      "ĠìĬ¹ëł¤": 7480,
      "Ġê²ĢíĨł": 7481,
      "ĠìķĦë¥´íĹ¨íĭ°ëĤĺ": 7482,
      "ê°Ģë©´": 7483,
      "ĠìĪĺìĿĺ": 7484,
      "íĺ¸ìĹĲ": 7485,
      "ĠìĥģíĥľìĹĲìĦľ": 7486,
      "Ġêµ°ìĿ¸": 7487,
      "ĠíĻĶìĿ´íĬ¸": 7488,
      "Ġëª»íķĺìĺĢëĭ¤": 7489,
      "ĠíĮĮë¥´": 7490,
      "ĠìĪĺìĪł": 7491,
      "ìļ°ë¥¼": 7492,
      "íĶĦìĻĢ": 7493,
      "82": 7494,
      "ê³µìĭĿ": 7495,
      "Ġë³µìĽĲ": 7496,
      "Ġ1944": 7497,
      "Ġê°Ģê¹Ŀ": 7498,
      "ĠëģĿëĤ´": 7499,
      "Ġìĸĺê¸°": 7500,
      "Ġ1958": 7501,
      "Ġë¹ħíĨł": 7502,
      "íı¬ë¡ľ": 7503,
      "ĠìĿ´ìĥģìĿ´": 7504,
      "ĠìĿ´ìĽĥ": 7505,
      "ë§Īë±Ģ": 7506,
      "ìķĪìłĦ": 7507,
      "Ġ160": 7508,
      "ĠëıĻìķĪìĹĲ": 7509,
      "Ġ1941": 7510,
      "íĺ¸ìĻĢ": 7511,
      "Ġìĭ«ìĸ´": 7512,
      "ëŀĺê³¤": 7513,
      "ê³µìĿĦ": 7514,
      "Ġìĺ¤ëĬĶ": 7515,
      "Ġë§ĲëłĪìĿ´ìĭľìķĦ": 7516,
      "ĠíĨµìĥģ": 7517,
      "Ġë³µìŀ¡íķľ": 7518,
      "ì¦ĪëĭĪ": 7519,
      "ĠìĤ¬ëĭ¨": 7520,
      "41": 7521,
      "ħìĬ¤": 7522,
      "ĠìĦłìŀĦ": 7523,
      "Ġíģ¬ëĭ¤": 7524,
      "ë²¼": 7525,
      "ëª¨ëĵł": 7526,
      "ëĵľëĭĪ": 7527,
      "íķĺëĿ¼ëĬĶ": 7528,
      "Ġìķŀìľ¼ë¡ľ": 7529,
      "ìĻĵ": 7530,
      "ĠìĿ´ëĵ¤ìĿ´": 7531,
      "Ġíķ¸": 7532,
      "ĠìĿĺìĭĿ": 7533,
      "Ġëĭ¤ìĿĮëĤł": 7534,
      "ëįĶëĿ¼ê³ł": 7535,
      "ĠíĺĦì§Ģ": 7536,
      "ë¦¬ë¸Į": 7537,
      "Ġë³´ê±´": 7538,
      "īģ": 7539,
      "Ġë¨¹ìĸ´": 7540,
      "Ġê³³ìĿ´ëĭ¤": 7541,
      "íķĻêµĲë¥¼": 7542,
      "ĠëĶĶìĬ¤": 7543,
      "ĠëįĶë¸Ķ": 7544,
      "ĠëĭĽ": 7545,
      "ìĭ¤ë¡ľ": 7546,
      "ĠëĬ¥ëł¥": 7547,
      "Ġê¶¤ëıĦ": 7548,
      "ìĻĦìłĦ": 7549,
      "Ġê±°ì§ĵ": 7550,
      "Ġê¸°ë¡ĿëĲĺìĸ´": 7551,
      "Ġì¶©ë¶ĦíŀĪ": 7552,
      "Ġìĺ¤ë²Ħ": 7553,
      "ĠëĲĲ": 7554,
      "Ġë°Ģëł¤": 7555,
      "ĠìĿ¼ìĿĢ": 7556,
      "êµŃê³¼": 7557,
      "ëª¨ëĬĶ": 7558,
      "Ġë¹µ": 7559,
      "Ġëĭ¤ì¼Ģ": 7560,
      "Ġìĺ¤íĶĦ": 7561,
      "Ġë³¸ì§Ī": 7562,
      "Ġìķµ": 7563,
      "Ġì£¼ê°Ħ": 7564,
      "ëĤ¨ëıĦìĿĺ": 7565,
      "ĠìŀĲê¸Ī": 7566,
      "ìĺ¤ë¦¬": 7567,
      "ë¹ĦìĻĢ": 7568,
      "Ġê°ĢìĪĺìĿ´ëĭ¤": 7569,
      "ëĵ±ìĿ´": 7570,
      "ĠíĶĦëŀĳíģ¬": 7571,
      "ĠìłĦìŁģìĿĺ": 7572,
      "ĠìĭłíķĻ": 7573,
      "ë²łìĿ´ìĬ¤": 7574,
      "Ġì°½ìŀĳ": 7575,
      "Ġì¹´ìļ´íĭ°": 7576,
      "ìŀĲìĹ°": 7577,
      "ìŀ¬ê°Ģ": 7578,
      "ë°©íĸ¥": 7579,
      "ĠìĹĲíĶ¼ìĨĮëĵľ": 7580,
      "Ġíĺ¸ìĨĮ": 7581,
      "ĠìĿ´ìĸ´ì§ĢëĬĶ": 7582,
      "ĠìĪĺë¦¬": 7583,
      "ĠëĲĺëıĮ": 7584,
      "ìĬ¬ë§ģ": 7585,
      "ìĹ´ìĿĦ": 7586,
      "íķľê±°": 7587,
      "Ġë¬´ë¦": 7588,
      "ĠìĦľìļ¸ëĮĢíķĻêµĲ": 7589,
      "ĠëĿĦ": 7590,
      "Ġìľłíļ¨": 7591,
      "ĠíŀĪíĬ¸": 7592,
      "ìĭ¬ìĿ´": 7593,
      "ĠìĿ´íĽĦìĹĲëıĦ": 7594,
      "Ġë¬¸ìłľëĬĶ": 7595,
      "ëª¨ëį¸": 7596,
      "ĠìłĦëıĻì°¨": 7597,
      "Ġë°ĺìĿĳìĿĦ": 7598,
      "ĠìķĮê³łë¦¬ì¦ĺ": 7599,
      "Ġê³±": 7600,
      "Ġë¶ģìª½ìľ¼ë¡ľ": 7601,
      "ĠìĹ´ì°¨ê°Ģ": 7602,
      "Ġë°ĶìĿ´ìĹĲë¥¸": 7603,
      "ìĿ¸ì²ľ": 7604,
      "ĠìĻķìĿ´": 7605,
      "ĠíļĮìŀ¥": 7606,
      "Ġê¶Įëł¥": 7607,
      "Ġê°ĢëģĶ": 7608,
      "ìļ°ìĬ¤ëĬĶ": 7609,
      "Ġë°ĽìķĦëĵ¤ìĿ´": 7610,
      "Ġëĭ¤ìĿĮìĿĺ": 7611,
      "Ġì¸ł": 7612,
      "ë¦ĦìĿĢ": 7613,
      "ĠìłĦë¬¸ê°Ģ": 7614,
      "ĠìĹ¬ìĦ±ìĿĺ": 7615,
      "Ġì£¼ê¸°": 7616,
      "Ġê¶Įë¦¬ë¥¼": 7617,
      "ĠíĹĪëĿ½": 7618,
      "Ġìĸ¼ë§ĪëĤĺ": 7619,
      "ë¦¬íĭ°": 7620,
      "ĠíĻĶëł¤": 7621,
      "Ġê°ľëħĲìĿĦ": 7622,
      "ì¤ĳíķľ": 7623,
      "Ġíİ¸ìĿĺ": 7624,
      "Ġì¤Ģìļ°ìĬ¹": 7625,
      "ĠìĿ´ìłĦìĹĲëĬĶ": 7626,
      "ĠìĿ´ë¡ľìį¨": 7627,
      "ëĤĺìĺ¤": 7628,
      "ìĭłìĿ¸": 7629,
      "Ġë§ŀìĦľ": 7630,
      "Ġ1956": 7631,
      "ê·¸ëłĪìĿ´": 7632,
      "ĠíĺĪìķ¡": 7633,
      "Ġíķ´ë°ľ": 7634,
      "Ġì°¨ì§Ģíķĺê³ł": 7635,
      "Ġë°©ë²ķìĿĢ": 7636,
      "ì¡°ì°¨": 7637,
      "Ġë©Ī": 7638,
      "Ġê±±": 7639,
      "ìĳ": 7640,
      "ĠìĨĮë¦¬": 7641,
      "ĠíķľëĤĺëĿ¼": 7642,
      "ĠìĻķìĿĺ": 7643,
      "ĠíĥĢìĿ´ê±°": 7644,
      "Ġì²ľì£¼êµĲ": 7645,
      "ë¥łìĿĢ": 7646,
      "ĠìĪĺìĥģíķĺìĺĢëĭ¤": 7647,
      "Ġãħİãħİãħİ": 7648,
      "Ġê³łìľĦ": 7649,
      "ì§ĢìķĬ": 7650,
      "ê²½ëł¥": 7651,
      "Ġë²Įìĸ´ì§Ħ": 7652,
      "ĠìĦ¸ìĽł": 7653,
      "ĠìĿ¼ëł¨ìĿĺ": 7654,
      "Ġê³łê°Ŀ": 7655,
      "Ġë¹Ħë¡¯íķĺìĹ¬": 7656,
      "ĠëĤĺê³ł": 7657,
      "ĠìķĶì»·": 7658,
      "Ġì§ĢëĭĪê³ł": 7659,
      "ĠìĥģìĨį": 7660,
      "Ġìĭ¸ìĽĢ": 7661,
      "ĠìĤ¬ëŀĮëĵ¤ìĹĲê²Į": 7662,
      "ìĹĲìĦł": 7663,
      "ĠìĦľìĪł": 7664,
      "Ġë§ĪìĿĮìĿĦ": 7665,
      "ĠìķĦíħĮëĦ¤": 7666,
      "íĻĺìĿĦ": 7667,
      "ĠìĿ´ë¥´ëłĢëĭ¤": 7668,
      "ĠìķĪëĵľë¡ľ": 7669,
      "Ġë»Ĺ": 7670,
      "Ġ1947": 7671,
      "ê»´": 7672,
      "ì½ķ": 7673,
      "Ġêµ¬ìĦ±ëĲľëĭ¤": 7674,
      "ëģ¼ë¦¬": 7675,
      "ë³¸ìĿĦ": 7676,
      "ìľ¨ìĿ´": 7677,
      "ĠëĦ·": 7678,
      "Ġì°¨ëĭ¨": 7679,
      "ìĤ¬ìłĦ": 7680,
      "ìĤ¬ìļ©": 7681,
      "ĠìĦłíı¬": 7682,
      "ë£½": 7683,
      "Ġì¶ľìłĦíķĺìĹ¬": 7684,
      "ë¶Ħìľ¼ë¡ľ": 7685,
      "ìĺĪë¥¼": 7686,
      "ì¤ĳìĿ¸": 7687,
      "Ġê³ĦìĨįíķ´ìĦľ": 7688,
      "ë³´ê¸°": 7689,
      "ì¤Į": 7690,
      "íĻľëıĻìĿĦ": 7691,
      "ìľ¼ëł¤": 7692,
      "Ġíķĳ": 7693,
      "ĠìĤ¬íĩ´": 7694,
      "êµ°ìĹĲìĦľ": 7695,
      "ìĬ¤íĮħ": 7696,
      "Ġìŀħìŀ¥": 7697,
      "ìĤ´ìĿ´": 7698,
      "ë¹Ĺ": 7699,
      "ìļľ": 7700,
      "ë²łíĬ¸": 7701,
      "ĠëĤ¨ìķĦíĶĦë¦¬ì¹´": 7702,
      "Ġë¶Ģë¬¸ìĹĲ": 7703,
      "ĠíĽĦìĿ¸": 7704,
      "ë°ľìĿĦ": 7705,
      "Ġì´Īê¸°ìĹĲ": 7706,
      "ĠìĿĺë¯¸íķĺëĬĶ": 7707,
      "Ġë¼Ī": 7708,
      "ĠìĪĺìĹħ": 7709,
      "ĠìĪĺìĭŃ": 7710,
      "ë°ĶìĿĺ": 7711,
      "Ġ1939": 7712,
      "Ġê°ĲìĤ¬": 7713,
      "Ġì°°ìĬ¤": 7714,
      "ĠëıĦìļĶ": 7715,
      "Ġë©°": 7716,
      "Ġëħ¸ìĦłìĿĦ": 7717,
      "Ġìĸĳìª½": 7718,
      "ĠëĮĢëŁī": 7719,
      "ĠíĨ±": 7720,
      "Ġë°Ķëĳĳ": 7721,
      "Ġì¶Ķë°©": 7722,
      "ĠíķŃìĿĺ": 7723,
      "ĠìĿ´ë£¨ëĬĶ": 7724,
      "ëĤĺë¥¼": 7725,
      "ë¯¸ìĤ¬": 7726,
      "Ġë¡ľëĵľ": 7727,
      "Ġë£¨íĬ¸": 7728,
      "ì¥¬": 7729,
      "Ġìľłíķľ": 7730,
      "ĠìŀĳìĤ¬": 7731,
      "Ġì¡°ê±´ìĿĦ": 7732,
      "ĠìłĦìĨ¡": 7733,
      "Ġìĥģíĥľë¥¼": 7734,
      "ëł¸ìľ¼ë©°": 7735,
      "Ġìĭłê³ł": 7736,
      "Ġì§ģìłĦ": 7737,
      "Ġëĭ¹ìĭľìĹĲ": 7738,
      "ë³´ëĭĪ": 7739,
      "Ġë°°íı¬": 7740,
      "íķĺê¸°ë¥¼": 7741,
      "ê¸Ģë¡ľ": 7742,
      "ëĲĺê±°ëĤĺ": 7743,
      "ĠìĿĺíķĻ": 7744,
      "ë³´ë¡ľ": 7745,
      "Ġê°Ģê¹ĮìĿ´": 7746,
      "ĠëĵľëŀĺíĶĦíĬ¸": 7747,
      "ĠìĹĨê²Į": 7748,
      "ĠëĮĢìĥģìĿ´": 7749,
      "ĠìľĹ": 7750,
      "ĠìļĶì¦ĺ": 7751,
      "ĠíĺķìĭĿìľ¼ë¡ľ": 7752,
      "ì¤ĳìĿĦ": 7753,
      "Ġìŀ¬íķĻ": 7754,
      "ì¹ĺê¸°": 7755,
      "ĠìĥģíķĺìĿ´": 7756,
      "ìĿ¼ë¦¬": 7757,
      "ìĽĶìĿĺ": 7758,
      "Ġì¦Ī": 7759,
      "ìŀĲê³ł": 7760,
      "íĥĢê°Ģ": 7761,
      "Ġê°ĸëĬĶëĭ¤": 7762,
      "Ġëĭ¨ìĪľíķľ": 7763,
      "Ġê»": 7764,
      "Ġê¸Ģë¡ľë²Į": 7765,
      "ë°ĺìĿĳ": 7766,
      "93": 7767,
      "ìĹĳ": 7768,
      "íķĺëŁ¬": 7769,
      "Ġì´Īê¸°ìĿĺ": 7770,
      "ëĵľë¦¬ìķĦ": 7771,
      "ĠíķĺëĤĺê°Ģ": 7772,
      "72": 7773,
      "Ġë¬´ìĤ¬": 7774,
      "íĮĮìĻĢ": 7775,
      "Ġíı´ë¦¬": 7776,
      "2001": 7777,
      "ĠìĨĮìĭĿìĿĦ": 7778,
      "ëł¬íķľ": 7779,
      "ĠìłķêµĲ": 7780,
      "ĠíıīìķĪ": 7781,
      "ĠìŀĦì§ĦìĻľëŀĢ": 7782,
      "Ġê°ľë°©": 7783,
      "ìĿ´ìĭľ": 7784,
      "Ġìµľìļ°ìĪĺ": 7785,
      "Ġìŀħëĭ¨íķĺìĺĢëĭ¤": 7786,
      "Ġìŀ¬ìŀĦ": 7787,
      "ĠíĮĮíģ¬": 7788,
      "Ġë¯¼ë²ķ": 7789,
      "ĠíĻķìĤ°": 7790,
      "íķ´ëĬĶ": 7791,
      "ì²«": 7792,
      "ĠìľłíķĻ": 7793,
      "ĠíŀĪíĭĢ": 7794,
      "ìĺ¤ë¡ľ": 7795,
      "ë¦ĩ": 7796,
      "ĠìĤ¶ìĿĦ": 7797,
      "Ġì²´ìľ¡": 7798,
      "ĠìĿ´ë¥¸ë°Ķ": 7799,
      "ìĹ¬ëŀĺ": 7800,
      "ĠëĤ´ìĦ¸": 7801,
      "ĠìĿ´ê¸°": 7802,
      "ĠìķĦëŀĺìĻĢ": 7803,
      "ë¯¸ì¹ľ": 7804,
      "Ġë§Įëĭ¤": 7805,
      "Ġë³ĦëıĦìĿĺ": 7806,
      "ĠìķĦëŀĺìĹĲ": 7807,
      "Ġì¡°ì¹´": 7808,
      "Ġë¬´ëĮĢ": 7809,
      "ĠíĥĲìĤ¬": 7810,
      "Ġë¡±": 7811,
      "ĠìĥĪë²½": 7812,
      "ĠíĬ¹ì§ķìĿĦ": 7813,
      "ì¤ĳíķĻêµĲëĬĶ": 7814,
      "Ġëĭ¬íķĺëĬĶ": 7815,
      "Ġë£¨ìĿ´ìĬ¤": 7816,
      "ìĿ´ëĿ¼ëıĦ": 7817,
      "íķĺë¥¼": 7818,
      "Ġêµ¬ìĦ±íķĺëĬĶ": 7819,
      "Ġì°¸ìĹ¬íķľ": 7820,
      "ĠëĦĵìĿ´ëĬĶ": 7821,
      "ëª©ìĹĲ": 7822,
      "ëĤĺë¥´": 7823,
      "ìĭ¤ìĹĲìĦľ": 7824,
      "ìĶ¨ë¥¼": 7825,
      "Ġëª¸ìĿĦ": 7826,
      "Ġìŀ¥ë¥´": 7827,
      "ì£¼ìĿĺìŀĲ": 7828,
      "Ġëıħë¦½ìĿĦ": 7829,
      "ĠëĮĢíĻĶ": 7830,
      "ĠíĥľêµŃ": 7831,
      "Ġì§Ģêµ¬ìĿĺ": 7832,
      "ìļ°ìĻĢ": 7833,
      "ĠìŀĲìĽĲ": 7834,
      "íĺķìĹĲ": 7835,
      "íİĺìĿ´ìĬ¤": 7836,
      "ĠìĦ¸ë¶Ģ": 7837,
      "Ġìľłê³ł": 7838,
      "ĠíıŃíĥĦ": 7839,
      "Ġê°ľìĿ¸ìĿĺ": 7840,
      "ë°°ë¥¼": 7841,
      "ĠëĶĶìĬ¤íģ¬": 7842,
      "ĠìĿ¼ìľ¼ì¼ľ": 7843,
      "ëĭ¨ìĹĲìĦľ": 7844,
      "ì½¥": 7845,
      "ĠìķĶíĺ¸": 7846,
      "ĠêµŃëıĦ": 7847,
      "ëĦ¤ëĬĶ": 7848,
      "ĠìĤ¬ê±´ìľ¼ë¡ľ": 7849,
      "ĠëıĮìķĦìĻĢ": 7850,
      "ìŀĪê³ł": 7851,
      "?!": 7852,
      "Ġì§Ģíĸ¥": 7853,
      "ãĦ¹ãħĩ": 7854,
      "ìĺģêµŃ": 7855,
      "Ġì§Ģë¶Ī": 7856,
      "ì¾Į": 7857,
      "Ġëħ¸ë¥´ìĽ¨ìĿ´": 7858,
      "Ġê²½íĸ¥ìĿ´": 7859,
      "ĠìĬ¤íĥĢëĶĶìĽĢ": 7860,
      "êµ¬ë¦¬": 7861,
      "ĠìŀĲëŀĳ": 7862,
      "Ġë³´íĹĺ": 7863,
      "ìĤ¬ì§Ģ": 7864,
      "ĠëĮĢëĭ¨": 7865,
      "ĠìĤ¬íļĮìĿĺ": 7866,
      "Ġ1954": 7867,
      "ìĤ¬ìĭ¤": 7868,
      "ĠëıĻë¶ģ": 7869,
      "Ġìŀ¥ìĨĮ": 7870,
      "ì£¼ìĿĺëĬĶ": 7871,
      "Ġëĭ¨ìĪľíŀĪ": 7872,
      "ëĵ±ìĿĺ": 7873,
      "ìł¸ìĦľ": 7874,
      "ĠíĻĶìĤ°": 7875,
      "Ġê·¼ë¡ľ": 7876,
      "ê³łë¦¬": 7877,
      "ì²ľë§Į": 7878,
      "ãħĭãħĭãħĭãħĭãħĭãħĭãħĭãħĭãħĭãħĭãħĭãħĭãħĭãħĭ": 7879,
      "Ġì¡°ì§ĢìķĦ": 7880,
      "Ġíķĺê¸°ëıĦ": 7881,
      "Ġê²Įëĭ¤ê°Ģ": 7882,
      "ĠìĹĲë¥´": 7883,
      "Ġì¶ľìĭłìĿ´ëĭ¤": 7884,
      "ĠìĿ´ìĺ¨": 7885,
      "ĠëĤ¼": 7886,
      "ĠìĹŃìŀĦíķĺìĺĢëĭ¤": 7887,
      "ê°ĢìļĶ": 7888,
      "Ġì¶ľìĹ°íĸĪëĭ¤": 7889,
      "ĠìľĦëĮĢíķľ": 7890,
      "ĠìĦłíĺ¸": 7891,
      "íģ¬ëŀĺíĶĦíĬ¸": 7892,
      "ìĹ¬ê¸°ìĦľ": 7893,
      "1990": 7894,
      "ê±°ìĿĺ": 7895,
      "Ġë¶Ħê¸°": 7896,
      "Ġê·¸ëĵ¤ìĿĦ": 7897,
      "ĠëıĦìĦľ": 7898,
      "Ġë°ľê°Ħ": 7899,
      "ìĸ´ìĬ¤": 7900,
      "ë²ķìĿ¸": 7901,
      "Ġë²Īíĺ¸ëĬĶ": 7902,
      "ĠìĤ¬ëŀĳìĿĦ": 7903,
      "ĠìĻķì¡°ìĿĺ": 7904,
      "ĠìķĦë²Ħì§ĢìĿĺ": 7905,
      "Ġê²ĮìŀĦìĿ´ëĭ¤": 7906,
      "ìķĦíķĺ": 7907,
      "Ġë©ĶìĿ´ì§Ģ": 7908,
      "ĠìµľëĮĢìĿĺ": 7909,
      "Ġêµ¬ë©į": 7910,
      "ĠìĦľêµ¬": 7911,
      "ìĿ´ëĭĿ": 7912,
      "ëĭ¹ìľ¼ë¡ľ": 7913,
      "Ġë©Ķëĭ¬": 7914,
      "Ġêµ¬ê¸Ģ": 7915,
      "ĠìĨĲìĿĦ": 7916,
      "ĠìķĦëıĻ": 7917,
      "ĠíĶĦëĿ¼ìĿ´": 7918,
      "Ġëį°ëł¤": 7919,
      "ĠêµĲì°¨": 7920,
      "ĠìĦ±ê³µíĸĪëĭ¤": 7921,
      "íĭ°ìĬ¤": 7922,
      "ĠìĦľìª½ìľ¼ë¡ľ": 7923,
      "Ġì¶Ķê¸°": 7924,
      "ĠëĮĢë¶Ģë¶ĦìĿĦ": 7925,
      "ĠìĦĿìľł": 7926,
      "ĠíħįìĤ¬ìĬ¤": 7927,
      "Ġê²°ìĿĺ": 7928,
      "Ġì§Ŀ": 7929,
      "Ġê¸°ìĥģ": 7930,
      "ëĭĪìĭľ": 7931,
      "ĠìĿ´ëĿ¼íģ¬": 7932,
      "ĠëıĦìĦľê´Ģ": 7933,
      "íĨµíķ©": 7934,
      "ìĤ¼ìĦ±": 7935,
      "86": 7936,
      "Ġê³µê°ľëĲĺìĹĪëĭ¤": 7937,
      "íķĺëĿ¼ê³ł": 7938,
      "ê³ĦìĻĢ": 7939,
      "Ġë³´ìĬ¤": 7940,
      "ĠíĻĺìĬ¹": 7941,
      "Ġëŀ©": 7942,
      "íĶĦê°ĢëĭĪìĬ¤íĥĦ": 7943,
      "Ġë¶ĦìŀĲ": 7944,
      "ĠíħĲ": 7945,
      "ë¹ĦíŀĪ": 7946,
      "ĠëıĻíķ´": 7947,
      "ĠìŀĦë¬´ë¥¼": 7948,
      "Ġ56": 7949,
      "ĠìĽĲìĿ¸ìĿ´": 7950,
      "ĠíĥĦìķķ": 7951,
      "ì§±": 7952,
      "ìĺ¤ê°Ģ": 7953,
      "Ġëªħì¹ŃìĿĦ": 7954,
      "ì¶¤": 7955,
      "Ġë§Īê°Ĳ": 7956,
      "Ġì¡°ìĦłì´Ŀëıħ": 7957,
      "ĠìĤ¬ìłĦ": 7958,
      "ĠìłĦíĪ¬ë¥¼": 7959,
      "Ġìĥģìĭ¤": 7960,
      "ĠíĭĪ": 7961,
      "ë³¸ë¶Ģ": 7962,
      "ìĺ¤ìĬ¤íĬ¸": 7963,
      "Ġëĭ®": 7964,
      "Ġì²¼": 7965,
      "Ġíĥĵ": 7966,
      "ĠìĺģíĻĶë°°ìļ°ìĿ´ëĭ¤": 7967,
      "Ġê³½": 7968,
      "ìķĦìĭľ": 7969,
      "ĠìĤ¬ë§Ī": 7970,
      "ëª¨ìĿĺ": 7971,
      "ĠìĹĦë§Ī": 7972,
      "ìºĶ": 7973,
      "ĠìĿ´ìĥģìĿĦ": 7974,
      "Ġìľłë°ľ": 7975,
      "ë¯¸ìķĦ": 7976,
      "ĠíģĲ": 7977,
      "ìĸĺ": 7978,
      "ëĶ¸": 7979,
      "íĬ¹ë³ĦìŀĲì¹ĺ": 7980,
      "Ġê°ĢìĦ¤": 7981,
      "ìĨįìĿĢ": 7982,
      "ĠëĤĺëĿ¼ìĿĺ": 7983,
      "Ġë³´íİ¸": 7984,
      "Ġë¶Ģíĥģ": 7985,
      "ì°¨ìĿĺ": 7986,
      "ĠìĹħë¬´ë¥¼": 7987,
      "ĠìĹŃìĤ¬ê°Ģ": 7988,
      "ĠêµĲë¥ĺ": 7989,
      "ĠìĦ¸ê³ĦëĮĢìłĦ": 7990,
      "Ġìĺ¤íİĺëĿ¼": 7991,
      "êµ¿": 7992,
      "ĠìĤ¬ìľł": 7993,
      "ĠìĿ¸ê¸°ê°Ģ": 7994,
      "íĨłë¯¸": 7995,
      "Ġê²©íĮĮ": 7996,
      "ìĦ±ìĹĲìĦľ": 7997,
      "Ġ51": 7998,
      "Ġìŀ¬ìĥĿ": 7999,
      "Ġ1959": 8000,
      "ĠëıĻìĦ±ìķł": 8001,
      "Ġê²ī": 8002,
      "ìĭłë¬¸": 8003,
      "ê±°ëĬĶ": 8004,
      "íĥĢìŀĦ": 8005,
      "Ġëª¨íĦ°": 8006,
      "Ġ1952": 8007,
      "ĠìĹ°ë£Į": 8008,
      "Ġìłķë¶ĢìĹĲ": 8009,
      "ìķĮëłī": 8010,
      "Ġìĥģíĺ¸ìŀĳìļ©": 8011,
      "ëł¹ìĿĺ": 8012,
      "ĠìķĦíĭĢ": 8013,
      "ĠìĦľìĦľ": 8014,
      "ìľ¨ìĿĢ": 8015,
      "ĠìĿ´ëĿ¼ëĬĶ": 8016,
      "Ġê°ĢëĤľ": 8017,
      "Ġëħ¸ìĬ¤": 8018,
      "ìŁĪ": 8019,
      "Ġë§Īì£¼": 8020,
      "ìĬ¨ìĿ´": 8021,
      "ĠìĤ¬ìļ©ìŀĲ": 8022,
      "ì´ĪìĿĺ": 8023,
      "ì¸µìĹĲ": 8024,
      "ë¡ľìĹĲ": 8025,
      "Ġìĺ¬ìĬ¤íĥĢ": 8026,
      "Ġìķ¤ëĵľ": 8027,
      "Ġì¹¼ë¦¬": 8028,
      "Ġëĵł": 8029,
      "ãħĵ": 8030,
      "ê¸°ìĿ¸": 8031,
      "ĠëıĻìª½ìľ¼ë¡ľ": 8032,
      "Ġê³łê¸ī": 8033,
      "Ġ52": 8034,
      "ê¼´": 8035,
      "Ġë§ģíģ¬": 8036,
      "Ġë³´ê¸°": 8037,
      "ìķĺìľ¼ëĤĺ": 8038,
      "Ġê¸°ë°ĺìĿĦ": 8039,
      "ĠìĿ¼ìľ¼ì¼°ëĭ¤": 8040,
      "Ġìŀ¬ëĬ¥": 8041,
      "ìļ©ìĿĦ": 8042,
      "Ġì·¨ë¦¬íŀĪ": 8043,
      "Ġë®ĮíĹ¨": 8044,
      "ĠìĦ±ì§ģ": 8045,
      "ĠëĮĢíĳľë¡ľ": 8046,
      "ĠìĹĲìĦľëĬĶ": 8047,
      "Ġë³´ìĹ¬ì£¼ëĬĶ": 8048,
      "Ġë³´ìĿ´ì§Ģ": 8049,
      "íĨ°": 8050,
      "ë¦¬ì½Ķ": 8051,
      "Ġìĺģêµ¬": 8052,
      "Ġì²´ìłľ": 8053,
      "ëĮĦ": 8054,
      "ëħĦê²½": 8055,
      "ĠìľłíĬľë¸Į": 8056,
      "ë²ķê³¼": 8057,
      "Ġì£¼ìĹĲ": 8058,
      "ĠíķĺìĹ¬ê¸Ī": 8059,
      "íķĺìĹ¬ìķ¼": 8060,
      "ìĹĮ": 8061,
      "ì²´ìĿ¸": 8062,
      "Ġë¦¬ê·¸ìĹĲìĦľ": 8063,
      "52": 8064,
      "ĠìĬ¤íĥĪ": 8065,
      "Ġì¤Ħìĸ´ëĵ¤": 8066,
      "Ġì½ĺíħĲì¸ł": 8067,
      "ĠíĿĳìĿ¸": 8068,
      "Ġê¸°ë³ĳ": 8069,
      "Ġê±¸ì¹ľ": 8070,
      "íĮĲìĹĲ": 8071,
      "ĠìŀĪìľ¼ë¯Ģë¡ľ": 8072,
      "Ġë³¸ëĭ¤": 8073,
      "ĠìľĦìĹĲìĦľ": 8074,
      "ë¦°ìĿ´": 8075,
      "Ġë³¸ê²©ìłģìľ¼ë¡ľ": 8076,
      "ãħ£": 8077,
      "ĠíĶĦë¦¬ëĵľë¦¬íŀĪ": 8078,
      "ì²´ìĿ´ëĭ¤": 8079,
      "ĠêµĲíļĮìĿĺ": 8080,
      "ĠìĭľìŀĳíĸĪê³ł": 8081,
      "Ġíĸ¥íĨł": 8082,
      "ì¹¨ìĿĦ": 8083,
      "ĠíļįëĵĿíĸĪëĭ¤": 8084,
      "ĠìĽ¹ìĤ¬ìĿ´íĬ¸": 8085,
      "ìĿĦëķĮ": 8086,
      "ìĥĺ": 8087,
      "íĸĪìĹĪëĭ¤": 8088,
      "ĠìŀĪìľ¼ë©´": 8089,
      "ìĬ¤íĬ¸ëĬĶ": 8090,
      "Ġì¾Į": 8091,
      "ĠìĦ¸ìļ°": 8092,
      "Ġë²¡íĦ°": 8093,
      "ĠìķĪëĤ´": 8094,
      "Ġë§ŀì¶°": 8095,
      "Ġë§Ĳë¡ľ": 8096,
      "Ġë§¤ìŀ¥": 8097,
      "ëŁŃìĭľ": 8098,
      "Ġì±Ļ": 8099,
      "ĠíĽĦì¿łìĺ¤ì¹´": 8100,
      "ĠìĿ¼ì¢ħìĿĺ": 8101,
      "ĠìĦ±ê²½": 8102,
      "ê³¡ìĿĢ": 8103,
      "ĠìĪľíĻĺ": 8104,
      "íķĦëĵľ": 8105,
      "ĠìĿ´ìĻ¸ìĿĺ": 8106,
      "Ġê°ľì²Ļ": 8107,
      "Ġëªħìľ¼ë¡ľ": 8108,
      "ëĵľë¥´": 8109,
      "ìłľíĴĪ": 8110,
      "ëĶĶìĬ¤": 8111,
      "íĤ¤íį¼": 8112,
      "ĠëĤ´ëĨĵ": 8113,
      "Ġê¹Ģìłķ": 8114,
      "ãħĬ": 8115,
      "ëĭĪì¦ĺ": 8116,
      "ëª©ìľ¼ë¡ľ": 8117,
      "Ġìļ©ìĸ´ëĬĶ": 8118,
      "Ġë³´ëĥĪ": 8119,
      "Ġë°ľìĿĮ": 8120,
      "ĠìĿ¼ìĥģ": 8121,
      "ĠíķľìĿ¼": 8122,
      "ë¯¼ìĿĺ": 8123,
      "Ġì²łê±°": 8124,
      "78": 8125,
      "Ġê²½ëĤ¨": 8126,
      "ĠìľłíĨµ": 8127,
      "Ġëĵľë¬¼": 8128,
      "Ġìŀħëĭ¨íĸĪëĭ¤": 8129,
      "ŁìķĦ": 8130,
      "Ġëª¨ë°ĶìĿ¼": 8131,
      "ĠëĲĺê¸°": 8132,
      "ë§İìĿ´": 8133,
      "ĠìĥĿíĥľ": 8134,
      "Ġìĭ¬ì§Ģìĸ´": 8135,
      "ĠìłģìĿĳ": 8136,
      "ĠìĥĪëģ¼": 8137,
      "íĽĪëł¨": 8138,
      "ìłĪìĿĦ": 8139,
      "Ġíģ¬ë¦¬": 8140,
      "Ġíı¬íķ¨ëĲĺìĹĪëĭ¤": 8141,
      "ĠíĶĦëŀŃ": 8142,
      "íĥĢì§Ģ": 8143,
      "Ġë¸Ķë¡Ŀ": 8144,
      "Ġê¸°ìĹ¬íĸĪëĭ¤": 8145,
      "ìļ©ìĿĺ": 8146,
      "ĠìĨĮíĻĶ": 8147,
      "ëĤ¨ìŀĲ": 8148,
      "ê·¸ë¡ľ": 8149,
      "ĠëıĮíĮĮ": 8150,
      "ĠëıĻë°©": 8151,
      "Ġë¹ĦìĬ¤": 8152,
      "íķĺê¸°ìĹĲ": 8153,
      "ĠíķĺëĬĲ": 8154,
      "ë¦ŃìĬ¤": 8155,
      "ì²ŃëħĦ": 8156,
      "ĠìŀħìĿĢ": 8157,
      "Ġì°¨íĬ¸ìĹĲìĦľ": 8158,
      "Ġë¹ĦíĮĲìĿĦ": 8159,
      "ĠíŀĻíķ©": 8160,
      "ĠíķľìŀĲ": 8161,
      "ĠìłľëıĦë¥¼": 8162,
      "Ġì£¼ìŀ¥íķĺëĬĶ": 8163,
      "Ġíģ¬ëłĪ": 8164,
      "ëī´ìĬ¤": 8165,
      "ĠìķĮëłĪ": 8166,
      "Ġë¶ģìķĦë©Ķë¦¬ì¹´": 8167,
      "ì¥ĲëĬĶ": 8168,
      "Ġ49": 8169,
      "Ġë¸ĮëłĪ": 8170,
      "ĠëıĦìĽĢìĿ´": 8171,
      "ĠìĪĺìĨĮ": 8172,
      "êµ¬ìĹŃ": 8173,
      "ëĭĪê¹Ĳ": 8174,
      "Ġíı¬íĬ¸": 8175,
      "Ġê²ĮìŀĦìĿĺ": 8176,
      "ìĹĨìĸ´": 8177,
      "Ġíĺ¸íĿ¡": 8178,
      "Ġë³µìĿĮ": 8179,
      "ëŀı": 8180,
      "ĠìĬ¤íĶĦë§ģ": 8181,
      "íĻĶíķĻ": 8182,
      "ĠìŀĲê°Ģ": 8183,
      "ìĹĲìĬ¤": 8184,
      "ĠìĨįëıĦ": 8185,
      "ìķĦì¹¨": 8186,
      "ë¶ĦìĿĢ": 8187,
      "ë§ĲìĿ´": 8188,
      "ëĭ¤ëŀĢ": 8189,
      "ë©Ķë¥´": 8190,
      "ĠìĨĮíĶĦíĬ¸ìĽ¨": 8191,
      "ìłľì£¼": 8192,
      "Ġë°ĿìĿĢ": 8193,
      "ëĮĢë¬¸": 8194,
      "Ġì´Īì²Ń": 8195,
      "ĠëĵľëĿ¼ë§ĪìĿ´ëĭ¤": 8196,
      "ìľłìĤ°": 8197,
      "Ġê°ķëĤ¨": 8198,
      "Ġìĭ±ìĸ´": 8199,
      "Ġãħľ": 8200,
      "ìĹ°ìĿĺ": 8201,
      "Ġê°ķìļĶ": 8202,
      "ĠìŀĪìĸ´ìķ¼": 8203,
      "ĠíĥĦíķµ": 8204,
      "Ġ54": 8205,
      "Ġë¯¸êµŃìĿĢ": 8206,
      "Ġê³¨ëĵľ": 8207,
      "ëĿ¼ìļ´": 8208,
      "Ġíķĺëįĺ": 8209,
      "ĠìĤ°íĻĶ": 8210,
      "Ġíĺ¸ìĪĺ": 8211,
      "ê±°ê¸°": 8212,
      "ĠíķľêµŃìĸ´": 8213,
      "Ġìŀłìŀ¬": 8214,
      "ìĹĲìĦľë¶ĢíĦ°": 8215,
      "Ġìļ°ìĪĺ": 8216,
      "ĠìĽĲìĿ¸": 8217,
      "Ġì§Ħì£¼": 8218,
      "Ġíı¬íķŃ": 8219,
      "Ġ1953": 8220,
      "ĠìĪĺì»·": 8221,
      "Ġ1943": 8222,
      "íķĺëĬĶê±°": 8223,
      "êµ°ìĹĲê²Į": 8224,
      "Ġìĵ°ëŁ¬": 8225,
      "Ġ1955": 8226,
      "ĠëĤĺíı´ëłĪìĺ¹": 8227,
      "Ġ1942": 8228,
      "Ġë°ľìĥĿíķĺìĺĢëĭ¤": 8229,
      "íŀĮëĭ¤": 8230,
      "ë²łíĬ¸ëĤ¨": 8231,
      "Ġìļ´ìĨ¡": 8232,
      "ë¡ľìĦľëĬĶ": 8233,
      "íĳ¼": 8234,
      "Ġìŀħëł¥": 8235,
      "ëŁ¼ë¹ĦìķĦ": 8236,
      "ĠíĨłë¡łíĨł": 8237,
      "ĠìĹ´ìĹĪëĭ¤": 8238,
      "ê²Łëĭ¤": 8239,
      "ĠìľłëĤĺìĿ´íĭ°ëĵľ": 8240,
      "ìĸ¸ìłľ": 8241,
      "ĠìĤ¬ê±´ìĿĺ": 8242,
      "Ġê°ĢìĨį": 8243,
      "ì¹´ëĿ¼": 8244,
      "Ġíĸĩ": 8245,
      "íĿ¬ëĬĶ": 8246,
      "ìķĦíĤ¤": 8247,
      "Ġëį©": 8248,
      "Ġìĺ¤ì¼Ģ": 8249,
      "ĠìĭĿíĴĪ": 8250,
      "ëĭ¹ìĹĲìĦľ": 8251,
      "Ġìĭ¤ì²ľ": 8252,
      "ì§ĳíķ©": 8253,
      "ë´Ĳìķ¼": 8254,
      "ëĭĪìĻĢ": 8255,
      "ê°ģíĺķ": 8256,
      "ĠìĿ´ìļ©íķł": 8257,
      "ĠëıĻìĸĳ": 8258,
      "ìĦ¼íĬ¸": 8259,
      "ĠëĮĢíķĻêµĲìĿĺ": 8260,
      "Ġë°°ê²½ìľ¼ë¡ľ": 8261,
      "ì§ĢëĤĺ": 8262,
      "ĠìķĦìĬ¤": 8263,
      "ì½ĶíĶĦ": 8264,
      "ìĿ¼ìĬ¤": 8265,
      "íķĺë¥´íĬ¸": 8266,
      "ëŀĢìĥī": 8267,
      "Ġê°Īìĥī": 8268,
      "ìķĦíĮĮ": 8269,
      "ĠìĨĮëĵĿ": 8270,
      "ĠíĻĶê°Ģ": 8271,
      "Ġë°ľëłĪ": 8272,
      "ĠìĪĺë¥¼": 8273,
      "ë°Ń": 8274,
      "ê²©ìĿ´": 8275,
      "ĠìĺģíĻĶìĿĺ": 8276,
      "Ġê·¸ëħĢê°Ģ": 8277,
      "ĠìĿ¸íĦ°ë·°ìĹĲìĦľ": 8278,
      "ìĭ¤ìĹĲ": 8279,
      "ë²³": 8280,
      "Ġê³łìľł": 8281,
      "Ġê·¸ëŀĺëıĦ": 8282,
      "Ġëĭ¨ìĸ´": 8283,
      "ìļ´ëıĻìĿĦ": 8284,
      "īĺ": 8285,
      "ĠìĦ¹": 8286,
      "ĠìłĦëĤ¨": 8287,
      "ëĮĢìĽĲ": 8288,
      "Ġì§ĳìĿĦ": 8289,
      "ĠìĿ´ìĹĪëĭ¤": 8290,
      "Ġë¹ĦíĬ¸": 8291,
      "Ġì§Ģì¤ĳ": 8292,
      "Ġì¢ĭëĭ¤": 8293,
      "Ġëį°ìĿ´íĦ°ë¥¼": 8294,
      "ë¦¬ìļ°ìĬ¤": 8295,
      "ĠìĿ´ë¡łìĿĦ": 8296,
      "ìŀĲìĿ´ìŀĲ": 8297,
      "ë¬¼ê³¼": 8298,
      "ĠìĹĲëĵľìĽĮëĵľ": 8299,
      "ĠìĦ±ì§Ī": 8300,
      "Ġë§ŀì¶Ķ": 8301,
      "ê¿Ī": 8302,
      "ĠìĪĺì¤ĢìĿĺ": 8303,
      "ĠìĭŃìŀĲ": 8304,
      "ĠíŀĪë¡ľìĭľë§Ī": 8305,
      "ĠíĻĶìĦ±": 8306,
      "ë³´ëĤ´": 8307,
      "ìĹ°ëĮĢ": 8308,
      "Ġë¶Ļìĸ´": 8309,
      "Ġíģ¬ë¡ľìķĦíĭ°ìķĦ": 8310,
      "Ġê³µìŀ¥": 8311,
      "ìĤ¬ìĿ´ëĵľ": 8312,
      "ĠìĤ¬ê°Ģ": 8313,
      "ì£¼ìĿĺìĻĢ": 8314,
      "Ġê¸°ëıĦ": 8315,
      "Ġìĭ¸ìļ°": 8316,
      "ĠìľĦì¹ĺìĹĲ": 8317,
      "ĠìķĦì§ģëıĦ": 8318,
      "ë¦¬ìŀĲ": 8319,
      "ì§Ģë°©ìĦłê±°": 8320,
      "Ġë¶Ģë¥´ê³ł": 8321,
      "Ġìŀ¥ìĪĺ": 8322,
      "ĠëĮĢíķĻìĿĺ": 8323,
      "ìľĻ": 8324,
      "ê¸ĭ": 8325,
      "Ġë°ľìĥĿíķľëĭ¤": 8326,
      "ĠìĿ¸ëıĦìĿĺ": 8327,
      "ì¢ħêµĲ": 8328,
      "ìĭĿìĹĲìĦľ": 8329,
      "íĶĦëŀĢìĭľìĬ¤ì½Ķ": 8330,
      "ĠëĮĢëĭ¤": 8331,
      "ì¹´ë¯¸": 8332,
      "ìĨĮìĪĺ": 8333,
      "Ġì¤ĳíķĻêµĲìĿ´ëĭ¤": 8334,
      "Ġëħ¸ëıĻìŀĲ": 8335,
      "Ġì¹łëłĪ": 8336,
      "Ġë°©ìĸ¸": 8337,
      "ĠìĨĮìĬ¤": 8338,
      "íĶĮëĿ¼": 8339,
      "ëĥī": 8340,
      "ëĮĢìĥģ": 8341,
      "Ġìłģê·¹ìłģìľ¼ë¡ľ": 8342,
      "ë¬¸ê³¼": 8343,
      "Ġìŀħë²ķ": 8344,
      "Ġë¶ĢëıĻ": 8345,
      "ĠìĺģíĨłë¥¼": 8346,
      "ë§·": 8347,
      "Ġì¤ĳì¶Ķ": 8348,
      "Ġ1957": 8349,
      "Ġëļľëł·": 8350,
      "ĠëĤ¨ìķĦìŀĪ": 8351,
      "Ġê±į": 8352,
      "ĠìľĦìĽĲíļĮ": 8353,
      "ì°¨ìĹĲ": 8354,
      "ë³¸ìĿĢ": 8355,
      "ĠìĺģíĻĶë¥¼": 8356,
      "ĠìĤ´ìķĦëĤ¨": 8357,
      "ĠíĨłì°©": 8358,
      "ê²łëĦ¤": 8359,
      "ê²°ê³¼": 8360,
      "ĠìĭłìĿĺ": 8361,
      "Ġìŀ¥ë¹Ħ": 8362,
      "ë¯¼ìĿĢ": 8363,
      "Ġë°ľíĳľëĲĺìĹĪëĭ¤": 8364,
      "Ġê´ĳë³µ": 8365,
      "ĠìĤ¬ê±´ìĹĲ": 8366,
      "ĠíĮĶëłĪ": 8367,
      "Ġì´īì§Ħ": 8368,
      "ëŀ©": 8369,
      "ĠíĶ¼íĦ°": 8370,
      "ëĭ¬ëŁ¬": 8371,
      "ì½°": 8372,
      "ĠìĹ´ë¦¬ëĬĶ": 8373,
      "ĠìĤ¬ìļ°ìĬ¤": 8374,
      "ëĭ´ìĿĦ": 8375,
      "Ġë°ĶìĿ´ëŁ¬ìĬ¤": 8376,
      "Ġê°ĢìĻĢ": 8377,
      "ëł¹ìľ¼ë¡ľ": 8378,
      "ĠëĨĵìĹ¬": 8379,
      "ë³´ëĭ¤ëıĦ": 8380,
      "Ġê²½ê¸°ê°Ģ": 8381,
      "ë³´ìĿĺ": 8382,
      "Ġê³¨íĤ¤íį¼": 8383,
      "Ġê±·": 8384,
      "ĠìľĦíĤ¤": 8385,
      "íķ¨ìĿĢ": 8386,
      "ĠíĥľìĸĳìĿĺ": 8387,
      "Ġì§Ģì¹Ń": 8388,
      "ĠìŀĲë§¤": 8389,
      "íĪ¬íĳľ": 8390,
      "ìķ¨ë²Ķ": 8391,
      "ĠëĤ¨ëħĢ": 8392,
      "ê±´ìĿĺ": 8393,
      "íķĺìĹĲìĦľ": 8394,
      "ĠìłľìĿ´": 8395,
      "Ġë¯¸ìĵ°": 8396,
      "ĠëĮĢíķľë¯¼êµŃìĹĲìĦľ": 8397,
      "ĠíĬ¹ë³ĦíŀĪ": 8398,
      "Ġê³łê³ł": 8399,
      "Ġíĺ¸ì£¼": 8400,
      "ĠíĽĮë¥Ń": 8401,
      "Ġë¯¸êµŃìľ¼ë¡ľ": 8402,
      "Ġì¡°ìĦłìĭľëĮĢ": 8403,
      "ë¥µ": 8404,
      "ê³łëł¤": 8405,
      "Ġì§ĦíķĻ": 8406,
      "Ġê°ķíķĺê²Į": 8407,
      "ĠìĿĮë°ĺìĿĦ": 8408,
      "Ġìĺģíĸ¥ìľ¼ë¡ľ": 8409,
      "ì¡°ì°¸": 8410,
      "íĨłê°Ģ": 8411,
      "ĠìĺĪë°©": 8412,
      "Ġëĭ¤ëħ": 8413,
      "ì¹ĺìĺ¤": 8414,
      "ëł¹ìĿĢ": 8415,
      "Ġíģ¬ë£¨": 8416,
      "ëĿ¼ìĿ´íĦ°": 8417,
      "ìĿ´ìĹĪëĬĶëį°": 8418,
      "ĠëĮĢë²ķ": 8419,
      "Ġìĸ´ëĳĲ": 8420,
      "Ġê°ĸê²Į": 8421,
      "ìĤ¬ìļ°ë£¨ìĬ¤": 8422,
      "ìĪĺìĥģ": 8423,
      "Ġë³´ë¬¼": 8424,
      "ìľĦìĹĲìĦľ": 8425,
      "Ġëŀĳ": 8426,
      "ĠíĽĦë³´ê°Ģ": 8427,
      "ĠìłķíĻķíŀĪ": 8428,
      "ìłľìŀĳ": 8429,
      "Ġìĭľìłķ": 8430,
      "Ġêµ°ëĮĢ": 8431,
      "Ġì§ĳìķĪ": 8432,
      "ĠìĿ´ìĸ´ì¡Įëĭ¤": 8433,
      "300": 8434,
      "ĠìŀĲì²´ê°Ģ": 8435,
      "ĠíĪ¬ìĸ´": 8436,
      "ĠìĬ¤íĭ°ë¸Ĳ": 8437,
      "Ġìĭ¤ìĹħ": 8438,
      "Ġì§ĳíķĦ": 8439,
      "Ġì£¼ë³ĢìĿĺ": 8440,
      "ë°ĶíĿĲ": 8441,
      "ëĵ±ê¸ī": 8442,
      "ì¹´ìĺ¤": 8443,
      "Ġ600": 8444,
      "ë¦¬ë©°": 8445,
      "Ġê°Ĳìĭľ": 8446,
      "Ġë¬¼ëł¤": 8447,
      "Ġì£½ìĿĮìĿĦ": 8448,
      "ê¶Įê³¼": 8449,
      "ĠìĿ¸ìĥģ": 8450,
      "ë²Ħëĵľ": 8451,
      "ĠìķĦë©Ķë¦¬ì¹¸": 8452,
      "ìķĺì§Ģë§Į": 8453,
      "íĸ¥ìĿĦ": 8454,
      "ĠìħĶ": 8455,
      "Ġê±°ëĬĲ": 8456,
      "ĠìķĬìķĺì§Ģë§Į": 8457,
      "íģĲë©ĺ": 8458,
      "ê¼¬ë¦¬": 8459,
      "ĠìĿ´ìĿµ": 8460,
      "íķłëķĮ": 8461,
      "ê²°ìĿĦ": 8462,
      "Ġì¹ĺëłĢëĭ¤": 8463,
      "ëĭ¤ìĿ´ëĿ¼": 8464,
      "ĠìĥĿê¸°": 8465,
      "ì½Ķëĵľ": 8466,
      "ĠìĹĨìĸ´ìĦľ": 8467,
      "Ġë§Īëĵľë¦¬ëĵľ": 8468,
      "ĠëĮĢëĮĢ": 8469,
      "Ġê°ľêµŃ": 8470,
      "ĠíĴĭ": 8471,
      "ĠìķĦë²Ħì§Ģê°Ģ": 8472,
      "Ġì£¼ìŀ¬": 8473,
      "Ġëĵ¤ë©´": 8474,
      "ê±´ìĦ¤": 8475,
      "ĠêµŃê°ĢëĮĢíĳľ": 8476,
      "ëĭĺìĿĺ": 8477,
      "ĠìĿ¸ì²ľê´ĳìĹŃìĭľ": 8478,
      "Ġì¢ħìĿ´": 8479,
      "íģ´ëĿ¼": 8480,
      "ĠëĽ°ê³ł": 8481,
      "Ġë°ķë¬¼ê´Ģ": 8482,
      "êµŃìĿ¸": 8483,
      "ìłĲê³¼": 8484,
      "Ġìŀ¡ê³ł": 8485,
      "Ġê°Ģì¹ĺë¥¼": 8486,
      "ìŀ¬ëĬĶ": 8487,
      "ĠìĦľëªħ": 8488,
      "Ġì¢ĭìķĦíķĺëĬĶ": 8489,
      "ë¦¬ì§ĢëĦĲ": 8490,
      "Ġê°Ģë§Ī": 8491,
      "Ġì²ĺìĿĮìĹĲ": 8492,
      "ĠëĤĺëīĺìĸ´": 8493,
      "ìĿ´ë¦Ħ": 8494,
      "íĶĦìĬ¤": 8495,
      "ĠìĭłíĻĶ": 8496,
      "Ġìľłë°°": 8497,
      "Ġëª¨íĹĺ": 8498,
      "ë¬´ëĦ¤": 8499,
      "ĠëģĿìľ¼ë¡ľ": 8500,
      "ëį°ìĿ´íĬ¸": 8501,
      "ìĿĮìĹĲ": 8502,
      "ì¦ĪìĻĢ": 8503,
      "Ġëĭ´ê³ł": 8504,
      "Ġ58": 8505,
      "ìĦĿíĥĳ": 8506,
      "ê°ĻìĿĢëį°": 8507,
      "ĠìĿ¼ìĽĲ": 8508,
      "ëĲľëĭ¤ê³ł": 8509,
      "ĠìŀĳíĴĪìĿĺ": 8510,
      "ìĬ¬ëĿ¼ë¹ĦìķĦ": 8511,
      "57": 8512,
      "ĦìĥĪ": 8513,
      "ĠìłķìĭĿìľ¼ë¡ľ": 8514,
      "ìŀĳìľ¼ë¡ľ": 8515,
      "Ġë§Įëĵ¤ê¸°": 8516,
      "Ġìĺµ": 8517,
      "Ġêµ¬ìĦ±ìĽĲ": 8518,
      "ĠìķķëıĦ": 8519,
      "ë°ľìłĦ": 8520,
      "ĠíĶĦë¡ľê·¸ëŀĺë°į": 8521,
      "Ġê°Ģìĥģ": 8522,
      "ìļ°ì¹ĺ": 8523,
      "ĠëıĻë°ĺ": 8524,
      "Ġë¬´ë¦İ": 8525,
      "ê³łìĹĲ": 8526,
      "Ġë§¤ì£¼": 8527,
      "Ġë°©ìĨ¡ëĲľ": 8528,
      "Ġìĺ¤íĤ¤": 8529,
      "ĠëĤ¨ê²¨": 8530,
      "Ġë©ĶíĥĪ": 8531,
      "91": 8532,
      "Ġì£¼ëł¥": 8533,
      "ëįĶëĬĶ": 8534,
      "Ġìĥģíĥľê°Ģ": 8535,
      "Ġì¹´ëĿ¼": 8536,
      "Ġë³Ģíĺ¸ìĤ¬": 8537,
      "íĺ¸ì¿ł": 8538,
      "Ġë²Īì£¼": 8539,
      "Ġëªħìĭľ": 8540,
      "ĠëıĦì¿łê°ĢìĻĢ": 8541,
      "ĠìĨĮìĨįìĿĺ": 8542,
      "ĠìĹŃìĹĲìĦľ": 8543,
      "Ġìķ½íĥĪ": 8544,
      "ë°ĶëĤĺ": 8545,
      "ë¬´ìĬ¨": 8546,
      "íĺĦìĿĦ": 8547,
      "ĠëĮĢëıĻ": 8548,
      "Ġê´Ģê°Ŀ": 8549,
      "Ġê´Ģê³ĦìĹĲ": 8550,
      "ĠìŀĲëĿ¼": 8551,
      "Ġë°©ìĨ¡ìĿĦ": 8552,
      "Ġëª©ìĪ¨": 8553,
      "Ġ1914": 8554,
      "Ġë¨¹ëĬĶëĭ¤": 8555,
      "Ġì£¼ëĲľ": 8556,
      "ĠíıŃëł¥": 8557,
      "ìľĦìĽĲíļĮëĬĶ": 8558,
      "ĠìĥģíĻ©ìĹĲ": 8559,
      "ìĭľê¹Įì§Ģ": 8560,
      "Ġë°ľíĳľëĲľ": 8561,
      "ĠìĨĮì§ĳ": 8562,
      "ĠíĽĦíĩ´": 8563,
      "ĠìĹĨì§Ģë§Į": 8564,
      "56": 8565,
      "Ġê´Ģê³ĦëĬĶ": 8566,
      "ĠìľłëĮĢìĿ¸": 8567,
      "Ġëį§ë¶Ļ": 8568,
      "Ġëĭ¨ì¸µ": 8569,
      "ìŃ": 8570,
      "Ġë°ľë§¤íķľ": 8571,
      "ĠëłĪìĿ´ë¸Ķ": 8572,
      "Ġê¹ĢìĦ±": 8573,
      "Ġíģ´ëłĪ": 8574,
      "êµĲëıĦ": 8575,
      "Ġìıĺ": 8576,
      "Ġì½ĺìĦľíĬ¸": 8577,
      "ê¸°ìĿ´ëĭ¤": 8578,
      "ì¹ŃìĿĢ": 8579,
      "ĠíĥĢìĽĮ": 8580,
      "ìĻķíĽĦ": 8581,
      "Ġë°ĺëĮĢíķĺëĬĶ": 8582,
      "ëĮĢìĤ¬": 8583,
      "ìĽĲìĪŃ": 8584,
      "Ġë¶ģë¯¸": 8585,
      "1999": 8586,
      "ë¶Ģë¥´": 8587,
      "ĠìĹĲìĬ¤": 8588,
      "Ġì½Ķì¹ĺ": 8589,
      "ëĵĪ": 8590,
      "Ġë²¨ëĿ¼": 8591,
      "Ġìĺģìĸĳ": 8592,
      "ìĺģìĥģ": 8593,
      "ĠìĽĲíķĺëĬĶ": 8594,
      "ë¥ĺìĹĲ": 8595,
      "ĠìĿ´ìłģíķĺìĺĢëĭ¤": 8596,
      "Ġê°ĢìĿ´": 8597,
      "Ġì§Ģë¦¬": 8598,
      "Ġìľłëł¥": 8599,
      "Ġíı¬ì¼ĵëª¬": 8600,
      "ãħĩãħĭ": 8601,
      "ĠëķħìĿĦ": 8602,
      "ìĭ«": 8603,
      "Ġê°ľëŁī": 8604,
      "íĪ¼": 8605,
      "ëĭ«": 8606,
      "ĠìĤ¬ë§ī": 8607,
      "ĠìĨĮê·ľëª¨": 8608,
      "ĠìķĦëĭĪë©´": 8609,
      "ë°Ģíķľ": 8610,
      "Ġì§ĪëŁī": 8611,
      "Ġìľłìłģ": 8612,
      "ĠëĳĲê°ľ": 8613,
      "ì²ľìĿĺ": 8614,
      "ë¡¬ë¹ĦìķĦ": 8615,
      "ĠìķĬê¸°": 8616,
      "Ġë§ºìĹĪëĭ¤": 8617,
      "ê°Ģë£¨": 8618,
      "Ġë©Ķëª¨ë¦¬": 8619,
      "Ĳģ": 8620,
      "íĻĶíķĺëĬĶ": 8621,
      "íĥĢìĻĢ": 8622,
      "êµ°ìĤ¬": 8623,
      "Ġë§Īíĭ´": 8624,
      "íİĺìĿ´ì§Ģ": 8625,
      "Ġë§İìķĺëĭ¤": 8626,
      "ëıĻìĭľì§Ģë°©ìĦłê±°": 8627,
      "ĠëĶ´": 8628,
      "ìŀĦìĿĢ": 8629,
      "Ġìŀ¬ë£Į": 8630,
      "Ġìłģìĸ´ëıĦ": 8631,
      "Ġê°ĲëıħìĿĢ": 8632,
      "Ġë¤": 8633,
      "íģ¬ìĻĢ": 8634,
      "ìĵ¸": 8635,
      "Ġê°ľëªħ": 8636,
      "ëŀĢëĭ¤": 8637,
      "ĠìĿ´ìĸ´ìĦľ": 8638,
      "Ġë¶ĪëłĢ": 8639,
      "Ġê¶Įë¦¬": 8640,
      "ìĭľìĬ¤íĬ¸": 8641,
      "ìķĦìķ¼": 8642,
      "Ġê°ķë¦ī": 8643,
      "ë¹¨ë¦¬": 8644,
      "ĠìķĦìĺ¤": 8645,
      "íķľëĭ¤ë©´": 8646,
      "ìĥĿìĤ°": 8647,
      "ĠíĸīìľĦë¥¼": 8648,
      "ëĮĢë¶Ģ": 8649,
      "Ġê·¸ë¦¬íķĺìĹ¬": 8650,
      "ĠìĿ´ëħĲ": 8651,
      "ĠìĤ¬ì°°": 8652,
      "ĠìĹ°êµ¬ëĬĶ": 8653,
      "ë¦¬ìķĦëĬĶ": 8654,
      "Ġê¹Ķ": 8655,
      "ĠìĤ´ìķĺëĭ¤": 8656,
      "Ġë°ĶìĿ´ëŁ¬": 8657,
      "ëĲ¨ìĹĲ": 8658,
      "íķĺê²łëĭ¤ê³ł": 8659,
      "ĠìĹĳìĬ¤": 8660,
      "ê·¸ëķĮ": 8661,
      "ĠìĭłëıĦ": 8662,
      "ìĹ¬ìĦ±": 8663,
      "ì¹ĺë£Į": 8664,
      "ĠìŀĦìĿĺìĿĺ": 8665,
      "ëħĦê¹Įì§ĢëĬĶ": 8666,
      "ìĸ´ìĸ´": 8667,
      "íģ¬ìĬ¤": 8668,
      "ĠëĮĢë³Ģ": 8669,
      "Ġìłķì¹ĺìĿ¸": 8670,
      "Ġ1936": 8671,
      "Ġ1938": 8672,
      "íĺĦìĿ´": 8673,
      "ë§ĲìĿĦ": 8674,
      "ĠìľłìłĦìŀĲ": 8675,
      "Ġì¶ķìĨĮ": 8676,
      "ĠìłĦì²´ë¥¼": 8677,
      "íĬ¸ë¡¤": 8678,
      "ĠìłķíĨµ": 8679,
      "Ġë°±ìĦ±": 8680,
      "Ġìķ±": 8681,
      "ìļ°ìĬ¤ìĿĺ": 8682,
      "ĠíĻĪëŁ°ìĿĦ": 8683,
      "¤ëĭ¤": 8684,
      "Ġì£¼ìłľ": 8685,
      "ìĭłê³¼": 8686,
      "íİ´": 8687,
      "ë²Īíĺ¸": 8688,
      "Ġì²Ńêµ¬": 8689,
      "ĠìĥĿê°ģìĿĦ": 8690,
      "ìĤ¬ìļ°ë£¨": 8691,
      "ë³´ê°Ģ": 8692,
      "Ġì°©ìļ©": 8693,
      "Ġë°ľíľĺ": 8694,
      "ĠíĽĦìĹĲëıĦ": 8695,
      "ĠìĿ´ëģĮìĸ´": 8696,
      "Ġë§ºê³ł": 8697,
      "Ġì¹´ìļ´íĭ°ëĬĶ": 8698,
      "Ġìĭľê°Ģ": 8699,
      "Ġìľłìļ©": 8700,
      "ĠíĻ©ìłľìĿĺ": 8701,
      "ë°ĶíĤ¤ìķĦ": 8702,
      "Ġë¶Ģë¥´ê¸°ëıĦ": 8703,
      "ìłģìĿ´ë©°": 8704,
      "58": 8705,
      "ìľ¼ëŁ¬": 8706,
      "Ġë¦¬ì²ĺëĵľ": 8707,
      "ĠìĺĪìĤ°": 8708,
      "Ġíı¬íķ¨ëĲľ": 8709,
      "ë³¶": 8710,
      "Ġë©´ìĹŃ": 8711,
      "ëĭĪìĹĲ": 8712,
      "1980": 8713,
      "Ġë²¼ìĬ¬": 8714,
      "Ġìĺģíĺ¼": 8715,
      "íĨłë¥¼": 8716,
      "Ġëĭ¤ìĿ´ë¬ĺ": 8717,
      "ì£¼ëħĦ": 8718,
      "ìķłëĤĺ": 8719,
      "Ġë§īê¸°": 8720,
      "ìķĦëĥĲ": 8721,
      "ìĺģìĿ´": 8722,
      "Ġìĭ¤ëĤ´": 8723,
      "Ġìĺģíĸ¥ëł¥ìĿĦ": 8724,
      "ĠìłľëĦ¤": 8725,
      "ê¸ĪìĿĢ": 8726,
      "Ġê°Ĳìłķ": 8727,
      "íı¬ìĬ¤": 8728,
      "ëĵłì§Ģ": 8729,
      "Ġê±´ë¬¼ìĿĢ": 8730,
      "ê´Ģê³Ħë¥¼": 8731,
      "ìĺĢëĭ¤ê³ł": 8732,
      "ĠíĮ¨íĦ´": 8733,
      "ì´Ŀë¦¬": 8734,
      "ĠìłĦë¶ģ": 8735,
      "Ġëª»íķ´": 8736,
      "ĠìĨĲìĹĲ": 8737,
      "ĠëĶ°ëľ»": 8738,
      "ìĦĿìľ¼ë¡ľ": 8739,
      "ĠìĦ±ê³¼": 8740,
      "Ġë¯¸êµŃìĿ¸": 8741,
      "ìħ¸": 8742,
      "ĠìĨĮìļĶ": 8743,
      "Ġì¦Ŀìĸ¸": 8744,
      "Ġë©Ģíĭ°": 8745,
      "Ġíİĳ": 8746,
      "ë¬¸ìĿ´ëĭ¤": 8747,
      "ìĦ¸ê¸°ìĿĺ": 8748,
      "ĠëıĻìķĦ": 8749,
      "ê¹Įì§ĢëıĦ": 8750,
      "ìĿ¸ê°Ħ": 8751,
      "Ġì§Ħê²©": 8752,
      "Ġìĥģíķĺ": 8753,
      "ĺ¥": 8754,
      "ìļ©ìĿĢ": 8755,
      "ê°Ķê³ł": 8756,
      "Ġìĭ±ê°Ģíı¬ë¥´": 8757,
      "Ġê°ľìŀ¥": 8758,
      "ĠìĦ±ëĤ¨": 8759,
      "Ġê³µìĽĲ": 8760,
      "Ġ53": 8761,
      "ìĶĢ": 8762,
      "Ġê¸°ë³¸ìłģìľ¼ë¡ľ": 8763,
      "ĠìĺĨìĹĲ": 8764,
      "ë°©ìĿ´": 8765,
      "ĠíĮĮíĤ¤ìĬ¤íĥĦ": 8766,
      "Ġëªħëĭ¨": 8767,
      "Ġê·¹ë³µ": 8768,
      "íķĺë©´ìĦľëıĦ": 8769,
      "ĠëĤĺíĥĢëĤľ": 8770,
      "Ġëª¨ìĬµìĿ´": 8771,
      "ĠíĨłëĦĪ": 8772,
      "Ġì£¼ë³ĢìĹĲ": 8773,
      "ì¤ĳìĿ´ëĭ¤": 8774,
      "ĠìĿĺê²¬ìĿĦ": 8775,
      "ìĺ¬ë¦°": 8776,
      "ĠìĤ¬ëıĦ": 8777,
      "ĠìĤ°íķĺ": 8778,
      "ì¼ĢìĿ´íĮħ": 8779,
      "Ġê³¤ì¶©": 8780,
      "Ġê²½ê¸°ìŀ¥": 8781,
      "ë°Ľì¹¨": 8782,
      "ë°ĺìĿĺ": 8783,
      "ĠíĬľ": 8784,
      "ê¸ĪìĿ´": 8785,
      "ĠìĪĺíĺ¸": 8786,
      "ëħ¸ìĿĺ": 8787,
      "Ġê³¼ëıĦ": 8788,
      "Ġê¹Ģì¢ħ": 8789,
      "¼ìĨĲ": 8790,
      "Ġë§¤ëĭĪ": 8791,
      "Ġ110": 8792,
      "ĠìĤ¬ìĿ´íĬ¸": 8793,
      "Ġì°¨ì§Ģíķľëĭ¤": 8794,
      "Ġì»¤ëĭ¤ëŀĢ": 8795,
      "ĠëıĮìķĦìĻĶëĭ¤": 8796,
      "ĠìłĦêµŃëıĻìĭľì§Ģë°©ìĦłê±°": 8797,
      "Ġë°ľìłĦìĿĦ": 8798,
      "ì£¼ìĿ¼": 8799,
      "Ġê°ķìĿĦ": 8800,
      "ì²ŃìĿĺ": 8801,
      "Ġê¼¬ë¦¬": 8802,
      "Ġì¤ĳìĦ±": 8803,
      "ëª¨ëĭĪ": 8804,
      "Ġì²«ì§¸": 8805,
      "Ġê³µê¸°": 8806,
      "ìĺ¤ë¥´": 8807,
      "Ġ800": 8808,
      "ë©´ê³¼": 8809,
      "ìĥĿìĿ´": 8810,
      "ìĿĮìĿĢ": 8811,
      "ì¿¼": 8812,
      "ĠìĦ¸ê³Ħë¥¼": 8813,
      "ì©Ķ": 8814,
      "ĠíļĮìĤ¬ìĿĺ": 8815,
      "Ġì¹´ìŀĲ": 8816,
      "Ġë°°ê¸ī": 8817,
      "íİĦ": 8818,
      "ë¨¹ëĬĶ": 8819,
      "ĠëĨįì´Į": 8820,
      "ë¥łìĿ´": 8821,
      "ì£¼êµ°": 8822,
      "ë¡łê³¼": 8823,
      "Ġë£¨ë§ĪëĭĪìķĦ": 8824,
      "1998": 8825,
      "Ġê¾¸ì¤ĢíŀĪ": 8826,
      "ĠìĬ¤íĨ¤": 8827,
      "ë°Ķìķ¼": 8828,
      "Ġë¶ĢìĨį": 8829,
      "ê¸Ģë¦¬": 8830,
      "ì¦ĪíĤ¤": 8831,
      "Ġì§ĢìĹŃìĿ´": 8832,
      "Ġë²ķìłģ": 8833,
      "ĠìĿ¸ì¦Ŀ": 8834,
      "íĥĢëĤĺ": 8835,
      "ĠëĤĺìĿ´ìĹĲ": 8836,
      "ë¡ľë¯¸íĦ°": 8837,
      "ĠìĽĲëħĦ": 8838,
      "ĠíĮĮìĥĿ": 8839,
      "ĠëıĦìĭľëĬĶ": 8840,
      "Ġìłł": 8841,
      "ëıĦëĭĪìķĦ": 8842,
      "ĠìĹ´ë§¤": 8843,
      "íĨłìĬ¤": 8844,
      "ĠíķĦëĿ¼": 8845,
      "Ġíķĺëĭ¤ê°Ģ": 8846,
      "Ġ1910": 8847,
      "ĠíĻĭì¹´ìĿ´ëıĦ": 8848,
      "Ġê°±": 8849,
      "ìĿĮìĿĺ": 8850,
      "ëĭ¨ê³Ħ": 8851,
      "ĠìĿ´ëªħ": 8852,
      "ë¬¸ìľ¼ë¡ľ": 8853,
      "ëĭ¹íķĺê³ł": 8854,
      "Ġì¡°ìĦłìĭľëĮĢìĿĺ": 8855,
      "ëĬĲëĥĲ": 8856,
      "Ġê³łíĨµ": 8857,
      "ì¤ĳìĭ¬": 8858,
      "ĠìĹĲëĦĪì§Ģë¥¼": 8859,
      "Ġì¢ģìĿĢ": 8860,
      "ìĥģìĿ´ëĭ¤": 8861,
      "Ġì²ľìķĪ": 8862,
      "ê¸´ëĭ¤": 8863,
      "Ġ57": 8864,
      "ĠìĹĨìĹĪê³ł": 8865,
      "Ġìĭ¬ìŀ¥": 8866,
      "íģ´ë¦°": 8867,
      "ĠíĻĢë¡ľ": 8868,
      "ìĿ´ëĿ¼ë©´": 8869,
      "ì²´ìĹĲìĦľ": 8870,
      "Ġê³łì¢ħ": 8871,
      "íı¬íĬ¸": 8872,
      "ĠìĽĲìĭľ": 8873,
      "Ġíĺ¼ìĿ¸": 8874,
      "ì¹´ìĬ¤": 8875,
      "ëħ¸ë¯¸ìķ¼": 8876,
      "Ġêµ°ìĤ¬ë¥¼": 8877,
      "ĻìĿĢ": 8878,
      "ëĬ¦": 8879,
      "Ġë©ĭ": 8880,
      "ĠìķĦìĿ´ìĬ¤": 8881,
      "ëıĮíĶĦ": 8882,
      "Ġê³³ìĿĢ": 8883,
      "ê²½ê¸°ìĹĲìĦľ": 8884,
      "ĠìĺģìĹŃ": 8885,
      "Ġê°Ħëĭ¤": 8886,
      "íīģ": 8887,
      "Ġìĭľì¼ľ": 8888,
      "íĺ¸ìĦłìĿĺ": 8889,
      "ĠìĥģíĥľìĹĲ": 8890,
      "ĠìĭľìłĪìĹĲ": 8891,
      "ĠëĬĳ": 8892,
      "Ġì§ĢìĹĪëĭ¤": 8893,
      "ê±´ëį°": 8894,
      "íĩ´ê·¼": 8895,
      "ì¡°ìĻĢ": 8896,
      "íİ¸ìĿ´": 8897,
      "Ġ1935": 8898,
      "Ġ1937": 8899,
      "Ġ1918": 8900,
      "ĠìĺĽëĤł": 8901,
      "ĠìĹĺë¦¬ìŀĲ": 8902,
      "Ġê¸°ë¶Ģ": 8903,
      "Ġë³´ìĿ´ê³ł": 8904,
      "ĠìĹ°ìķĪ": 8905,
      "Ġë¡ł": 8906,
[...]
